[PAD]
[UNK]
[CLS]
[MASK]
[SEP]
!
"
#
$
%
&
'
(
)
*
+
,
-
.
/
0
1
2
3
4
5
6
7
8
9
:
;
<
=
>
?
@
[
\
]
^
_
`
a
b
c
d
e
f
g
h
i
j
k
l
m
n
o
p
q
r
s
t
u
v
w
x
y
z
{
|
}
~
¡
¢
£
¤
¥
¦
§
¨
©
ª
«
¬
®
¯
°
±
²
³
´
µ
¶
·
¸
¹
º
»
¼
½
¾
¿
×
ß
à
á
â
ã
ä
å
æ
ç
è
é
ê
ë
ì
í
î
ï
ð
ñ
ò
ó
ô
õ
ö
÷
ø
ù
ú
û
ü
ý
þ
ÿ
ā
ă
ą
ć
ĉ
ċ
č
ď
đ
ē
ĕ
ė
ę
ě
ĝ
ğ
ġ
ģ
ħ
ĩ
ī
ĭ
į
ı
ĳ
ķ
ĺ
ļ
ľ
ł
ń
ņ
ň
ŋ
ō
ŏ
ő
œ
ŕ
ř
ś
ŝ
ş
š
ţ
ť
ũ
ū
ŭ
ů
ű
ų
ź
ż
ž
ſ
ƒ
ơ
ư
ǂ
ǎ
ǐ
ǒ
ǔ
ǫ
ǵ
ș
ț
ȩ
ȯ
ɑ
ɔ
ə
ɛ
ɡ
ɨ
ɪ
ʃ
ʊ
ʌ
ʒ
ʯ
ʰ
ʻ
ʼ
ʽ
ʾ
ʿ
˃
ˇ
ˈ
ˌ
ː
˘
˙
˚
˛
˜
˝
ˮ
́
̃
̇
̥
̧
̨
̯
̱
͡
΄
ά
έ
ή
ί
α
β
γ
δ
ε
ζ
η
θ
ι
κ
λ
μ
ν
ξ
ο
π
ρ
ς
σ
τ
υ
φ
χ
ψ
ω
ό
ύ
ώ
а
б
в
г
д
е
ж
з
и
й
к
л
м
н
о
п
р
с
т
у
ф
х
ц
ч
ш
щ
ъ
ы
ь
э
ю
я
ё
ђ
є
і
ї
ј
љ
њ
ћ
ў
џ
ѣ
ѧ
ґ
қ
ү
ұ
ӏ
ә
ӣ
ӧ
ө
ӯ
ա
բ
գ
դ
ե
թ
ի
լ
կ
հ
մ
յ
ն
ո
պ
ս
վ
տ
ր
ւ
ք
ְ
ִ
ֵ
ֶ
ַ
ָ
ֹ
ּ
ׁ
א
ב
ג
ד
ה
ו
ז
ח
ט
י
ך
כ
ל
ם
מ
ן
נ
ס
ע
ף
פ
ץ
צ
ק
ר
ש
ת
ء
آ
أ
إ
ئ
ا
ب
ة
ت
ث
ج
ح
خ
د
ذ
ر
ز
س
ش
ص
ض
ط
ظ
ع
غ
ف
ق
ك
ل
م
ن
ه
و
ى
ي
َ
ُ
ِ
ّ
پ
ک
گ
ہ
ی
ܐ
ܝ
ं
अ
क
ग
च
ज
ण
त
द
ध
न
प
ब
भ
म
य
र
ल
व
श
ष
स
ह
़
ा
ि
ी
ु
ू
े
ै
ो
्
র
া
্
க
ா
ி
்
ก
ง
ช
ด
ต
ท
น
พ
ม
ย
ร
ว
ส
ห
อ
ะ
ั
า
ิ
ี
เ
ไ
่
้
་
ག
ང
ད
ན
པ
བ
མ
འ
ར
ལ
ས
ི
ུ
ེ
ོ
ྒ
ྱ
က
င
တ
န
မ
ရ
ာ
ိ
ု
ေ
း
်
ა
ბ
გ
დ
ე
ვ
ზ
თ
ი
კ
ლ
მ
ნ
ო
რ
ს
ტ
უ
ქ
შ
ც
ძ
ხ
ḍ
ḗ
ḥ
ḩ
ḫ
ḱ
ṃ
ṅ
ṇ
ṛ
ṣ
ṭ
ạ
ả
ấ
ầ
ậ
ắ
ẵ
ế
ề
ể
ễ
ệ
ị
ọ
ố
ồ
ổ
ộ
ớ
ờ
ợ
ụ
ủ
ứ
ữ
ự
ỹ
ἀ
ἄ
ἐ
ἡ
ἰ
ὁ
ὐ
ὴ
ὶ
ὸ
ῆ
ῖ
ῥ
ῦ
ῶ
‐
‑
‒
–
—
―
‖
‘
’
‚
‛
“
”
„
†
‡
•
…
‰
′
″
‹
›
※
⁄
⁻
₂
€
℃
℉
ℓ
№
™
⅓
⅔
⅛
←
↑
→
↓
↔
⇒
⇔
∅
∆
∈
−
∙
√
∞
∴
≈
≡
≤
≥
⌀
─
│
┐
├
┬
┼
╝
▒
■
▪
▲
▶
▷
▸
►
▼
▾
◀
◄
◊
●
★
☆
☰
♠
♣
♥
♦
♪
♫
♬
✓
✔
✘
❌
❒
❤
⨯
、
。
あ
い
う
え
か
が
き
く
け
こ
さ
し
す
せ
そ
た
だ
っ
つ
て
で
と
な
に
の
は
ま
み
め
も
よ
ら
り
る
れ
を
ん
ア
イ
ウ
キ
ク
ゲ
サ
ザ
シ
ジ
ス
タ
ッ
ト
ド
ナ
バ
ビ
フ
ブ
マ
ミ
ム
ラ
リ
ル
レ
ロ
ン
・
ー
一
万
三
上
下
不
世
东
中
为
主
了
二
五
京
人
他
们
会
体
佛
你
信
偶
元
光
八
公
円
出
分
効
化
北
区
十
千
南
县
口
古
台
号
司
同
名
后
君
和
国
國
土
在
地
城
备
多
大
天
太
好
子
字
学
安
宗
家
寺
小
少
山
州
市
帝
師
平
年
後
德
心
必
快
急
慧
成
我
手
教
文
新
方
日
明
是
月
有
木
本
李
村
来
東
林
正
武
民
気
水
江
沪
法
波
流
海
漢
火
無
王
生
田
白
的
皇
相
真
社
神
福
空
简
經
繁
聖
聽
膮
膰
臋
艂
艅
艣
花
葉
行
術
街
西
要
見
言
話
語
贸
路
身
这
通
遁
道
都
金
鉄
镇
門
阿
雷
電
音
風
體
高
龍
가
게
경
고
구
국
기
김
나
는
니
다
대
도
동
라
랑
로
리
마
보
부
사
산
상
서
선
성
소
수
스
시
아
어
에
오
요
우
원
은
을
의
이
인
일
자
장
정
제
조
주
지
하
한
해
ﬁ
！
，
：
￼
😉
🙂
##o
##z
##n
##a
##l
##i
##s
##m
##y
##e
##c
##r
##d
##k
##ł
##t
##u
##w
##9
##3
##5
##1
##ę
##b
##g
##p
##ó
##h
##6
##°
##0
##f
##j
##ś
##ж
##е
##л
##ь
##v
##ą
##q
##ό
##ă
##7
##ż
##x
##4
##м
##ń
##ć
##ß
##ã
##σ
##π
##α
##ί
##č
##8
##2
##ĺ
##ā
##ṣ
##á
##ů
##ź
##˝
##£
##ř
##구
##š
##ľ
##í
##ä
##å
##ê
##é
##ב
##י
##ג
##ל
##и
##с
##о
##а
##ш
##у
##ü
##ğ
##́
##к
##ö
##ō
##ċ
##п
##в
##н
##´
##ч
##ю
##ˮ
##è
##ň
##ý
##ė
##ç
##я
##מ
##ה
##−
##д
##є
##т
##ز
##ر
##گ
##à
##ф
##艂
##贸
##ë
##ő
##â
##ž
##ª
##œ
##р
##ц
##й
##ē
##з
##і
##ъ
##ا
##ن
##و
##ø
##ǎ
##ě
##г
##ú
##ε
##ρ
##ι
##τ
##έ
##ď
##ˇ
##ñ
##ʯ
##س
##ئ
##ل
##ی
##ё
##ḥ
##ù
##ô
##ƒ
##õ
##њ
##ח
##ו
##ז
##ת
##æ
##ṭ
##ș
##ţ
##ְ
##ׁ
##ּ
##א
##ֵ
##ģ
##х
##ы
##б
##ς
##ʻ
##×
##ν
##ω
##ह
##र
##्
##ष
##ि
##û
##ò
##ī
##ο
##ū
##ŕ
##κ
##ή
##ա
##ր
##գ
##ի
##ս
##յ
##ն
##đ
##ŏ
##ў
##ي
##ط
##θ
##μ
##γ
##χ
##η
##ζ
##נ
##ħ
##َ
##أ
##ُ
##ȩ
##こ
##で
##っ
##た
##λ
##ξ
##φ
##υ
##љ
##ྒ
##ྱ
##ན
##ı
##բ
##հ
##մ
##ì
##म
##門
##ậ
##号
##ť
##ִ
##ס
##º
##ָ
##م
##み
##ه
##ラ
##ј
##δ
##ş
##→
##ʊ
##ד
##ð
##ế
##ῖ
##²
##ש
##щ
##ר
##ץ
##街
##道
##ア
##林
##ע
##±
##ט
##ლ
##膮
##ŭ
##정
##山
##ά
##ح
##宗
##ứ
##ː
##د
##ɡ
##ɔ
##에
##는
##ĕ
##ء
##ӏ
##ų
##ა
##ი
##ო
##ნ
##バ
##ッ
##ロ
##フ
##ミ
##リ
##ー
##艣
##ŝ
##ḍ
##ώ
##ַ
##တ
##们
##你
##ķ
##տ
##ե
##ï
##ン
##タ
##人
##ف
##ة
##ʾ
##÷
##̨
##ə
##南
##社
##区
##غ
##♦
##צ
##ї
##の
##術
##ґ
##ὐ
##®
##þ
##ვ
##ძ
##ე
##리
##스
##偶
##急
##膰
##ṇ
##ļ
##을
##ག
##ས
##̇
##≤
##王
##ˈ
##פ
##خ
##ṅ
##β
##ן
##ף
##ÿ
##ك
##ت
##ب
##כ
##해
##พ
##า
##ร
##ท
##เ
##ม
##น
##ع
##♪
##ḫ
##ѣ
##े
##寺
##이
##요
##ո
##円
##ם
##正
##國
##하
##자
##是
##ű
##의
##主
##教
##ț
##ѧ
##京
##ु
##ण
##ा
##ल
##ύ
##は
##火
##∴
##성
##在
##↑
##ग
##व
##द
##न
##त
##三
##十
##î
##ĭ
##世
##ņ
##ბ
##ს
##ா
##்
##™
##路
##い
##ֹ
##体
##中
##文
##君
##ק
##श
##家
##ﬁ
##վ
##य
##ू
##波
##国
##聽
##ะ
##ั
##ก
##ว
##ส
##ง
##ห
##่
##ช
##ต
##ิ
##分
##身
##と
##に
##き
##出
##す
##산
##다
##라
##인
##प
##़
##ी
##э
##明
##化
##有
##公
##司
##音
##一
##会
##★
##ʌ
##ं
##¬
##마
##아
##მ
##ّ
##方
##시
##州
##キ
##了
##რ
##口
##臋
##ך
##경
##ῶ
##古
##台
##ق
##ص
##ṃ
##้
##天
##¼
##ج
##ә
##う
##ạ
##ћ
##կ
##大
##ி
##க
##我
##法
##ſ
##元
##光
##͡
##東
##고
##ტ
##ĳ
##好
##ὸ
##ố
##ֶ
##土
##德
##高
##가
##安
##鉄
##☆
##ང
##ش
##̥
##া
##行
##村
##上
##ư
##ト
##ス
##ǔ
##か
##な
##선
##ṛ
##镇
##日
##本
##語
##한
##국
##어
##ไ
##ย
##니
##ǫ
##字
##ұ
##不
##的
##동
##주
##遁
##қ
##ơ
##子
##ŋ
##ḗ
##µ
##်
##言
##ो
##로
##も
##ệ
##西
##田
##제
##ظ
##ờ
##●
##来
##年
##ụ
##ク
##ہ
##원
##通
##ǐ
##平
##師
##花
##อ
##和
##都
##太
##あ
##万
##ȯ
##ゲ
##マ
##レ
##シ
##ܝ
##ܐ
##ữ
##¨
##̧
##ɨ
##ɪ
##্
##র
##为
##ψ
##心
##イ
##經
##پ
##ễ
##च
##ज
##ब
##대
##ọ
##ɛ
##ὴ
##市
##地
##下
##џ
##ル
##江
##だ
##ာ
##民
##⅛
##क
##ध
##ồ
##ʿ
##ོ
##ナ
##ị
##が
##る
##よ
##ĝ
##³
##ấ
##장
##ذ
##ى
##부
##ӣ
##福
##后
##ả
##艅
##⅓
##ђ
##そ
##れ
##भ
##င
##း
##ု
##ө
##り
##ث
##ジ
##게
##დ
##ض
##♠
##ム
##ِ
##サ
##ĉ
##გ
##უ
##თ
##기
##ိ
##န
##え
##て
##せ
##̯
##ớ
##½
##ể
##조
##պ
##ւ
##թ
##ῆ
##˚
##帝
##ै
##स
##要
##ま
##さ
##後
##月
##ზ
##კ
##ら
##海
##¾
##소
##̱
##˙
##¹
##ʽ
##ġ
##成
##ี
##ด
##ʒ
##ʃ
##め
##ん
##名
##を
##ʰ
##ɑ
##ရ
##က
##同
##信
##ک
##ხ
##ũ
##ˌ
##流
##도
##오
##상
##し
##은
##수
##դ
##ῦ
##ド
##ブ
##ウ
##手
##電
##€
##إ
##⅔
##보
##우
##五
##白
##₂
##風
##≥
##ུ
##ӯ
##真
##雷
##神
##ợ
##შ
##♣
##ự
##生
##空
##آ
##ḩ
##他
##ầ
##į
##新
##皇
##ү
##这
##城
##̃
##多
##♥
##ʼ
##≈
##ི
##ལ
##지
##ẵ
##འ
##学
##武
##快
##랑
##ქ
##相
##나
##ǵ
##ổ
##ề
##小
##龍
##ǒ
##ք
##ḱ
##≡
##ủ
##⇔
##け
##서
##二
##¢
##ӧ
##사
##ད
##΄
##မ
##ἰ
##ビ
##↓
##く
##見
##⁄
##լ
##∙
##김
##つ
##気
##ེ
##ც
##佛
##ắ
##少
##木
##漢
##❤
##ေ
##體
##葉
##阿
##ὶ
##མ
##ộ
##慧
##∞
##無
##备
##金
##北
##县
##聖
##√
##ἀ
##일
##←
##ར
##八
##千
##↔
##￼
##必
##简
##¥
##བ
##℃
##水
##繁
##ザ
##ĩ
##ℓ
##李
##ỹ
##効
##¸
##东
##˛
##པ
##⁻
##©
##話
##─
##ἄ
##∈
##ie
##st
##ze
##ow
##zy
##an
##ra
nie
##ię
##ia
po
##ch
na
##dz
##sz
pr
je
##am
##ak
##nie
do
to
##li
##le
##go
za
##ni
##ar
##em
się
##ał
##cz
##on
jest
##ro
wy
##ka
##ła
##na
##ów
##ci
##ne
mo
##ko
prze
##cie
że
##je
##ym
co
ch
te
##dzie
##er
##or
##at
##ki
##my
ro
st
##ku
by
##ło
##ce
tak
jak
##dy
##aj
##ny
##wo
##rze
sp
##la
##czy
##cze
od
##wa
##dzi
wie
dz
##wi
ko
##re
przy
mi
ty
##bi
##że
##cj
##by
##szy
##ry
##cy
pow
##ty
##iał
##no
##da
##rz
##anie
ni
pro
##nia
##en
##bie
kt
##ści
##eś
ma
##wie
##owa
##as
##mi
##kie
##al
cz
##ść
##si
##ej
##ją
mu
ale
##sta
pra
##sze
pod
##tu
pan
##rzy
go
##łu
##mie
##ru
##ję
##ta
czy
sz
któ
mnie
##ąd
##ad
in
##ba
wi
tu
##ek
roz
##ły
dob
bę
zo
##po
##ną
dla
mam
##pi
##owan
##ma
##ój
wszy
może
##ja
lu
##raz
##śli
##wia
ci
mie
##mu
ja
##pie
##in
dzie
##ca
##ży
##ego
bo
tym
##od
##pra
powie
##ró
ra
##owie
ob
##ych
wię
##ot
##cji
wszyst
##nych
ju
cze
tego
##lu
##szę
##im
jed
jesteś
##et
##łem
my
##lko
zna
chc
##ają
##ania
re
sam
ze
mog
będzie
tylko
##gi
##mo
##wy
##dział
##ami
zro
##ez
są
cię
##ani
##śmy
##ała
mów
##nym
##do
przez
##nego
pie
##uje
##to
##owi
##dę
ka
##te
##cia
bar
##os
##za
już
##il
##kt
ws
##ga
pot
kie
jestem
ży
##ście
pa
cie
le
##ony
no
pe
naj
jeśli
so
##ować
da
##el
##ski
był
li
wo
zrobi
two
##lo
wła
##un
mówi
spra
poz
sk
##skie
##rw
##niej
##nej
##iała
20
##ował
##kę
##owy
ku
coś
czas
##ona
wiem
##bu
cho
kon
##stę
##du
##cho
##ter
być
##liśmy
musi
praw
##ków
dzię
##pu
##sa
tam
##bo
zap
##czą
##sy
##ół
dobrze
kiedy
mar
##sk
zost
gdzie
##ało
teraz
więc
##zu
kto
chce
##śl
jej
##emy
bez
##szcze
##łam
##cja
było
ten
które
proszę
##dzo
on
moż
sy
du
swo
##ent
wszystko
bardzo
##ałem
##ane
##owe
##one
19
nic
##so
##dni
##ana
##nę
jego
zd
przed
zam
sie
gdy
##stęp
robi
miej
pi
żeby
masz
##sie
##praw
ok
lat
##taj
##łeś
##ran
##gl
ta
pani
##gu
##ać
##fi
##kaz
##su
##sty
mogę
we
##czego
##owo
ich
dzi
##cu
spo
##ności
##bym
bu
##dź
##kiem
de
sobie
moje
##ri
cał
##dzieć
jeszcze
##óż
który
##pe
pew
##ób
nas
##we
##any
##gra
##czę
ciebie
##sza
al
##yt
rze
##rę
miał
miejs
zak
##lej
##cję
też
tw
wiesz
##waż
kra
##czyć
##tw
##rod
su
ją
##śnie
##tor
##de
bi
##wią
lub
##pa
##ska
myśl
##ńst
##owych
chcę
##rząd
##ład
potrze
##um
##amy
dlaczego
##emu
##lem
roku
ost
mój
##niu
##owej
##owanie
##nik
bra
##nu
##sto
dzięku
mamy
##ką
##es
tutaj
chciał
##cyj
##słu
zabi
ar
##ór
była
pu
an
wsp
im
zn
wa
chcesz
wz
nig
zosta
##cią
pierw
##pad
si
##lan
##00
jako
##się
201
op
##om
samo
##cje
par
dziękuję
##cej
świa
zaw
tej
##wię
##łą
sko
każ
napraw
słu
##bą
ba
##for
##prasz
##dzę
og
##rowa
odp
##sią
nigdy
zoba
##ich
koch
##nię
##stu
star
pop
oraz
jakie
dobra
panie
##owania
gł
##bli
spraw
##cznie
##bra
naprawdę
##owego
##ck
##trzy
powiedział
naw
##czne
pol
możesz
kom
gra
przeprasz
prac
##ały
takie
nad
##sp
ru
twoje
war
##ól
stra
porząd
##sko
##dzić
trzy
##dze
##sł
##sia
przepraszam
##zna
##ność
##aty
tro
nawet
##yba
raz
##nij
tra
nam
##gie
myśli
czł
##dzy
##ii
pomo
dru
świe
ak
or
##gł
##ód
chyba
me
##ach
##lat
czego
##nt
##ji
porządku
rodzi
##ali
mat
swoje
##lę
muszę
##zem
##dą
pom
##wać
##róci
wygl
znaj
stan
właśnie
wszystki
fi
ona
chodzi
ser
##jemy
##owym
domu
doty
##nika
szy
aby
ostat
##cą
##scy
##szą
##nić
au
##ałam
powin
zrobić
oczy
##kład
rów
oj
czę
więcej
nim
powiedz
##der
sta
jedno
##co
prawda
##wiąz
##dać
##rą
##skiego
dzięki
##se
##cza
sze
##spo
trze
##amię
mó
śmie
##tem
szko
##odź
##dzą
dy
##ju
zawsze
poli
hi
kar
##ałeś
was
sły
fa
mia
wal
jaki
kil
##chę
pię
czym
chwi
będę
##ono
##owany
odpowie
##rzę
oso
przyja
##aniu
##dł
pana
##kaj
dłu
##czu
##óź
lo
##mawia
##nist
##arz
##pis
##łaś
##czenie
rzeczy
##ery
rozu
##tów
jesteśmy
##ców
##tro
##skiej
se
ktoś
##rzu
##chodzi
musisz
ce
##cych
rozumie
##wczy
uży
##prowa
chło
##dziej
tych
żad
wszystkie
nasze
sto
##ujesz
prob
##szym
albo
##ste
ludzi
ry
dost
usta
moja
##ową
niż
##ge
##mia
musimy
of
powiedzieć
chodź
zmie
gru
##jąc
pomy
twój
##lep
##ano
pamię
##tnie
trochę
nau
wiel
##czenia
##di
##ans
możemy
prowa
##ron
ge
inter
woj
wszyscy
##ńczy
10
um
##ąda
powi
wyk
for
tę
dro
hej
szyb
##owane
##orzy
człowie
kur
##szło
am
równie
##szych
został
pre
##rów
spe
razem
##ost
pat
##arzy
sł
potrzeb
##pom
dziewczy
życie
##kro
##cznych
kim
##owni
##cha
można
miesz
##wał
kró
##chod
##szt
##szu
prostu
##kach
org
spos
##nąć
ga
##ob
##tak
spot
##dnie
##leg
##orze
chole
##th
##kura
właści
##zie
infor
państ
##ciu
##czny
jas
mają
##lar
##nak
dalej
również
widział
tobą
##czas
##chaj
##piej
daj
bie
mógł
tele
kobie
dotyczą
boże
zw
bro
rę
chłop
tat
##wiście
mię
stało
środ
dw
wróci
##gę
wygląda
##kać
##wić
och
jo
##cę
200
póź
##szcz
znale
cześć
ludzie
czasu
##łe
pyt
wyst
przyj
##py
szcze
##onych
##ymi
##dzisz
mną
##byś
kogo
##unk
która
kolej
##anych
wra
niez
##żej
##kol
th
prokura
działa
naz
wia
dobry
temu
##ec
##art
##jesz
przygo
minist
uważ
##dziemy
zie
dzień
##niem
czemu
##ral
gło
związ
dzieci
##stwo
będziesz
koń
##ti
##ciw
dwa
##and
wyd
jeden
wskaz
ad
miło
##wiek
powinie
##wier
##ory
wol
myślę
śmier
##ęż
niech
miejsce
godzi
cią
jednak
zg
##dal
następ
czu
##tk
##sku
##dow
uk
##kolwiek
także
##alnie
duż
niego
##ur
##jące
##skich
##latego
dlatego
##per
wiele
##liwo
##res
##zi
pracy
jedy
szu
dnia
powod
oczywiście
mał
lek
##daw
sposób
organi
sh
lepiej
pl
wszystkich
##rani
ho
pok
##uro
##peł
mus
ucie
obie
będą
otw
fran
informa
siebie
##trz
ek
nale
##laz
##liście
zast
każd
##dza
najlep
produ
##cznej
la
nich
świat
nikt
zapyt
wyso
be
dziec
zło
taki
##ską
##ner
sek
zaj
##zenia
##staw
##czej
twoja
plan
sw
##tury
##ll
róż
zach
wte
wtedy
robisz
18
problem
zamk
zm
##tyw
##ard
kilka
wiedział
##lni
##ając
##biera
zgo
##rym
myślisz
sprze
poprze
tru
włas
wyj
syst
ani
ostatni
##byt
dom
moim
##io
##trzym
##ng
przygot
##stwa
##stać
##ciąg
##skim
##rzą
kry
##sh
konie
przeciw
##chu
zamie
rz
nazy
były
##wat
oko
zdo
mor
##rony
##onu
##ścia
##nek
znaleź
potrzebu
ponie
mogą
prób
##sła
##onal
got
pój
mieć
między
face
kat
dziś
##szego
umie
rad
fil
stąd
wyb
pół
##śle
##ff
##ew
##jęcia
minu
nr
cy
oni
ile
##iad
##row
innym
##ing
męż
sa
##chać
dok
potem
##bę
##den
będziemy
zab
pomó
##czna
pewnie
##naj
##orz
##tar
##łat
15
później
wam
pozwo
proje
ist
kole
##dziesz
##łuma
##daje
hist
znaczy
więk
progra
mło
##ród
##lić
##son
waż
##ałaś
##rób
szczę
##tra
##men
tem
##zd
##pit
##dzia
daw
##ct
wcze
poko
##lie
mojego
głów
zwy
##nios
poka
rozumiem
os
uwa
##zn
przej
##ber
zad
trzeba
peł
spotk
poro
sku
##cki
dod
pli
##sji
klu
kor
cały
bardziej
dzieje
##aż
skąd
##iu
pier
długo
##owana
cóż
##mości
##świa
12
jednost
##oł
miała
aktu
postęp
##rucho
bezpie
nią
##rza
szybko
##is
##ża
znalaz
stanie
##żeli
stu
dużo
komi
zadz
##dził
pomóc
##cznego
zmi
##cem
nag
przedsta
cu
##ezpie
niej
musiał
##ckie
##ke
sprawie
zan
podczas
##oru
jeżeli
##tam
którzy
tyle
życia
##stan
##czni
mojej
pas
nadzie
met
##ment
dobre
##bię
pięk
##liwe
##tę
ła
jasne
zako
moją
zaba
organiza
##aniem
kla
głu
ag
kr
##mać
##dem
ponieważ
##ryw
prawdzi
##pera
jakiś
dziw
wiedzieć
##stań
jakieś
przyjacie
spoko
##szedł
cent
##kowie
byłem
pierwszy
dow
##cer
##man
euro
dni
uwie
współ
##kami
##ly
##mawiać
ha
telef
##śniej
##nem
##więk
iść
słysz
##ora
##ve
wystar
fir
##war
##łych
zag
których
posłu
##let
##ort
podej
dowie
wp
##nku
##cić
##żyć
##owu
##ktu
##dzenia
##nii
uro
##strze
##cznym
he
dr
zbyt
##chy
przypad
##miot
przykro
30
##siaj
##tych
wej
us
##rzeć
dzisiaj
zau
ul
##ąt
okre
##owała
##ktor
czar
##liz
kurwa
##nął
takiego
wiado
zrozu
##ok
wyko
kam
regi
zaraz
##cyjnych
##dłu
##ądź
przek
##owałem
innych
##pre
cięż
swoją
zanim
każdy
##rew
##anej
dokład
##fa
gó
hot
aż
zapom
##brać
##gn
##pli
ki
poroz
##owią
##be
fin
powst
nadal
poważ
bud
szczeg
pewno
idź
została
lubi
##szej
począ
wło
wyp
stat
##czył
histor
części
ban
dział
##dar
poza
zale
rozpo
up
robić
gdyby
strze
##cją
wcześniej
którym
sty
trzym
podob
##tora
bli
##logi
dia
kogoś
poja
##owości
11
mówię
##mę
##kój
##oną
poś
lot
##stą
car
##nienia
##vi
mart
kontro
cholera
przestań
##zenie
zobaczyć
##ser
##mów
##stru
##stra
##nad
##wali
##ąc
##ciąż
##szłości
##woni
##kań
obec
którego
##ciec
chłopak
sza
##wal
potra
por
tobie
mówisz
rzecz
ojciec
wszystkim
##tać
proce
skończy
pla
zaczy
miałem
koniec
system
har
powinni
##dne
ję
num
opu
miejsca
skar
wiecz
##uj
##liwości
zł
the
szan
##chni
księ
ofer
##żenie
##tua
cia
dar
której
nor
tą
##jących
##ster
razy
amery
##ol
nierucho
tygo
ne
zało
minut
sytua
##rzyć
tow
noc
##alne
chciała
##czeńst
##rom
win
ksią
ponad
zobaczy
decy
16
rację
należy
widzę
taka
prawo
stary
##ren
##tek
świetnie
zła
##miast
sprawa
kocham
##ura
myślałem
wciąż
twoim
nami
##zacji
minister
##ądze
ode
##łę
pomocy
##dzone
##owanych
gene
##łącz
znaleźć
joh
publi
drz
17
##gle
##sić
wspól
pieni
kiedyś
spój
nasz
kapit
##bia
##ers
pró
pytanie
drugie
##ss
wypad
nadzieję
##żu
##dnia
zde
gmi
powodu
tran
kochanie
##now
##jący
języ
właścicie
ud
okaz
przekaz
##jęcie
##nar
czerw
##ią
pła
sil
##ler
gry
auto
##zać
199
chciałem
zrobił
krzy
##stępu
##czną
stanowi
czasie
##żą
##cię
wyba
##nemu
##mniej
słuchaj
##tki
którą
##ające
dokładnie
mężczy
zni
sło
chi
##jech
tłuma
##świad
##bezpie
syn
##kty
dotyczące
speł
przyjaci
zostać
##łoby
posia
wielu
##sów
gu
spójrz
rusz
wyja
gro
chciałbym
##cym
##cież
wrac
pozna
##tasz
##wodni
lata
krakowie
py
##szo
pora
powiedziała
00
##żę
##liby
pieniądze
##ium
##tku
świę
##gh
komu
funk
##kow
razie
mogła
##szczę
stos
14
ozna
##bar
kraj
##bior
widzisz
##widł
zmieni
lep
preze
osób
komp
##wania
dwó
powiem
zje
##lam
##rp
##sił
poprzedni
##żenia
##czekaj
miejscu
zapew
napi
##bud
potrzebuję
twojej
##pę
nocy
miasta
jutro
mili
siost
sama
panu
latach
wykorzy
##dno
##fer
ter
dwóch
rząd
żyje
przyjaciół
ład
##owali
dziecko
żebyś
społe
inne
weź
##glę
pry
##onego
dostęp
##les
vi
##sięcy
##era
wprowa
##orem
pomyśl
numer
##tą
pły
##roni
##iałem
tato
##ronie
prawie
cór
##szczy
##zji
zostanie
maj
##wę
imię
sobą
##wiera
##owę
znam
gor
ele
##sem
##oba
czter
znowu
##lny
##ant
##lom
##dia
##min
dwie
takim
##ńcz
państwa
##kowi
##kam
##czki
##róż
##ley
##nymi
##działa
niko
temat
zabić
macie
strony
pog
robo
sen
regional
świet
ustawy
sch
widziałem
człon
pozy
sztu
##ld
stw
sprawy
##dob
##chód
prokurator
jaką
##ha
istnie
polity
oh
13
##ton
kości
nieruchomości
rzu
##fie
odk
mamo
##len
wydaje
zapro
spokoj
drzwi
##stytu
##bierz
niekt
twoją
posłuchaj
##tru
zga
oto
##alo
wyżej
broń
nowy
posta
##hi
art
jakby
bądź
##iar
kol
per
##wcze
##óki
##ut
czyli
mówić
##ników
opie
czuję
swój
pal
ca
##wanie
kraków
##sti
em
mniej
chwilę
taj
##nią
fe
wielkie
spokój
##czkę
moc
##arze
człowiek
czegoś
##pię
##dów
##tach
##piero
kan
##rum
cel
##br
oce
##czka
##pić
ran
super
##owano
and
kli
łat
are
jednym
przeszłości
czekaj
ri
pole
żadnych
tre
##onym
##nością
dam
niektó
opi
wiadomo
##wił
piep
bym
dop
prawa
opera
##duje
wiemy
zwie
projekt
końcu
straci
kłam
ści
zdoby
wielki
##mal
##line
##lą
stara
świad
finans
jezu
di
wygląd
twojego
podmiot
arty
bó
##ński
##jąć
##licy
część
##mag
john
gospo
skrzy
innego
##ić
swoim
brz
przysz
##aną
##atk
pomysł
##szko
aktualnie
194
ram
##redni
one
##gą
##chi
##niki
prokuratury
##ret
ab
powinniśmy
zain
##lenie
przecież
zapytanie
##wen
łą
##wiet
proble
byli
##gląd
fak
##dań
gi
pokoju
licz
dość
pozost
jaka
##pia
sir
miesią
wzią
jesteście
zu
##chodzą
##ver
ego
biał
char
jedną
swoich
##moż
nauczy
prezy
part
mieszk
##rót
##dzaj
##cjal
związku
telefon
obu
śmierci
lotni
takich
połu
rok
porozmawiać
ust
ziemi
ana
celu
kas
##bro
powiedziałem
##nicy
głos
##ger
narod
eksp
jednego
prawidł
wro
##órz
##dziel
zrób
##nosi
warto
swojego
##raż
pomoc
półno
##tego
świecie
wez
##żd
spełnia
cha
swojej
muzy
popro
##rona
obowią
kontak
##gan
udział
25
##net
kryter
gdzieś
ojca
wieku
##rat
##ształ
prof
##szed
##aka
##mina
atak
wnios
kro
##me
centrum
morder
podleg
powinna
moich
wysoko
##prac
zostały
większo
rozp
##wien
mówiłem
##cami
##dług
##gar
zas
zasa
prokuratorowi
##ływ
poł
chwili
według
mama
##dzenie
zaczą
martw
##ul
##lin
wystarczy
facet
uni
##ajcie
stron
klie
regionalnemu
##lot
nazyw
las
100
byłeś
##onej
##muje
potrafi
##rwa
##west
ste
##jcie
prowadzone
napis
słowa
czeka
##ho
samochod
##stw
bad
zostało
najwy
cieka
##dent
##nam
oby
##arza
postępowanie
##dzieli
odej
##us
gospodar
##ścić
##cyjne
jack
podoba
wygra
spad
nazwi
pracę
kul
##kacji
##trze
skoro
##kować
reali
świata
jedna
budy
##maty
dziecia
zwyk
pewien
pozwoli
powro
##wer
nimi
zrobię
nowe
50
loka
elekt
patrz
fun
przygotowa
lubię
san
naszej
##wną
ps
ciągle
##ks
ap
kryteria
słuch
zamknij
mist
##cep
##giem
pozw
mon
przykład
możliwe
popraw
##mat
##eli
##sam
poje
##zo
##tej
ot
drogi
dale
najwięk
##wiam
ide
zabaw
rady
gar
##dli
bry
brak
stronie
sła
poprzednim
##neś
szczęśli
wsze
##cenia
naszych
idziemy
grani
rozmawia
zwo
ofi
obo
przeprowa
##śnia
##czaj
tor
##ciej
książ
##śmie
źle
ukry
##nienie
##ctwa
##bardziej
pienię
oba
pis
sąd
wod
##roż
pil
najbardziej
##czora
##mp
##żył
powinieneś
żebym
##czoraj
##ata
##anego
niczego
gre
woje
wykon
yo
przewodni
##pierw
bru
dotyczącym
wę
##dopo
##dzt
przekazania
##rem
życiu
byłam
żar
wró
spokojnie
##szyć
rodzaj
her
zawo
##tel
wskazane
nazywa
strasz
##nawi
##owaniu
sena
nowego
ener
##nta
wczoraj
##owało
##trzymać
dopiero
mil
zdecy
##cka
##ąż
para
organizacyjnych
żoł
jednostkach
rozwiąz
##fek
##kuje
zakre
miejsc
pozwól
##nki
całą
właściwie
##wą
kompu
doku
ważne
zapła
podległych
program
korzy
24
pet
wzglę
miejską
##maga
naszego
spę
gminę
śle
wyg
zaję
##log
##cach
znasz
##gii
sprawę
##ału
prawidłowości
##kła
kosz
mater
ucze
grze
mówił
##lenia
online
kieru
##orzyć
pracu
zaczę
odd
chcą
podmiotom
szczegól
pamiętasz
##czają
jakim
niepo
usłu
śmierć
przygotowawcze
samochód
widzi
##liwość
rodziny
rob
idzie
zobacz
państwo
##asz
##stów
wskazanej
pierwsze
stop
##hat
##sce
regu
właścicielom
##szenie
ogó
##pej
boga
zapytaniu
uda
##nił
##tuje
kraju
informacji
##aniał
##cjon
##mienia
wil
gów
##niał
przet
załat
tygodni
najpierw
uzy
mały
król
##alu
ina
zmar
##zja
wypo
człowieka
polski
służ
198
##kcji
pięć
lecz
##ph
oznacza
##rach
kło
powinien
poru
##onie
obej
##wnątrz
uder
szkoły
więzie
rozumiesz
szuka
godzin
ska
##aku
zbli
##dzię
##lne
##rodze
byś
całe
bezpieczeńst
wybacz
##ier
udało
oka
informacje
nasza
##stawie
pań
każdego
matka
niebezpie
kilku
##dopodob
nienawi
##nętrz
##czone
wrze
##ździe
spełniałoby
każdym
wspaniał
zre
zgi
##owałeś
poło
naszym
telewi
##niesie
przeciwko
ben
##cent
usły
dać
##anę
inaczej
towarzy
##dziłem
dokąd
el
warsza
##zek
często
zaczyna
warun
ludz
początku
##orząd
##szka
zostaw
ponow
samym
##czony
rozm
##nes
trzymaj
##dny
przedstawi
sądzę
000
##kun
##tym
22
##ir
##najmniej
około
prywat
inny
ukra
uwagę
##cił
wrócić
poważnie
##land
##kin
rano
gwia
chcemy
##unku
urząd
pamiętam
lin
zabój
krwi
natych
chodźmy
##onów
niemie
zapo
myśle
natychmiast
##czeń
podstaw
2017
193
idę
doświad
osoby
kłopo
##enty
przypadku
##szła
jakiego
przynajmniej
ręce
dyre
zdjęcia
miasto
ogóle
dzwoni
północ
##lacji
przemy
państw
zabra
pozo
osią
zatrzym
kre
bóg
witaj
diab
##róbu
##dzam
##łó
##tera
##pon
##nka
europej
dodatk
##czności
oś
##robi
końca
##dol
bur
##kcie
##któw
mówią
pos
ofia
nar
dem
film
iz
rat
połą
potrzebuje
dosk
21
powinienem
wasze
okrę
ed
przyby
zespo
znik
punk
##ord
wyją
wiedziałem
##zm
##niku
osobi
wąt
wst
##aki
faj
cen
dopóki
brzmi
zgodnie
wina
wierzy
chcie
wpad
ber
pieniędzy
poszu
kwest
##gam
##niejsze
##libyśmy
znów
byłoby
tere
tłumaczenie
wzro
całkowi
żołnie
cokolwiek
spa
mieszka
myślałam
pogo
znajduje
at
otwar
pliku
##kar
godziny
##ore
##ill
nikogo
chciałam
##orów
sm
zadzwo
con
##pozy
opowie
pozn
cztery
##anym
następnie
wk
hotel
dwu
spróbu
szans
##ścią
jad
odw
##ństwo
kobiety
zauf
##ell
##tom
dziewczyna
zdecyd
dra
witam
en
posiad
intere
prawdę
##ogra
widzieć
syna
psych
maszy
natu
dowo
próbu
szef
czujesz
##jmy
choć
nowo
##pro
rozwo
##nieść
wido
##qu
pacje
powiesz
krew
raczej
tech
miałam
##cać
genera
chocia
##kół
powt
południ
skład
sej
wspom
197
spół
##szał
moi
##szcza
gli
obser
powstrzy
stre
papie
##lności
##por
##lach
panowie
rób
jedynie
##str
przeka
osiąg
lip
błę
##op
miłość
czasem
pun
zrozum
odzy
chociaż
2016
dowód
żadnego
tom
spod
wojny
##niesz
odci
odpowiedzia
##owałam
mieli
powiedziałeś
##giel
##czek
doktor
##pada
otrzym
##akie
łóż
zdra
wspania
man
komisji
23
##ary
taką
zrobiłem
medy
obraz
przedsię
prag
zakresie
wierzę
komputer
##won
sprzeda
dolar
poznać
żona
gdybym
rozsze
wiadomość
interes
##gów
ostatnie
dzien
##wnętrz
dane
##dziła
##kiej
wraz
pytania
##cego
det
##spek
zrobiłeś
##wiał
##czonych
drodze
używ
##cale
zrozumie
##bec
ślu
hand
##ciel
halo
wyglądasz
danych
##sek
admi
##oli
instytu
uczy
##lność
zasłu
stać
niem
##ńczyć
blisko
mary
##szcie
##artam
zatru
wojsk
##rami
ke
odby
potwier
kobieta
tur
zwycię
krę
zostawi
jam
trafi
zamia
miesięcy
nadz
##owiad
prawdopodob
robię
oddział
wyciąg
##liza
ziem
zgło
umy
##inę
40
##owia
zabrać
km
stał
zim
ocze
słyszałem
zgadza
wyna
ciągu
tytu
##nach
zauwa
większość
sym
##win
twier
##ciem
##raź
odwie
urat
parę
agen
##sja
druży
słyszy
##jął
wody
##nic
##rii
##gen
ciało
##szenia
uz
całkiem
serce
##ologi
##dach
##owod
##pełnie
zaczekaj
brat
##rano
##stąpi
utw
##śród
odkry
##lubi
zdrow
sekun
panią
twarz
puł
ple
czek
far
obsz
##czeniu
pieprz
##otę
sygn
sce
pojęcia
##czym
##zę
##kan
pokaz
drugiej
##owników
##ckiego
wiecie
odpowiedzi
choler
broni
ii
sprób
mieście
wcale
ryzy
trzech
głę
##sać
działania
strzel
##ający
kawał
192
dostać
27
przewodniczą
hu
klasy
##bieg
ow
ur
postan
##va
pomoże
tajem
##rakt
196
##owaliśmy
##dzień
##racji
##nikiem
##onać
dan
świ
##jeżd
##rzenia
pokój
problemy
eg
##alny
uczu
zawiera
##ya
wyłą
zabił
will
niesam
ponownie
##nica
nato
pójdę
śla
cholery
pokaż
##ed
prosi
hote
kupi
techni
mało
skon
nowym
zakład
impre
osob
los
try
##ńskiego
czymś
##seł
twoich
charakt
niesamowi
##prawia
fan
##spół
wspar
móz
uspo
żyć
możecie
umiera
profes
specjal
przyję
uciek
tata
zastrze
drugi
szuk
##owały
jaj
dup
powrotem
przestęp
195
qu
dal
diabła
##che
konku
naszą
tar
czyn
agent
konty
szczęście
##óz
ostatnio
polsce
bal
##cc
wyjaś
kontakt
##syj
##ździer
króle
zamknię
cieszę
bom
wyrzu
paździer
przyjem
##oła
##ang
transp
##iom
obecnie
poczu
sal
dolarów
przezna
potrzebujemy
rek
bat
niewie
dziewczyny
plik
ciała
##fika
czasami
##czo
dostanie
zmienia
materiał
miałeś
reje
kos
złap
szkole
zmu
sprawdzić
##end
##wym
bla
##lii
##lnych
##bierze
obra
pewna
historii
ramach
##skar
pił
niep
wybu
roze
##ktorze
wyno
uko
##źle
wysł
środowi
##łym
##łości
pary
strona
firmy
wykorzyst
gór
frank
mogli
zastana
stronę
##bur
##tować
prakty
zy
głowy
jednej
powinno
zmiany
przysię
##ntów
kaz
##anii
wpływ
##iędzy
##lać
bł
##preze
duch
##kim
##ten
ograni
mistrz
słucham
nieu
reze
cała
##źni
mieliśmy
internet
it
poseł
zabiera
mimo
obsłu
##ownik
##stro
np
zasad
##ris
##ują
rozmawiać
zadzwoni
##ających
obchodzi
##cał
##czych
iż
##kiego
##ujemy
##rzej
pomiędzy
nieźle
##teres
zatem
wska
istnieje
wiedzą
rozma
natomiast
##lnego
##szedłem
drze
micha
samego
zapy
zrobimy
ciężko
##tura
uf
gości
trans
31
##wego
słowo
występ
##dzimy
spoj
sytuacji
wobec
przedsiębior
radę
określ
spotkanie
##wyk
szpi
żon
gorą
##cznia
następu
głupi
obywat
##kom
całym
##moc
##puszcz
praca
złam
dziwne
kamie
##usz
sprzed
wszystkiego
możliwości
##leż
mak
##trzyma
##obra
grupa
prawdopodobnie
##waj
##iat
napra
oli
##gram
##uję
góry
daleko
widziałeś
mag
ciem
##rop
kana
areszt
zależy
chcecie
2015
geor
obowiąz
spowod
##stety
doro
nieza
##zję
jim
systemu
stwier
listo
podstawie
najwyż
##rzenie
szybciej
##struk
zainteres
29
gotowy
administ
biz
przyzna
powierz
skła
zjedno
##tne
##kich
poczekaj
kapitanie
stanu
##jącego
mówiąc
nauk
efek
zrobisz
hen
umar
uważaj
pierwszym
emi
przyw
poprzez
##cyjny
jaz
##gry
##rótce
bezpieczeństwa
lud
sprowa
chry
28
##rzał
##dna
wyjść
pozio
bas
przest
momen
nap
rodzin
bezpo
ali
191
##ctwo
wkrótce
##fe
zdr
policja
##all
zabij
port
wymy
dosta
sę
##żony
##narod
poświę
mal
chu
##skać
mąż
nu
doktorze
##tur
fot
##rator
26
skarbie
typ
śpie
##port
każdej
zakła
##cjach
uli
techno
##tacji
byliśmy
amerykań
czyt
##pisy
ros
doj
boi
człowiekiem
##zdu
ostrze
pozosta
zachod
##gna
środku
września
ochrony
tył
błąd
gad
dź
lon
##wonię
##wienie
wychodzi
suk
##ine
odpowiedź
autor
##cen
sez
robota
serca
popat
mas
duże
tr
niemoż
##łóż
2018
bieg
##cenie
##chodzę
zewnątrz
elem
##wój
ministra
zwięk
rodzina
przestrze
oskar
zare
współpra
pyta
choro
okoli
mogłem
francu
dostar
grupy
wyro
popeł
różnych
##fik
angiel
##owymi
kier
wśród
widziałam
nagro
badania
rozwi
użytk
zawie
repreze
bohat
muszą
gat
wschod
idziesz
##dyn
##pew
##dzony
programu
##owani
międzynarod
joe
zupełnie
uwiel
odbi
##mieni
rej
##pią
pierwsza
##dasz
wyposa
spóź
przypo
##ens
pios
uczest
przewi
##czekać
##aję
wych
związanych
han
##ham
fre
znak
oszu
45
lekar
miało
pomóż
zły
aa
podróż
głowę
bezpoś
seks
tysięcy
odpowiedni
wejść
urodzi
tymi
niestety
zi
doprowa
duży
aktyw
cudow
##gat
blo
wieczór
droga
##czes
##stwie
cla
ilo
##wyczaj
##del
względu
prę
af
##kwi
zawar
uniwer
##owanego
słod
chor
odtw
zamiesz
przyjech
studi
potrzebujesz
wszel
dniu
maja
##rania
marszał
innymi
##atak
przyczy
prem
przeży
mer
takiej
stoi
fra
musie
dał
czyż
serio
bri
##cyjnego
mieszkań
##tami
powinnaś
##lec
powy
poch
uwierzyć
tatu
dawaj
skur
inwe
niepraw
##wan
adres
ogól
zbro
ło
wyobra
zamierz
patrzy
ster
##arów
kwiet
sierp
wyż
##wienia
wzię
funkcjon
bob
policji
zaś
spoty
poga
niebie
senator
pozostał
##sc
mocy
zobaczenia
##siej
##ln
sc
zabierz
##łego
przepis
rzy
prezyden
lipca
idi
##ckiej
kimś
##lację
obok
poziom
tydzień
sprawied
##gani
trw
ostroż
wziąć
otworzyć
natural
bior
sami
##nęła
wydo
##lił
jor
##jem
pracuje
chciałabym
wystarczają
zespół
##jąca
##rócić
##cisz
uzn
##mm
chłopaki
ruszaj
szpit
całkowicie
wys
##gać
##tąd
##lony
słoń
uniwersy
##szem
robimy
zja
##ranie
poży
przede
małe
zaku
trudno
małże
urzę
##kier
##bów
zabezpie
siedzi
ang
mała
mógłbym
przyjaciel
kod
łatwo
##wala
wywo
kiedykolwiek
##denty
formu
mąd
pocz
let
chę
wymag
##wane
szansę
nieważ
zor
osie
bran
zbud
dziedzi
późno
wydaw
dysku
taa
pobli
walki
bab
świą
zamów
##wała
##cześnie
dowod
wypadek
artyku
you
cier
##erem
##mar
detek
prowadzi
młody
spodzie
poż
tysią
jakiej
wystą
rodzaju
##owanym
##mii
##ńskiej
##mieniu
##łów
##wó
czerwca
##ps
zarzą
ti
dum
kuch
kształ
tek
gdybyś
nazwisko
##ądać
znalazłem
rozwoju
dzisiej
wiadomości
##gryw
wypadku
pracować
kontynu
wieczorem
##ranoc
zostań
##emi
projektu
archi
jan
byłaś
najważ
new
wybiera
prosto
rozwią
najlepsze
gówno
otwiera
##lnej
##tujesz
pierdol
odno
znajdu
dobranoc
drogę
statek
najlepszy
stru
krót
typu
zagra
uch
apli
szal
matki
porozmawia
pomi
możliwość
rękę
##owanej
ciekawe
zdjęcie
wracaj
przekon
##niemy
pł
wybra
##wasz
wspaniale
##szłość
##ion
źród
##rie
posie
wasza
trakcie
kapitan
popu
wysy
jakoś
dziecka
piosen
rozpoczę
musiała
eksper
powinnam
##czność
reszt
przeczy
##lly
lod
klucz
język
wios
dora
##dzać
2010
straż
inwesty
szpita
##owaniem
wspólnego
zamiast
okrop
kup
samochodu
##bry
sześć
dokon
##pol
sat
##rac
wrócę
wielo
wyjątk
##czona
opis
##piera
żaden
rzeczywi
prezydent
grał
ruch
##tuję
powiedziałam
robią
uwagi
leci
nowych
pierwszej
charlie
daje
znać
posiada
obserw
##feren
samot
tys
##zwo
lubisz
nieważne
śmiesz
davi
razu
##wz
edu
wre
podpis
komunika
##lisz
inte
poni
##gubi
60
ogrom
zacznie
##wej
zmienić
bil
istot
zobaczymy
podat
mówiłeś
kop
budże
wojewó
złe
wizy
odrzu
historia
mę
młod
ostate
wyco
zdrowia
gwiaz
##muję
##wych
smu
niespo
zagro
nowa
samolot
plu
wchodzi
widzenia
##chodzić
układ
podró
##lon
roboty
wyt
zb
sprawdź
##zj
##wiać
kara
sport
sier
inni
stycznia
sprzę
mike
##kre
##tt
spi
zwią
żadnej
##lacje
powietrz
##nale
uwielbia
32
##las
##lek
polskiej
##gor
##anka
##lor
kierow
not
maga
przedmiot
racja
##die
martwi
##10
dokumen
linii
##możli
miłości
##fię
narko
domy
niemożliwe
aktuali
tęsk
głębo
napisy
is
##pisz
##dniej
tury
zasady
biura
##gaż
cam
ojcem
uzysk
kolejny
##chani
don
cywi
##jaw
tanie
bank
brata
##działaś
wer
sub
pójść
##jącym
hon
##cyjnej
2012
##aru
##zują
przeszka
wewnętrz
##ari
okazji
spróbować
wyboru
park
resz
##he
michael
##równo
mógłby
cas
spotkać
punkt
obiec
##form
chwila
kwia
##ckich
dziesię
##tny
##ble
popatrz
jednostki
##ństwa
korek
fu
wszę
tłu
hisz
rach
komór
##szeć
wers
##nim
października
kad
zarząd
podło
wszędzie
##lna
zesz
sądzisz
wypeł
grudnia
##owań
##oty
wycof
pojawi
fizy
zajmie
##entu
wami
ds
osoba
rand
##nowa
ulicy
##fia
zrobiła
jechać
terenie
hotelu
dobrym
całej
ex
zapomnij
##ronić
##ściach
##źć
max
porów
zarówno
##lnym
słyszysz
zwierzę
łazie
korzyst
##gim
znajdź
##cis
obiecu
organiz
##lt
test
przyjęcie
nazywam
wykony
nieprawda
##nerw
oku
wynika
rozkaz
##ung
ogło
szac
##bas
##wem
odwo
mc
niedo
##tyj
zacz
##ont
konsu
pę
##śla
aka
magazy
alex
zatrzymać
usług
##ściu
kap
##fii
coraz
wit
kontroli
przypom
anty
jakąś
##dzien
##rych
szero
##śni
##unek
posł
uważam
pomaga
##ale
okolicy
godzinę
dwo
mężczyz
##ght
sukce
podejrz
koleś
##24
zamierza
moment
##czysz
bel
bierze
mógłbyś
listopada
##puści
##niejszy
zao
piąt
przynios
##nieć
zwykle
chwile
ucz
kwietnia
dół
##piesz
rolni
pad
##wam
średni
myśleć
gaze
2014
sekund
marca
ham
prz
zauważy
ner
polska
uśmie
wier
com
35
##słuch
znalazł
kontra
szale
zmy
##alna
##szczenia
wysta
sytuacja
górę
środków
należ
ochron
bezpośredni
resta
##dom
powia
interesu
pewnego
wystarczająco
fo
zdanie
walczyć
rodzice
list
wor
kwo
##tr
uszko
narkoty
pewne
##rip
częścią
ciep
henry
2013
człowieku
as
gotowa
przetłuma
##zw
twoi
wiedziałam
siły
produk
postępowania
narzę
wstrzy
ilu
##tion
bła
propozy
będziecie
pogadać
okresie
##tna
gotów
wybuch
##chodzie
trady
dotyczy
dep
skle
rich
##ven
pobliżu
gość
##dat
szkoda
##stal
ve
jakaś
wspo
2011
spać
##deł
odejść
restaura
die
zacząć
kłopoty
##lepiej
bibli
##piec
uwo
inf
karie
fundu
pozwolić
##owaną
sierpnia
trzyma
##miar
ubezpie
wartości
red
##ownika
kolejne
##lis
doskon
wysp
##cony
widać
pochodzi
##mach
piękna
##nęło
nagle
córka
##żan
upad
głowie
##kon
energii
czuje
różne
pociąg
najlepiej
kończy
dowiedzieć
##bert
##syw
jedziemy
##świet
##kowy
##mienie
gwar
wysokości
wybór
czekać
##tuj
dłużej
george
sił
##lak
muze
##czem
milionów
zapewnia
środka
urucho
apartam
ziemię
sieci
okres
musicie
##jeżdż
nową
wyniki
##rząt
panem
uderzy
dawno
bit
mówiłam
przyszedł
jes
szczy
##oni
samej
##cieli
otwórz
ol
##sły
reli
##trzymy
pokazać
łu
znajo
trzymać
spie
rynku
słyszę
szczególnie
##rek
del
skó
prawdziwe
opuści
##sław
uzna
##eth
pory
bogu
##don
cof
jednocześnie
jedź
poszuki
rodzinę
zastęp
80
##atyw
uważa
zer
##wart
##tyczne
500
##ote
musiałem
usa
szkoła
komis
##bat
##dam
gran
norm
popra
niczym
odpo
wku
zastos
posz
wrócił
##cjali
związek
oficer
kolor
same
liczy
##gno
polskiego
załatwi
##kowe
##zwyczaj
abso
szczegół
window
##nny
##żone
##wają
##krotnie
##alnych
kump
kobiet
peter
charakter
zech
kierunku
wyraz
trakt
wolno
##wałem
liczba
dyrektor
najmniej
synu
rzą
fbi
opró
ogląd
wielko
fede
##ąz
##nami
history
pomocą
wyzna
całego
##use
proces
##ft
##id
problemów
budynku
##mość
##nione
oprócz
zaka
##mij
tygodniu
kupić
dasz
codzien
##dko
niezwyk
windows
##sach
dziewczynę
celem
żywo
usu
pewnością
mm
miały
następnym
##styczne
proste
mechani
danie
zakończ
uwaga
mężczyzna
zostawić
nos
##ósł
usi
adam
zaatak
uh
koszt
kościoła
##anach
jakich
rosyj
gratu
##licz
niektóre
uniwersyte
zmian
pytań
budow
##dźmi
##ajem
dotar
rany
kost
dołą
jakiegoś
##łaszcza
ślub
umów
chłopcy
pracował
##ath
##cjalnie
pamiętaj
prezent
nosi
obiecuję
##tka
##bel
ocz
zwłaszcza
powodzenia
wycie
nieco
żonę
kocha
gotowi
indy
cicho
cało
seksu
##zje
chciałeś
samorząd
mel
gr
katego
jos
repu
che
##nne
przyszłości
##rzem
##anów
przywi
##nąłem
śnia
tędy
##długo
##wans
##lika
autobu
znajdziemy
umożli
policj
zakoń
spróbuj
warunki
bezp
póki
##ortu
klub
##nice
boli
firma
armii
##dztwa
głównie
##wiają
św
##pienia
nasi
ludźmi
niedługo
##tas
##szedłeś
pozwala
zawod
drin
pracuję
orze
stanowisko
##ięk
dziad
konkur
ponadto
siostra
mówiła
ulubi
niektórzy
##fin
pierwszego
siedem
podzie
zapis
ph
##lacja
mini
głup
##iadaj
sim
niby
##rabia
jakości
przysłu
nikomu
handl
powiedziałaś
##szczenie
tim
##jechać
znaleźliśmy
upew
sporo
eli
księży
##los
skrzyw
zginę
##ea
##ina
przychodzi
elektry
whi
znaczenia
##bij
##dale
cena
wielka
biznes
zwol
oddy
biuro
przepro
pri
##jad
nowej
szpitala
śniad
trój
##ńska
##łap
wokół
kel
labo
hy
##rany
wysokość
##ckim
umrze
zadzwonić
drew
męża
osobą
##jemu
niewin
tery
##zyj
##ńskie
tempera
cal
##rost
zanie
##dzieliśmy
oprac
##siu
zajmę
japo
##nów
legi
przyzn
złego
##czeni
ką
ćwi
stworzy
szefie
##stry
uważasz
przewodniczący
pomyślałem
akadem
james
zmę
##stości
##guje
plane
##vin
terytor
faceta
wydział
##ień
zadowo
2009
pali
wynosi
ludziom
zarządz
##unię
##dzonych
##cznik
opar
##nięcie
##owny
oboje
zadzwoń
zawi
oca
słyszałeś
prędko
##dowod
##szony
rzeczywiście
metrów
chri
działań
48
##logii
mikro
ubr
zaczął
darmo
element
ziel
zająć
##mon
zej
##wiałem
zabawne
światło
##owiada
##wany
##rwać
ciąg
ministerstwo
ogl
rozka
zajm
odleg
##niony
uczestni
znisz
ruchu
##ire
##fy
prawdziwy
##tycznie
postanowi
sklep
udowod
umrzeć
twarzy
słucha
teren
przod
##dziłam
któr
mark
##ówczas
króla
mocno
aktualizacji
trzeci
wpły
grać
żół
chroni
##king
brytyj
laborator
##ody
stój
##szech
wymaga
##ganiz
wówczas
300
blu
niezależ
koncer
##puść
własne
przech
znalezi
90
podd
wreszcie
central
samolo
##ey
##ela
podzię
tyłu
przyjdzie
uspokój
korekta
zachód
lutego
##niesi
mis
70
uwierzy
##cjonal
pierwszą
##czyła
clar
##cjami
odkąd
##cisk
tygodnie
tri
##zacja
sekre
sateli
fry
zespołu
##rab
fakt
stylu
powód
##mują
wezmę
ból
biu
magi
boję
pozby
problemu
zbi
studia
pełni
jer
zasko
innej
badań
nogi
pij
przypomina
wracać
cor
##dzili
słów
general
upraw
zbiera
ośrod
zrozumieć
zamiar
mln
zapytać
namie
bawi
wyniku
##ówki
momencie
piękne
jorku
dodane
włącz
koło
##ech
tzw
przyjaciele
najgor
zadanie
muzeum
##zmu
hum
żebyśmy
##20
##atu
##com
##ator
wą
zdję
uciec
współprac
dokument
obro
##ota
działalności
jeź
otworzy
##ślić
znajdzie
##pier
wszech
powstrzymać
popular
książki
wielkiego
##ning
znajdę
włosy
opro
##dzeniu
##arzyło
włą
sali
zamy
rodziców
2008
żony
rozwiązania
niektórych
wsty
organizacji
partner
zgad
##gia
przyszłość
następny
prace
##wolu
wracam
##ccff
pracowników
col
##bój
##dła
musieli
zgubi
##zor
szczerze
##dności
luzu
miesiące
przyjacielem
zbior
doskona
oczeki
##aków
pasuje
reak
smo
lepsze
##arm
##wła
kościół
dzieckiem
sprawiedliwości
teor
robił
grami
nigdzie
ruszać
poin
druga
spotkania
uciekaj
##unki
okay
akcji
lan
kali
ostatnia
##iam
normal
dostał
tony
światła
jedynym
powięk
symbo
##gach
wyłącz
##gami
pen
##nera
stam
wiary
##czyn
rozpoczą
zrobiłam
##pił
dotk
raport
##yj
bło
związane
zabawa
zabiję
dobrego
36
##dziłeś
przejść
terro
statku
odtwórz
##tkiem
więzienia
##anu
potrafię
górze
drugą
zabija
mek
służby
##anem
wypowie
każda
##dztwo
chrze
ange
##nięcia
##cyjnym
##nieś
zazwyczaj
gal
sukin
##gg
##lum
trudne
rządu
##orzenia
skontak
##owski
zę
znacznie
ostatnich
##nó
dole
niespodzi
zagrani
david
wsi
listy
biur
zatrudni
##ńskim
wyści
prowadzą
47
##car
##ist
przechodzi
ras
fał
utra
zob
ojcze
przeby
towar
jedzenie
zamierzam
##tni
wywia
fotogra
tytuł
##wały
imieniu
##orzą
reszta
anali
konk
potrzeby
spotka
grup
sara
tan
##kowa
strasznie
##tz
##gło
żoną
oszczę
##zań
jeb
kasy
nastąpi
##wach
szukam
produkcji
dzia
##fini
set
rozmawiał
##kowane
emo
umowy
komple
chwil
##wzglę
zadzwonię
bracie
ken
plat
środki
wątp
##cky
przyprowa
##koła
żart
wraca
twar
##cieć
okej
##niósł
##pij
harry
##onomi
oprogram
wytw
tacy
uj
wasz
osiem
##alnym
##ającego
powinny
usługi
szukać
gwiazd
wyda
lou
szery
ląd
środowiska
##bl
fanta
przysięgam
łó
spokoju
##fikacji
najlepszego
eta
jedyną
zarzu
aaccff
prysz
powyż
udo
dajcie
parlam
śli
dziewczyn
mecz
przewo
##sę
miesiąc
odz
zem
ces
powtarz
mistrzost
kandy
odpowiad
##wu
pomie
##czeniem
próbuję
##szek
radio
zaczyn
zależ
koment
wojna
zakończy
sprawia
week
##anki
modli
drugim
punktu
##ściem
##niejsza
inspek
##dwie
produktów
przyjaciółmi
zapomniał
ministrze
sypia
zamord
##mą
##ponu
##lizacji
odnale
decyzji
poszedł
roli
przegra
zorganiz
konstytu
szczęścia
##stem
##łon
dziewczyną
pomag
##legł
przeło
poziomie
jedyny
upo
wieści
lam
wdzię
przestać
żał
niesamowite
##stawaj
reko
panno
klient
##ńskich
wyszu
postrze
konferen
##nisz
polskich
płat
ptak
teat
roman
nienawidzę
podobnie
dowiedział
swego
królew
pogrze
kobietą
zmiana
nadzor
##cznymi
coo
potrzeba
gwaran
skończ
##loka
##jącą
##logia
wiru
sensu
meksy
wniosek
chodźcie
decyzję
resztę
mnó
##dźcie
kontrol
##vo
gościa
##wor
żartujesz
##jach
opła
dobrą
##arzenia
pozwolę
sztuki
użyć
moni
kwa
początek
has
strate
posła
wysoki
46
skarb
##it
widok
walczy
model
zwro
##łej
staro
wsparcie
szk
##alnego
świado
##spoli
zbliż
pozycji
śre
##ling
niewy
pułk
##ćmi
eri
przep
ogień
##nos
son
historię
##owiec
##łość
mamu
##omi
##yle
chodziło
##gas
##met
prezydenta
sukinsy
pójdzie
2007
skute
mogłeś
##stwem
##mpli
obawiam
wysła
pewny
słyszałam
##lina
##kuję
01
ray
##siad
##ownie
przyjaciela
##stka
pokon
pogad
bierz
chronić
##raźniej
specjali
chcieli
dochod
##dzona
powietrza
uprzej
realizacji
mich
chwileczkę
głupie
fer
procedu
moglibyśmy
##mos
przyjść
##jechał
##żni
sha
zwolni
oz
skorzy
koszu
szere
##cyjna
kochasz
##omet
##siąść
zrobiłaś
##gina
mózgu
rozbi
sygnał
zabije
dziennik
##chem
zegar
##lnie
obywatel
miałaś
##eb
dol
kwestia
okłam
puść
cierp
lepszy
pia
szansa
sekret
próbował
cieszy
lekarz
##chody
##nicj
##nio
##ls
darm
zała
##łasz
naru
oświad
lar
##99
##niałem
##cal
##gól
paul
##czko
wd
##dnych
ręka
rezy
bon
pacjent
rezerwa
czwart
warszawie
zle
powierzchni
wście
##unt
śnie
##mer
doskonale
##ił
##sil
głosu
obrony
światowej
lun
szczegó
podwój
albu
jimmy
mogło
##mić
wyłącznie
brakuje
##ładzie
##cimy
krwa
bre
rośli
##wór
stand
##ńcu
naro
kredy
dosy
uwielbiam
łóżka
##water
ach
usiądź
weźmie
190
##owałaś
tuż
poże
kolację
świetny
rejon
##ałbym
lor
telefonu
zrozumiał
szpitalu
ktokolwiek
zostaje
zniszczy
asy
##ląd
leży
osobiście
zmarł
waka
matką
jezi
afry
zobowią
absolu
mnóstwo
##cel
najbli
włam
kultury
serwi
działalność
##skiem
##ówka
mężczyzn
row
poprawki
żyw
dło
33
postanowie
wymi
mogłam
obli
podróży
minuty
byłby
rapor
##orzenie
rozwiązanie
##nijcie
woda
sar
londy
cer
opinii
suger
realiz
odbiera
##spi
gotowe
##bin
znajdziesz
##dzono
##lety
naprawić
##łka
wynag
fajnie
##niejszych
stamtąd
terrory
##rowi
mówimy
niewo
karty
utrzym
now
##ariu
mieszkanie
##żona
zostaną
ostatnim
nazwa
rzad
krzyw
##stego
klubu
obiad
fla
wiedziała
kawa
ciąży
wyra
##dle
wyświet
konkret
automaty
##star
jedyne
bog
stacji
zbrodni
##muj
znaczenie
mieszkańców
dzielni
##cio
##wiej
gdyż
##ściej
oferuje
spu
##cone
brze
##łać
oferujemy
uczni
##tch
tworzy
wielkim
porw
zakoch
##fr
fabry
małą
bohater
dna
policję
ściąg
atra
##ate
czterech
##ille
przygotować
rodzinie
zachow
próbuje
wewnątrz
przeraż
##czką
wielką
sądu
przerw
poszło
pło
vin
##ciela
potrzebne
##rywa
unik
##szczegól
data
##owniku
tv
##tet
wuj
żołnierzy
tera
sądzie
##ros
dosyć
większości
owo
administra
plany
zjednoczonych
wielkiej
##żeniem
mowy
pielę
konsek
ostatniej
zdej
zginął
ofiary
wziął
martwy
powoł
##ająca
##wki
kryty
dzwo
sprawo
##stym
##ownicy
wysoka
mogły
zobaczysz
oczywi
##pii
##wka
chrystu
pozytyw
członków
owszem
zasię
operacji
identy
hey
nick
obja
główna
##szymi
##jęt
##waniu
##ston
##tość
mle
nauki
##deo
nowoczes
otrzymał
krze
##kanie
budynek
narze
##stycznych
##ker
kawy
uratować
umysł
##ena
alko
##rócił
maks
pocał
dot
zatrzymaj
##kle
##sla
##twem
poten
lotnisko
bet
min
społeczeńst
przegląd
departam
pomimo
samobój
dziesięć
pamięci
laboratorium
lekarza
zep
jakbym
##van
liście
występu
spy
śród
dziesią
flo
podaj
szczęśliwy
współpracy
widziałaś
##jon
własną
wan
córkę
sens
decyzja
samą
2019
bezpośrednio
docenia
wynik
wstawaj
zainstal
jane
skra
wyraź
##stej
kobietę
najlepszym
tyłek
usłyszeć
zostali
nieprzy
wspaniałe
interne
dll
2006
proś
odpowiednie
##tle
dostałem
słuchać
van
idiot
##obraz
kosmi
##knij
dostaniesz
tryb
iii
2000
zadania
łodzi
wyle
wierzysz
drugiego
odwa
bzdu
##zz
raj
jedyna
jakimś
myślą
##aliz
standard
robotę
ataku
pusty
##stych
szkół
##bić
##alnej
##zując
can
zobaczę
##atki
zdobyć
ir
##szeni
sejm
wybrać
wykorzysty
rozmowy
pozwal
##leń
podkre
instru
śniadanie
klientów
##bor
otrzyma
niezły
##grze
br
pomogę
##anowi
xx
przyje
mode
doszło
porzu
pies
smak
##jącej
wolny
skier
##onymi
wojnie
##turę
robicie
europejskiej
##miało
wersji
##woka
polu
wątpliwości
##ciła
długi
republi
niewiel
początk
postara
men
##akiem
ognia
##dziale
dostaw
ory
ujaw
martwić
jar
rem
cm
##dali
ustawa
scot
robot
detektyw
należą
34
pisto
zapas
##sch
osł
wiedziałeś
reklam
##pali
jaja
liczby
gorze
prosić
ministerstwa
##niego
codziennie
er
##dziliśmy
listę
założy
komuś
##owość
mózg
zechce
monitor
odsu
twór
##66
następujące
zami
tymczas
zniszczyć
##und
##źnia
nak
tajemni
wyjaśnić
piękny
stad
piot
##kasz
zba
##czno
##onem
zniszcz
aktor
wejdź
postaci
##bienia
wyprawia
rolę
##au
##zeń
kamer
zaan
sprzedaży
osobę
synem
##unków
##dzają
wysz
wojen
podję
termi
odmów
poniżej
##hu
rodziną
##godne
sposo
##ającym
staram
poszczegól
pójdziesz
zastą
więzieniu
zapamię
ver
opowiad
zestaw
plików
kwali
ly
ukrai
pomog
poproszę
wolności
transport
sposob
##bać
thom
damy
zjawi
fas
policjan
zaszczy
wolę
przepisów
lau
##ee
xi
##lia
drob
##kuj
próbowałem
skończyć
komisja
##ńca
łap
pola
powtó
życiem
rp
patrzeć
adwoka
##ria
##pospoli
##rzyj
podpi
##żeń
uwzglę
##czyłem
opubli
znie
produkt
##50
zawodni
##ons
najwyraźniej
obsługi
powoli
woli
podobno
taniec
łas
vic
przedstawia
dziewię
delika
bill
hor
##gnia
##vel
pięciu
kuchni
wspiera
uzbro
nieo
gim
##cyjną
##niłem
francji
dziękujemy
start
kłó
najbliż
##gosła
mari
czasów
##encji
38
rozpozna
gej
hom
szczegóły
##szył
patrzcie
zat
##cona
kolei
wspaniały
zdecydowanie
ustal
klimaty
chrześci
krą
##szczą
zgadzam
herb
młodzie
dzieciak
psa
##tali
inicj
zdań
##paść
ofiar
umiejęt
sędzi
facetem
aplikacji
niepra
inten
##szyb
##żek
kuzy
idą
zamknąć
wytłuma
ww
##cin
fałszy
2005
producent
zaprze
poprosi
powiedzieli
chemi
podejrze
biurze
zrobili
twierdzi
eki
obiekt
nies
gorzej
ig
wyjścia
der
jadę
mail
zwyczaj
stanowiska
zrozumiałem
##wiony
telewizji
kata
znajdują
owi
ślady
##widu
ciśnie
##stoj
##ward
wierz
ciężarów
chryste
##liwy
media
sprzęt
wojska
bły
matkę
gard
miejscowości
soli
rado
jakbyś
umarł
##owiem
zabiłeś
zdaje
niebezpieczeńst
zazd
odm
##puścić
klat
##nąłeś
##jan
fron
pełno
załatwić
potęż
##ade
##lip
spotkamy
marszałku
zaplan
jeść
##kował
morderstwo
przeszu
wampi
##kowej
byśmy
pójdziemy
wodę
porówn
dotych
krok
dotychczas
córki
kiep
##owskiego
prowadzić
wsparcia
skompli
student
un
zaangaż
żeg
uzu
gę
37
buty
##czniku
wypi
pocią
potrzebował
tamtej
powiąz
zajmuje
zabierze
ilość
kolego
gnie
##fu
##ag
nauczyć
narodowej
opieki
##zer
wóz
pracujesz
kamp
przesz
powszech
bazy
##cjalne
prote
najszyb
potrafisz
ależ
publicznych
##jo
##bs
##prawie
zjeść
chłopiec
wrażenie
spacer
udzie
##wana
połowie
doktora
##turze
zabrał
staty
inteli
śmieszne
indywidu
##mować
uśmiech
##tują
parku
witamy
premie
europy
akt
##chodź
##ciłem
she
znaleźli
członkiem
nieba
prawdy
##wood
stanów
tabli
wym
##kra
boisz
##zuj
##jeżdża
pierdo
pozba
##alną
proto
pau
uczucie
zacznij
planu
gaz
połącz
maksym
chciałby
ostatecznie
działać
przepisy
przyjacielu
zamierzasz
##set
##czać
gol
jedzie
sur
miły
przejdź
zrezy
##orę
sre
##chów
##czymy
eu
pokażę
zapropon
przesłuch
znamy
dowody
et
##zację
wyz
napisy24
słusz
piersi
##dra
grę
otwarte
##mana
asyst
staje
kru
firm
##cła
insta
znalazłeś
ładnie
inną
wyprowa
władzy
##rur
wschód
przyszedłem
wierzyć
ustaw
niewiele
zewnętrz
##śleć
zdaniem
##tory
słychać
szpie
stare
##onia
opuszcz
##leni
dobrej
wzrost
siostry
trwa
##styczny
skaz
unika
sierżan
osz
##nień
##szanie
wzy
samochodzie
czoł
danny
załatw
litera
kierowni
uroczy
grozi
wymyśli
doko
hiszp
ukła
rozpat
tale
wymie
piw
własnej
polityki
##owarzy
##lik
odrobi
cele
podp
zaso
gimna
##shi
sprawi
##nęli
logi
urządzenia
pała
pochodzą
radzie
##lli
żyją
znalazłam
nieko
ryb
##sąd
##wencji
dostrze
##rwie
##ces
##ienia
zwari
chętnie
tysiące
zostawił
wyjdzie
wstrzym
słuchajcie
zasadzie
biały
##iem
elektroni
nieprawidł
abyś
moze
pierwo
strip
##dacji
dala
jake
##rane
##nis
każdą
siadaj
zaprasz
39
ono
##nikami
wcześnie
niemal
ły
dawna
ura
kart
##vie
##hy
prokuratura
ji
##rd
gwał
wyszedł
porozu
przesł
##stanie
##dować
niemiec
infra
europie
ceny
##wskiego
unii
dzieciaki
chłopcze
prawdziwa
rą
toale
rozszerzenia
ew
swe
prezen
jezus
##pt
kłamie
strzał
szczu
05
jó
głęboko
rzuć
poinform
wojnę
kong
spali
świąty
stanowią
weekend
banku
pamięt
odzyskać
##jów
bezpłat
zwierząt
dobro
architek
##lną
mając
nauczyciel
medi
zbo
forma
rzym
milion
rozgryw
głowa
##landii
dziećmi
##ones
języku
duża
##asad
obję
##nęły
równo
złapać
##gon
skrę
czarny
pięknie
vo
house
odzysk
ah
##are
##kał
##gię
##sen
federal
klienta
bor
##wyż
najlepszych
zajmu
dłuż
##onach
inna
stowarzy
papiero
akura
przywód
dyrek
charaktery
przekro
##zam
##żeniu
##wszy
##lub
powietrze
głównym
święta
##wałeś
przesy
##choty
##rzód
ted
ostrożnie
sprzeciw
seria
lee
emery
tune
##pem
potrzebny
punktów
zareje
stani
##arzyć
##rey
run
akurat
zepsu
siedzieć
pielęgnia
##kowych
filmu
##ajmy
staną
dostępne
legen
apo
ue
zdrowie
zakończona
##tan
zapach
stopni
wład
koście
jen
nazwiska
czyni
dou
muzyka
stała
bisku
nacze
zaczynamy
steve
zapewne
##tości
drinka
napo
uczucia
zwal
richard
ducha
zagad
most
chłopaka
##pienie
włosów
ziemia
budowy
rachel
best
przyznać
##orzeniu
satelitar
powiedzenia
##cili
piwo
izra
szefa
zdobył
lewo
południe
##miu
dywi
lil
lice
mieszkania
##vis
skarbu
pochod
wsa
wykona
spółki
eksperym
każde
den
wartość
2004
##mist
powodów
hol
skan
##styki
stripti
wyczu
szanowny
##róć
zajęty
frag
głoś
##oro
dodat
##tacja
znaczą
##pospolitej
wykaz
usłysz
mowa
##dząc
kwestii
ambas
formie
drogą
niezbę
języka
##torze
odczy
ekonomi
dotyczących
płu
wybierz
prysznic
zagi
##tal
db
mro
zmianie
chory
zajęcia
pokry
bój
mówiłaś
hal
żyjesz
wymieni
##gij
miłe
księżni
cenę
urodziny
glo
oddz
##pów
przypuszcz
próby
##san
umieszcz
malu
nazwę
sytuację
gratulacje
##lad
44
billy
##niona
william
##czar
##wiasz
krajowej
hel
##dną
##way
##ajemy
mac
kawałek
baj
nego
pamięta
edy
##wentu
les
zaje
uwol
##godnie
placów
zostaniesz
większe
festi
papier
cyk
wow
ameryki
imi
reprezent
jedzenia
##atów
jednostek
wyjaśnie
szla
krzyż
szefem
odebrać
##nięty
##nich
administracji
##torem
termin
##hol
zostanę
zali
##bine
zato
śródmie
wyląd
pragnę
42
naucz
poleg
##sona
koszy
kot
służy
niezła
jazda
napę
##linie
konf
przedmiotem
nazywasz
własnego
łatwiej
oddać
przetłumaczonych
##akty
rada
odłóż
wyróż
##nimy
rozwój
józe
dużą
##ney
##ąży
butel
cment
##owców
podział
platfor
zarobi
stosunku
tygodnia
kawę
atmos
obaj
##iii
pozbyć
opuścić
odde
ścież
##szone
##gnie
pułkowniku
profesj
##rwy
pak
posłów
mun
##żynie
rock
rozej
epi
ślą
podać
##lian
##towej
rower
kilomet
stabi
traktu
alarm
bycie
wyszuki
wytrzym
##pień
zapi
##imi
##kują
rom
##ałe
demok
brzu
następnego
##dło
nakaz
unie
trzecie
##wości
ukończy
produktu
patri
##arka
zobowiąz
##niła
przypadek
##mier
##romad
##kowany
##towe
zrezygn
wyru
okno
##stycznej
filo
pilot
kurs
biorąc
wprost
edukacji
sprawdz
szukasz
ubrania
akcep
##wij
rzeczypospolitej
technologii
mogłabym
konkuren
##cząc
bliżej
zeszłym
sumie
eduka
rozporząd
honor
łóżku
kolo
książkę
tommy
odpowiada
brać
##wicz
weso
##kop
marynar
poczekać
wat
wrzu
##rob
sekretar
powrót
wybor
denerw
kontrolę
kate
robert
dek
szwe
analiz
drużyny
drzwia
niewia
lista
żąd
##czyk
hod
północy
##ciele
dż
gan
jeff
umowę
propon
sob
iv
obszar
słońce
pou
pojedyn
niebezpieczne
gam
pisze
dziu
##sey
turniej
finansów
55
posił
którymi
przemysł
świetna
##ic
widzimy
straszne
przodu
wiedzy
gen
bogat
niemcy
chciałbyś
2003
##nin
zapomnieć
zaa
jazdy
##muni
zabawy
pokoje
##ujecie
aplika
puch
katastro
misji
##dyj
daniel
##gó
wydarzenia
konieczne
drog
zostałem
dałem
godzina
powierzch
szukamy
##ściami
dokumenty
czuj
przykła
kandydat
najważniejsze
siedział
zwrócić
pojazd
neg
awans
przystoj
przeprowadz
dyp
##adę
partii
##dr
świetne
##rodzenia
##dwo
pełne
bieżą
odebra
słysze
##czości
sąsie
szó
mani
dodatkowo
##tację
ewentu
post
pułap
##niać
city
dwoje
##wski
szczęśliwa
odległości
##gent
zaak
##dziło
kolum
wymia
usunię
##int
##leb
urządzenie
##nków
kolejnych
wstęp
struktu
planet
przetrw
##x1
absolutnie
systemie
śmiercią
uprzejmie
bezpieczeństwo
olej
zabiłem
orygina
konto
utrzymać
krótki
##tywa
muzyki
jana
##czyli
promo
doświadczenie
##dziesią
sukie
wszelkie
##żsam
wyjście
koszty
anna
inżynie
naprzód
przys
idźcie
chodzić
przeno
##opat
##tujemy
zdenerw
##ałoby
##owca
wróć
tara
##ien
ostatnią
pkt
##miał
meczu
oglądać
smi
sprawą
rozkazy
pierwszych
błagam
##bili
wysłać
przetw
młoda
własny
ryzyko
szanse
doświadczenia
dowó
uzupeł
szlach
połączenie
krótko
##ford
##owniki
książę
hiszpa
dostos
braku
rol
szacunku
móc
02
koryt
dat
odejdź
uzasad
wylu
sezonie
41
##arzeń
apa
wersja
##czce
katoli
aust
błogosła
kutas
informacja
główny
przysługę
##cam
johnny
rzeź
czasach
przyszła
##jąłem
kodek
zróbmy
moimi
chan
dźwięk
ano
wpis
najlepsza
##niach
rozmawialiśmy
ministrów
zazna
##cielem
##ństwie
kazał
mur
zadań
produkty
inwestycji
chirur
narodowego
walter
używać
pożar
niedaw
wrę
ruchy
przyk
04
zobaczmy
##struktury
##łach
następujących
tch
cra
słabo
własnym
zaledwie
transportu
taksów
zacze
wt
##nkę
##pki
własnych
rozmowę
##łki
wrócisz
rana
##usza
polskie
##jekt
ucieka
##ającą
sprzedaw
form
##szczęśli
powiado
napisał
##menty
##trzymuje
##stość
zrani
przestra
##her
uzyskać
żydow
łączy
mul
ej
zapomniałem
##jazd
dodatkowe
uprze
powo
glinia
##ciąga
zgoda
reży
dziwnie
##zon
kal
rzeczywistości
zapłacić
chris
bibliote
wybrze
bronią
oczach
dumny
##kowania
czuć
metod
słońca
różnica
przestrzeni
napad
bobby
waszej
wygrać
ron
generał
##ryt
zaakcep
opan
##que
rozpoczął
bak
##bit
mikrof
sprzedaż
poszła
##nom
czasy
telewizor
nieleg
oszal
umożliwia
##entów
skurwie
strzelać
wyglądam
wysokiej
75
##inem
niedale
##brzy
xv
##elle
eddie
przyjemność
sejmu
całości
przyd
nieruchomość
##dawać
leg
wściek
nur
##dzasz
miłego
poruczniku
400
rozszerzenie
bryt
czynienia
społecznej
bratem
hmm
śpi
jednakże
miliony
zaczęła
debi
##ymy
spodoba
żadna
rzeki
##kowego
zamach
niepeł
##zeniem
rękach
słone
ref
atrak
pokładzie
ustawie
obszarze
dupę
##ologii
wir
odpad
filozo
zwrac
przekonać
rewolu
łódź
tekst
zakaz
rezerw
##prz
##ienie
lekarzem
znaleziono
umowa
walka
kategorii
naci
43
znany
nagra
uciekać
piz
rozwa
##szczu
wyprawiasz
kryzy
zakwater
oddaj
nóż
szam
189
styl
pomyślałam
liceum
problemem
stracił
pułkow
ogro
niezłe
jon
wolność
##mio
angeles
małego
dysk
leż
sprawach
zmierz
rejestra
choroby
morza
zimno
##łania
długie
niepoko
cza
pierście
wiek
dowodów
##ville
##owne
##mit
musia
samych
thomas
ekran
sos
istnieją
nieod
dała
plot
marcu
żył
ac
urzą
dźwię
zdzi
zrobiliśmy
rejonowa
yea
gier
uspoko
zaczęło
claire
##arzu
żadne
myli
swoimi
##spozy
##stki
wyglądają
isto
kwiaty
eksplo
##sława
miałbym
##lega
tren
mogłabyś
##iusz
poby
niedob
##stawi
energe
##lizacja
##źnie
sem
sercu
chlo
zjad
wydostać
##tyczny
usiąść
dodać
porusz
śródmieście
kasę
tożsam
maria
maszyn
##dajesz
łącznie
składa
znalezie
lunch
rozmawiałem
spojrzeć
##raca
##lator
restauracji
pras
hipo
##pp
odnaleźć
podwo
zasil
##ślij
widzicie
##szkę
obron
oferty
stali
jasna
dobrych
partne
##niejszym
##tycznych
stworz
źródło
pogoda
zwycięz
stracić
zachować
##nko
boj
najnow
##unkiem
okoliczności
awar
uciekł
będąc
panna
założę
względem
morderstwa
szeroko
wyjdź
##kowanie
##ith
wyklu
spis
znalazła
pośredni
podziękować
tj
gno
##dge
oficjal
oceny
wydaj
##up
terytoria
prąd
##pach
umiejętności
09
przysł
rakie
przew
wniosku
##illa
deb
##ts
rozsąd
##lij
##sky
zmienił
anto
odbior
orga
włó
kurcz
udostęp
yeah
##rzyd
1945
trybun
sierżancie
rozryw
niedaleko
musiałam
##trzeb
straciłem
szereg
may
pewnym
##oz
rzeczą
chwilkę
##nce
skurwy
analizy
pamięć
naukow
interesuje
150
chwy
żegnaj
domi
zapewnić
obni
wino
doceniam
rami
##głę
wybaczyć
portu
koleg
cudownie
##będzie
chciałaś
podobne
##ńców
fal
amy
bol
##czku
konia
##właści
odnośnie
##cher
##kło
legisla
zrzu
pojawił
zdrowot
##luje
granicy
##szona
##żesz
dzwonił
zloka
polega
przes
ilości
##zny
rezu
prosimy
podzi
wydarzyło
spójrzcie
08
##dd
pytam
zaprowa
amerykan
##żdż
sia
zaufać
##rać
##torów
##x0
zaprojekt
liz
bomb
generale
następne
pański
wynoś
postawi
##pto
07
perspek
wiedzieli
zamian
płak
pudeł
west
bezpieczne
wyjaśnia
ojcu
odniesie
ss
odgryw
czekam
dziewczynka
wszczę
powiedzmy
pogrzeb
profesor
potrzebują
procent
gliny
miejscach
wiatr
wątpię
##than
okazało
cud
es
ub
wskazuje
dystry
zaufaj
wynaj
des
zwło
pozostaje
punkcie
odczu
skurwysy
funkcję
zapa
pomożesz
lecieć
wprowadz
sied
##dyna
wyposażenie
##nowi
charles
oddziały
artykuł
byłaby
procesu
funkcjonariu
tle
pokład
##sząc
##cker
gadać
##luję
##fel
ochotę
zarządu
##lami
dwój
nagrodę
przedstawić
##lera
starego
##dztwie
ger
siłę
programów
roy
zajął
##rr
powstał
##cyk
szkołę
oczu
##dzieliście
budżetu
podnie
phil
aleks
burmist
ście
potrzebna
braci
##alni
początkowo
dre
udaw
bok
shi
##nnych
zidenty
black
błędy
utk
##fo
##dż
##waliśmy
odszedł
tożsamo
poradzę
##dłuż
skoj
chłopca
ręki
religij
małżeństwo
wszystkimi
wspólnie
przyro
clark
faktycznie
wysa
1939
188
pojawia
pacjentów
mówili
szanowni
##mych
##nuj
zwierzęta
##dor
defini
powoduje
recep
##ległe
show
przestańcie
##gran
popar
bram
prezes
##rki
uwierz
przekazać
##dnym
odez
pozycję
wyjątkiem
ułat
miałby
uczci
##pin
##amie
##ruj
radi
kape
wykorzystać
wyobraz
dostanę
mikoła
street
niedzie
miliar
dodaj
##ślę
dolców
wyglądać
najszybciej
brą
plus
przega
użycia
formula
okru
parlament
czeko
65
##11
zachowy
##znania
prawdziwym
powstrzym
##ress
##dro
jasno
##szki
zaofer
##kujesz
punkty
lewej
wrócimy
zade
pasaż
różni
juz
poniedział
##wałam
nikim
strach
uprawia
egi
kradzie
prowadzonych
przesa
napa
##bach
państwu
##jać
kół
zdjęć
pozostałych
##przy
##pat
warszawa
gov
boską
małych
##ctwem
zaczynam
but
łatwe
spal
##cas
gospodarki
##bri
wyraźnie
##ematy
głupia
kochać
agencji
dopas
##pl
uczniów
abym
winy
2002
##ksy
redak
##erów
##gera
zniknął
mai
##finans
marszałek
palcami
kuchen
wiec
samochodów
firmę
biorę
how
lubią
kolejna
wien
zarabia
publicznej
zlokaliz
zostawia
obowiązek
##czniki
06
przyjąć
piątek
wyka
mężczyzną
synch
śmiało
##mentów
wysłu
zamknięte
nagrody
autobus
anglii
jakość
indziej
##tha
toma
źródła
proponu
podatk
słownik
klasz
niespodzianka
niebo
2001
lepszego
##cko
mężem
reżyser
martin
plaży
##rzestrze
bólu
misja
przyjęcia
##yne
waszy
basen
ręcznie
przynieś
niezn
##kamy
wydziału
arm
pamiętać
gdań
negatyw
anioł
sarah
chica
sukces
dziękuje
##ającej
maszyny
zmieniło
klimat
metal
sklepu
poster
linia
ewaku
pach
##par
zastanawiam
##zach
bowiem
masa
scenar
wolne
pozostałe
mand
północnej
wyszła
zero
ai
oświa
waszyng
pieprzony
cio
urzędu
spoży
podejm
poziomu
załóż
nerw
znajd
zmianę
goo
jakiejś
##pać
przypomin
myślicie
władze
akademii
widzieliśmy
##sion
opinie
wice
południowej
gdybyśmy
jezusa
świętego
przesu
szalony
##mara
##fikacja
nazwy
rozważ
nadchodzi
cos
guber
kyle
małym
##zależ
##łoży
szaleństwo
armia
ash
zbie
akta
dzieła
##gla
powiększanie
szta
szczególności
##asu
wspomnienia
rozum
mamą
głodny
waszych
zmniej
fred
pomógł
##dl
skończyłem
przepi
##dnego
##han
szo
dave
interesy
pojech
okrą
mapa
indi
sin
myślałeś
napię
przeszko
dun
mad
obejmuje
piln
val
zachę
znajom
towarzystwa
##nospraw
stro
tytułu
jestes
sprawozd
aut
gwiazdy
zaprosi
dniach
wracamy
służb
współczes
niewłaści
##żonych
wrocła
03
przyszedłeś
widziała
dostępu
dotąd
przytu
dym
silny
dorad
carter
okręt
wojewódz
sma
pliki
wet
1010
gminy
##field
leki
używa
##gnor
odpowiedzieć
umiem
wią
wszedł
wyspy
##liny
ukoch
##lerii
bezpieczny
domyśl
przeci
czerwony
##łyśmy
gil
fl
##encie
możli
programie
liczyć
soju
poszczególnych
##niane
##ole
rozmowa
stó
##szczeń
niepełnospraw
córką
##ymina
##bal
##bierzesz
andy
##ama
ira
łańcu
##ast
pytasz
opóź
##pięk
samolotu
##ation
wejście
kształt
imper
niezwykle
czci
mono
##ted
przedstawienie
treści
##pka
alkoho
loj
poprowa
przestanie
myślał
działanie
##dniu
##łał
##got
orgazm
pewność
dupy
wskaź
ofiara
##dney
wspomin
wciąg
określe
tab
taty
siód
grzy
##świe
wróciła
##dera
##bienie
##prawy
szwaj
##alności
złoży
demokra
garni
##rad
zachowanie
ufać
uniwersytetu
udziel
funkcji
chicago
ochrona
odpowiedzialny
zarejestr
##bina
skoń
##ban
wypła
prezesa
oże
nik
dyrektora
##rka
województwa
##owna
głównego
postępowań
puszcz
striptiz
##oo
bada
znaczyć
##12
poprosić
##ather
praktycznie
##iny
tysiąc
zabiorę
##zuję
wzajem
##weł
jaski
materiałów
get
licen
jose
ładna
kalifor
likwi
waszym
zrealiz
heli
apartament
strz
miła
odpowiednio
##reb
dziewi
języków
podsta
sądzi
cookie
bezpiecznie
mogłaby
występuje
klasie
##dników
minęło
rose
uleg
pens
udziału
ukaz
tani
doczekać
wycze
scott
wzmoc
rozst
##rój
brow
informację
domem
##wkę
kosztów
ocalić
czwar
najczę
kolek
wyobraż
prawej
konfli
dotykaj
filmy
##noty
lucy
patrzą
play
zadać
szar
kg
##owanymi
krajów
rejestru
##ństwem
rynek
komplet
dzielnicy
brian
mogłoby
władzę
wczes
potę
słyszeć
ludzko
bawić
wyje
##śnij
młodych
przeję
##tycznej
wid
##berg
pistolet
niewiary
album
##lona
wyjeżdż
spła
##ńską
##ingu
okazję
rosji
mody
##ryj
geniu
sprawdzę
julie
serii
##skimi
daleka
tatuś
kontrakt
matt
stóp
##ns
długa
##towych
##taż
królem
inicjaty
##tko
##tetu
przeszedł
lotu
##zajem
poślubi
##lla
imp
wybud
drużyna
chwilą
węd
efektyw
przemie
bała
kultu
zatrudnie
##kowo
kompet
##lnia
musze
zachowu
miejscem
ostatniego
udowodnić
powyżej
kolejną
atlan
##80
daję
zatrzyma
komputerze
##ple
dur
warte
francis
kąpie
##try
konstruk
spotyka
kore
skończył
wideo
sing
miast
stopniu
bracia
krety
alf
narzędzie
wykry
zamek
chod
łazienka
yu
niewi
ameryka
ważny
szkodzi
mego
net
##trzymu
szwajcar
kapitana
poważne
złym
właściciel
refor
##stolat
##niłeś
prowadził
telefoni
##anymi
prawem
rozmiar
spróbuję
##ącym
komand
jean
ranny
czyżby
warunków
numery
doros
walce
interpe
luk
obywateli
dysp
##sztą
leon
stopnia
holly
odpoczy
zaawans
napisane
wakacje
zobaczyłem
stworzyć
informuję
##czał
projektów
##tków
założyć
zabu
goście
zbliżenia
serwis
oddech
sun
uzależ
czysto
##knąć
ochronę
raka
usunąć
##arda
##onali
ekstra
ast
komend
##niała
kłopotów
##ong
zresztą
##zeniu
pełna
##tywie
wygrał
metody
konser
zdarza
cuk
sezon
połowę
##ownikiem
oczywiste
linie
wszechświa
##km
żałos
blon
pobi
przeczyt
zakres
boku
skóry
emily
musiało
psy
bezpieczna
żyję
czekają
wysłał
rzę
przewa
kanał
##rys
hotele
##gro
pią
##rus
obecność
##strzem
oficjalnie
dotrzeć
śmiertel
służą
niepod
##óg
kamery
wschodniej
szpital
zata
##get
reprezen
sześciu
##zywać
elektro
wroga
celów
##ografi
##mian
odważ
rys
##świado
wyszło
dą
ufam
king
zaszczyt
##łek
##nd
służyć
res
puzz
##pha
terytorium
dzwoń
brąz
tal
##scypli
szukaj
piechoty
czułem
najlepszą
##gier
99
waszą
umiesz
##erii
skry
kaj
diagno
rąk
##19
ostro
niezbyt
zgromad
nazywają
zaczniemy
##tkę
##tymi
matko
ukryw
asystent
księżyc
dwukrotnie
##mac
miecz
uwię
##gad
ścig
dziwnego
imienia
centra
noż
znajdą
##ruje
pić
zablo
64
187
juni
obudź
ukrad
wspaniała
marzy
olim
nę
srebr
##arzenie
poran
poznałem
doo
##ther
prawdą
substan
mojemu
martwię
dyskusji
nan
regulam
christi
stany
##ówkę
setki
eric
##jek
pomyśleć
chrystusa
pieprzyć
spotkaniu
korpu
carl
śpią
jab
##myśl
groź
reprezenta
pojem
poraż
##nięta
podatku
zakresu
święto
##ake
##pety
log
obserwa
dziewięć
czytać
ładne
spytać
psychi
bilety
wyspie
##sję
lę
zwi
potw
wyśle
klien
##trzu
wyobrazić
victor
zebra
tłumaczenia
planety
##nieniu
członek
lw
internetu
##ele
53
demon
nowi
komórki
przeniesi
##tnego
mistrzu
odsuń
xix
wykonać
narzędzia
swej
miaste
ses
pańskie
ubo
prawdziwą
zapytaj
auta
oper
enter
##nięte
##dziły
koncep
##rzeniem
##ytet
zara
argu
specjalnie
katalo
małej
tań
##rzył
rozwiązać
zawia
przera
lekko
##zyw
gorąco
mogliśmy
##dio
##dnej
##inu
uczyć
52
idealnie
mundu
krajach
egzam
##ime
normalnie
staroży
mężczyźni
opinię
rod
1998
ev
sięg
brał
funduszu
nara
ledwo
##lary
##wczych
nazwie
pokazuje
dotrze
niezależnie
##pen
przyda
aresztowany
patro
specjalne
hał
##zów
dopi
polskim
upewnić
##ciłeś
liczbę
batali
drzewa
spry
##roz
mapę
finansowych
##ial
all
ryan
##ye
##ase
pres
klubie
siostrę
wkurz
zadziała
połączenia
szlag
dynami
dwoma
zno
##wione
trener
leo
##beth
sensie
pers
złota
matematy
głównej
brut
czekajcie
zwycięstwo
regular
znakomi
##ziem
momentu
##odaw
przeprosi
wykład
największego
tworz
wzrostu
dużej
przeniesie
spor
##arzem
porucznik
puzzle
niszczy
##niejszą
stal
wielkości
##pkę
##ujek
winny
maszyna
##stycznego
osa
chuck
sf
faceci
mont
morze
sex
zagranicznych
przeszkadza
wieś
dyplom
##ite
infrastruktury
##aja
pocie
działo
##nać
ton
pokoj
##kowym
firmie
niewolni
sprzedać
posłuchać
1999
wesz
##iego
mamę
##dniego
ważna
prosił
źró
walkę
ża
mys
susz
przeczu
dean
niedawno
lex
książka
rycer
komputera
naby
wszczęcia
##sło
uniwersytecie
łeb
zbliża
pakie
##ies
poczucie
środek
bogiem
##aron
##anitar
moral
wysokie
##ud
ogrze
bin
podjąć
obrazy
odpowiedzialność
##nen
##biegł
filmie
działają
spyt
waszego
drzew
##zerw
opowiedz
oprogramowanie
odgrywanie
wystra
osiągnąć
colle
pojechać
bał
zarządzania
potrwa
urodził
##usa
zmierza
kapelu
wskazana
smith
##stos
rozczar
uraz
koncent
jech
##tyka
konsul
cyfr
pacjenta
kevin
rzadko
ciężkie
dziesiątki
premier
zabójca
wynocha
ciśnienie
zauważ
motyw
##burg
pocze
czekamy
sądziłem
parking
##kł
shel
imprezę
przeja
zbroj
guberna
toreb
starszy
ukryć
robiłem
ado
okropne
zamku
okresu
bazie
autostra
polityka
tamtego
głową
zarezerw
karierę
wyciągnąć
pk
##lone
kontrolować
dziedzinie
sor
va
roczni
marek
spędzić
ren
najstar
silnik
##owiadać
budowę
powtarzam
joey
sklepie
mod
złą
warunkach
przesłu
decyzje
zostawię
ciu
##sha
wujek
elementy
opiera
##tale
randkę
sher
##ałby
kompletnie
wychodzę
ów
##zel
##tycznego
porozmawiamy
chrześcija
większy
##ient
vegas
ładny
robin
cast
##rzysz
olbrzy
musiałeś
##duję
kontynuować
przykłady
sieć
stef
przemo
wzdłuż
najczęściej
członkowie
zli
przyłą
wyraż
austra
rozmia
nauczycieli
gold
chmu
gang
południu
przele
współczu
google
społeczności
wymiar
samorządu
minutę
##tywy
##gr
połóż
instytucji
psychiat
##styczna
##czyłeś
oł
przeklę
szybki
profil
##ett
##ander
systemy
odpor
rozwij
pokonać
wyprze
londynie
dałeś
poniż
wykonu
wróciłem
magne
luke
podziel
porno
medycy
żołnierze
party
odes
zjednoczone
sław
żelaz
susan
internetowej
ruszy
1000
straciliśmy
omi
nawi
żywności
zadaniem
zabiła
##powie
zabili
przekształ
odmowie
##ałości
powtar
##tional
połowa
que
ogni
mosk
psycho
von
##60
straty
jedziesz
angielski
samodziel
##ałuję
ufa
##tnej
ogląda
przejmuj
zajebi
bren
1944
bizne
##bod
przeszłość
inspi
ciemno
zbad
przemów
śmieci
dystrybu
obozu
odbiór
pete
długości
instruk
##stycznie
poprawka
czyste
##zą
##anek
wybo
##żasz
##kania
nadej
nawzajem
omów
bagaż
duszę
##cyfi
##regu
zakończyć
##nok
wad
duszy
wyobraź
podno
malar
koszmar
##logu
bomba
dostałeś
zdolności
wsta
wtor
konsekwen
jerry
organizacyjne
biała
sędzia
facetów
hall
##duk
##larz
zawiod
naczy
##szkod
podwyż
ogród
##ranych
umówi
##róg
wiej
zaczynaj
utrzymy
żebyście
grupę
zacząłem
zakwaterowanie
muzykę
mogłaś
naraz
that
trening
pobytu
wręcz
kieszeni
##nictwa
częst
dużym
zakłó
bene
51
systemów
promieni
gospodarczej
##000
postanowieniem
##ring
cur
skorzystać
potrzebować
egze
normalne
wyglądało
zezna
pojęcie
więźni
jackson
sad
kapi
dv
flor
formy
ustan
podrę
mr
roślin
zabrali
samobójstwo
skrzywdzić
wyluzuj
czarnu
##owin
instalacji
biegnij
##cro
ryby
uka
nadziei
egip
obs
genia
przynieść
aresz
klucze
##mieniem
49
ukończył
mete
przyg
popo
gabine
##kujemy
rozporządzenia
słyszałaś
zgłasz
handlu
słow
##cono
prom
herbaty
postać
kościele
zadowolony
dokumentów
##ciąć
##rup
próba
operacja
byłbym
##szono
ela
who
dokonać
prywatna
cli
##ella
wysił
kliknij
pospiesz
śledztwo
kle
poj
##30
kl
użytkowników
końc
gdziekolwiek
byd
dzwonię
czysty
deszcz
zwróci
księcia
##dami
natury
##sus
##mioty
zbrod
zęby
##ując
projekty
domów
##uth
święty
gościem
cre
nadszedł
zmarła
zginie
efekt
sprawiedliwość
chloe
metro
zadzwonił
kamień
lit
bun
##czyło
własność
eko
kluczy
##gli
##wamy
większą
##des
##zali
dostarcz
jesli
1997
walczył
##cką
podo
inteligent
zasłuży
paryżu
wysko
wodą
czer
##gal
ara
arab
##dzał
ludzkie
główne
mobi
meksyku
scho
stole
takimi
zabierzcie
modu
utworz
kotku
pełną
kance
pośpie
##val
##nęliśmy
##łabym
dróg
nied
powiedzi
bycia
piosenki
egzeku
##dują
wyjech
inwest
prywatne
trafił
mamie
udać
augu
top
##wość
tworzeniu
wnu
sposobu
kartę
przyjdę
##tną
głupo
progno
paru
##fak
##tery
zmęczony
ambasad
tay
##dność
próbujesz
przyjechał
poto
równowa
wód
żydów
jąd
straży
moder
alter
powinniście
##tnych
gon
dosł
kompleks
wese
kilometrów
##bek
len
wewnętrznych
wyjechać
cholernie
wyglądał
##oważ
posiedzeniu
bohaterem
fili
tajemnicy
świadczenia
##nuję
wyjdziesz
pozwolił
ściany
sposobem
zaczekać
stały
urządzeń
kupu
54
##endy
##dii
waliz
meta
rejestrze
hero
dochodzi
##aa
##cząć
ofertę
mian
barze
pańska
dupek
##nap
##łami
dach
##lw
jones
rezult
zgody
dziadek
##skę
rolnictwa
zechcesz
strachu
przyszłym
zapobie
zginąć
zagrożenie
wyku
występują
##rywać
żołnierz
oparciu
glos
siła
##nkach
##reze
cisza
chin
pob
kancelar
zachodniej
##tis
przeżyć
zysk
leczenia
świadczeń
zobaczył
wyczy
odna
##racja
grupie
podejdź
potrafią
przesta
##onki
##ścił
yor
społecznych
##cznika
niedź
posp
world
zabiją
##towy
życzenie
byliście
johna
zasadni
pomów
wprowadzenie
interesujące
##wanych
oddziału
przebieg
##andra
kated
##łom
##stycznym
##tyki
##ins
ruszamy
mieszkam
##ankę
##niają
babcia
dziew
podąż
nieprawdaż
##och
szat
##osob
skontaktować
##skach
##pri
steph
schow
słaby
dachu
##chaliśmy
nogę
jesie
impreza
wydał
największy
bia
##czyna
##rzałem
##dziłaś
pancer
świąt
uwolni
1996
okna
porównaniu
pełen
180
##pul
dex
intensyw
złoto
cri
##rozu
annie
##ałabym
##nor
przedsiębiorcy
lewi
dniem
życi
helikop
##niam
##nnego
krymina
##szto
pracujemy
hatak
piłkę
dużych
cyt
##mień
stworzył
zakupy
##zją
budzi
##łożyć
green
cham
brytanii
innowa
home
chcieliśmy
przeprosić
##wisz
mile
profesjonal
forum
słodki
któremu
vir
przyjaciółka
prawdziwego
czyje
hill
lesie
funkcje
##berta
poniedziałek
skup
##jącymi
nadzorowanych
położony
precy
##bom
napisów
rozwiązań
głosowania
##tow
jutra
zakończeniu
##wano
spadaj
długość
##arium
##żeni
wzgó
znał
obejrzeć
pułkownik
herbat
próbie
miesiącu
obowiązki
pasku
wb
powstania
czą
itp
głosów
postaw
operację
##owaliście
##leniem
swą
narkotyki
##nionych
cat
ross
magazyn
wstrzą
czynności
##libyście
##cjonu
apartamenty
zawierający
##akuj
zauważyć
napisać
najwyższy
ear
stopy
recen
bierzesz
##rk
zwia
##nk
##czeć
zatwier
czarne
##nęłam
wystrze
mieszkaniu
wystąpi
filmów
zabijać
prosze
wraż
jenny
morgan
##15
narkotyków
starych
phi
tk
##ręb
zrobią
rachu
wsk
##lane
wsiadaj
oznacz
##wiar
status
kompozy
##szczeniu
sky
lady
zamiaru
ślep
white
zapreze
zazdros
##dzej
##liłem
znika
komuni
oferta
leków
troszkę
niepotrzeb
największym
spotkałem
branży
zakon
waria
zgodę
liczne
fraje
odprowa
##budowy
##anina
materiały
kurde
wątro
trzymasz
odpowiedział
moto
odwro
przychodzą
podległe
winie
przykładów
wydawało
konstru
powrócił
spodnie
dokony
pożegna
ogo
nadzoru
przejście
starym
prędkość
##esa
gum
obwi
nastolat
##żonego
wejścia
panów
##casz
świadków
pasz
gimnazj
popiera
ameryce
istotne
rozdział
tkan
patrzę
powiat
##day
figu
deko
##vy
emer
##kali
wchodzą
##dzeniem
##con
nagranie
finansowe
opłat
ugry
udawać
baw
zrobione
dyspozy
##ila
hit
uderz
anu
wiarę
ciężki
itd
dowódca
##zować
##niło
fsc
przeznaczenie
przywie
big
niedźwie
dostałam
adre
wygo
##ctwie
wg
##vey
ciot
sztuka
nadzwyczaj
przyjemnością
larry
taś
miesiąca
spar
doskonał
studen
##niejszego
##sami
##sora
koncert
podnieść
186
poradzić
moge
##dziesiąt
wyników
##ero
próbowałam
zagrożenia
trzydzie
marsh
##bami
szeryf
ms
marzenia
##dzeń
dyscypli
miami
wnioski
sypialni
stanach
zależności
brawo
tematy
##ciar
eleg
uczelni
załogi
##ownictwa
mistrza
przeze
##rzyg
major
przypomnieć
gówna
dziewczynki
ojczy
pułku
złożyć
##stria
nawią
wspomina
średnia
ciele
boy
odpowiedzialności
bronić
nosić
zasięgu
niegrze
okręg
zdraj
odcinku
isa
zmo
łóżko
zachwy
wykonania
przerwę
##nal
imperium
kolejnego
białe
umarła
##anta
żałuję
koni
celi
uczę
fol
zasada
zebr
wyrok
przerwy
marti
fscy
zmusi
host
fajne
1990
alterna
godzinie
57
siostrą
odda
dobr
sąsia
snu
skali
##mierz
obowiązu
towarzystwo
zasługuje
negocja
hob
wieczoru
drzwiami
złodziej
##prawdy
największe
zachowania
bilet
zs
powrotu
##oły
zostałeś
kolejnym
karet
##wczes
chora
ramię
projekcie
romans
królestwa
nieprze
władz
przechowy
podstawowych
zrobienia
przyszłam
floty
przepad
uniknąć
##tona
obecności
wypoży
choroba
##owienia
odzna
idealny
wypuść
louis
fair
ocal
dostępny
az
strzelaj
##czech
ciężar
samochodem
kłamstwo
cholerny
królowa
prowadzenia
##dowała
swych
przynosi
##nieniem
##ceni
doprawdy
zezwo
##40
warszt
samochody
lisa
jason
otwart
modlit
grace
rozpozn
jakichś
##hen
ugo
drzewo
##nnej
##jadę
kupił
słodkie
##mond
dupku
##tyczna
niemczech
##owal
wykształ
powietrzu
młodzieży
dvd
jord
stoli
brad
badanie
przekra
##wało
high
mylisz
wysyła
pobrać
oprogramowania
czasz
księżyca
##kana
sak
przyniosę
znane
wierzą
gri
pozwolenie
##dziach
wiedziałaś
##trafi
zwa
##órek
wprowadzić
posiedzenia
pewną
trzymam
żadnym
##pomóż
58
xvi
##ue
komitetu
przebie
wróciłeś
krakow
tablet
wisi
dowiemy
okiem
56
pobie
dziennie
karen
danej
kampanii
korzystać
zgłosi
dają
wah
wyślij
rozmawiamy
dziwny
publicznego
spier
pośle
##szysz
dali
##czam
##dium
wydoby
sean
uzyskał
słyszał
izbo
##ato
##styka
nagrania
cech
popołu
gratuluję
odnaj
sztuk
bedzie
chłopców
poważaniem
koszul
mau
zaopat
tęsknię
czerwone
ami
##stąpił
##czycy
synchro
jacy
lekarze
odwiedzić
uważać
wyścig
przybył
##camy
stół
mapy
obwo
##har
wyjdę
robiłeś
podrzu
##niłam
joan
##styczną
porę
dajesz
telewizyj
chuj
eliza
częstot
komentarz
układu
trzeciej
##kingu
przenieść
głosy
urodzin
zarę
dzieciaka
your
##leciał
##cku
##westi
pisać
##32
patrzysz
cukier
przypadkach
##stron
pensjon
120
jednostka
##ktyw
interpre
naszymi
59
turnieju
rzucić
##sis
elementów
testy
pami
pracują
zostawcie
zmart
fur
odchodzi
życzę
##praca
obiektu
dzieli
alan
gatunek
leczenie
wibra
korpo
##dan
ligi
zacznę
ministerstwie
kelly
web
boo
konferencji
lekarzy
##szeń
przygotuj
elegan
wolna
oznak
stopień
kłopot
przepu
opieku
etapie
cios
kontrolą
opuścił
uniwersytet
##ah
tylu
pracowałem
szaf
społeczeństwa
twego
czech
##ugh
##iłem
gadasz
kontek
przypadkiem
opat
##logię
##rana
przecię
przemyśl
agre
stworzenia
zbu
wybrał
odku
rośnie
sobo
kri
##nna
senatora
powstała
transak
odcinek
akcja
zabijesz
norwe
homo
polaków
satelitarne
temperatura
bio
kau
sezonu
##stein
skomplikowane
żonaty
mcc
linię
##wers
odciski
alice
krwią
dwudzie
juli
rozdziel
eksperyment
wypuści
av
nieprawidłowe
transmi
koor
prior
##ety
spółka
przestępstwa
lily
edward
ukradł
rekomen
prezenta
95
pracą
wkład
stawia
72
kwi
##hoe
korzyści
spośród
uszy
pin
forsę
komunikacji
pracodaw
piekła
dwaj
widzieliście
spek
cofnąć
kosme
niebieski
propozycję
twoimi
out
prędzej
głównych
zapłaci
##szeniu
tron
przycze
##nnym
tworzą
bałagan
hoste
matce
powyższym
powróci
##są
pokazując
##wek
leś
wodzie
przywo
specjalny
zgar
poznaj
pozostać
kung
##iel
##bla
kapli
pono
kuchnia
85
powiecie
terytorialnego
aspek
dostaje
zary
trzymajcie
wypro
kij
zdąży
żartuję
studiów
zejdź
idealne
1991
klasztor
ober
piosenkę
##ola
utru
wyzwo
mieszkasz
ucieczki
##antów
##caj
odpowiedz
##styn
polsko
miesię
koron
wystawi
przedstawiciel
piwnicy
hank
zabyt
##ciał
załam
wniosków
znacie
andrew
##żono
##mem
skończyliśmy
wywiad
wyłączyć
piotr
przedłu
urlo
gwie
choćby
palców
pt
ślad
drewni
talent
##łuje
wielkich
kami
##dujemy
##liwa
abyśmy
rozmów
shaw
hur
zama
wydat
aha
mg
stacja
kolana
wybrany
szkolenia
porze
zagrać
bitwy
250
zauważyłem
##twę
programy
jacka
angielsku
ryba
##rt
##cle
eng
zasobów
##17
odpocząć
kamera
całość
gali
niepodleg
podobało
wybi
wybaczcie
największych
medal
znają
rozpocząć
##ałę
uzbroje
przetłumaczone
strefy
##sków
brakowało
szacunkiem
przeciwie
brazy
misję
szukają
##nkiem
zeszłej
mieszkańcy
mięk
słowniki
atmosf
akademi
mieszkać
wyeli
pozwolisz
##cają
umrę
schod
gnia
dosłownie
miarę
wymów
formularz
chłopcem
witajcie
wirus
śladów
przyszło
##sel
ciemności
senatorze
przypominam
ofiarą
przeba
ala
lider
kary
swojemu
groma
##szać
nawiąz
uci
nastro
wchodzę
rea
poszedłem
##oth
warszaw
zastanawia
tańczy
##stką
odznak
##tnam
krzyszto
neuro
uwięzi
organ
gie
czuł
##ako
austria
dwor
wpadł
fortu
##dzania
moderni
podjął
zaczęli
ciał
ślubu
wybierasz
przyjął
zabie
wery
tymczasem
fro
rusza
darmowe
niezna
##karz
mężczyznę
planów
##stąpić
właścicielem
tatusiu
ut
prawnych
zanieczy
##sum
fakty
##niosła
rachunek
słownika
przysięg
wolałbym
dzieło
##dalaj
uruchomi
okazuje
tłumaczy
wstrzymał
obiet
obóz
byc
prowin
niemiecki
simon
żywi
1992
##wicza
poprosił
amen
paliwa
posu
##onek
rosną
kin
##arki
postawić
600
zsrr
trzę
##tnym
niedobrze
zrozumi
granicę
skończyła
##cik
##żeć
##wając
potencj
wbrew
kręci
##cyjnie
prezydencie
##isz
ari
siostro
materia
plecy
wykonaw
sprząt
tot
znalezienie
##dzamy
bomby
##cs
dziecię
biologi
skró
szacu
łazienki
cd
wnętrz
pale
skorzyst
pewnych
alfa
##blo
dowódcy
marn
wykorzystu
zaśpie
dupie
godz
prześla
składni
generała
komfor
##atybi
formal
ręką
sau
książek
##oda
##70
wene
pogadamy
ludności
byle
przesp
planuje
poprzednio
##tero
glosbe
instytutu
siê
przypuszczam
szklan
cro
proro
udaje
widzieli
czekał
źródeł
upoważ
wu
zuży
żołąd
ważnego
przekazy
##pą
pośpiesz
bzdury
##owicz
##typ
##pet
kazi
##ówek
okręgu
pełnił
użytkownika
szczyt
przewidy
sprzętu
przemocy
##knie
male
przecią
marka
sukinsyn
1989
priorytet
rick
klę
przyjaciółką
certy
białoru
##zami
dorast
##sm
znałem
##stek
europejskich
doug
ewolu
love
funtów
just
wyjechał
ochot
emu
##kają
wyborach
świątyni
pijany
##rea
tamtym
##eza
##ciera
bydgo
wychodzą
drogie
śro
##czniej
królową
miliona
kupiłem
wybuchu
##hr
##lyn
połączyć
##kową
uruchomienia
ekscy
##niami
wyjazd
dofinans
##yn
uści
pozostanie
##via
czaso
##dith
##eta
gabr
przygotowania
##rowie
interna
szamp
sala
piosenka
kwoty
quin
zazdro
detektywie
##koj
sanitar
dwadzie
świetle
1994
wiedzę
związany
szlachet
##liłeś
załatwię
##pot
majorze
pozwólcie
wstyd
morderca
air
##współ
##chasz
vat
amuni
pojadę
dowiedz
dostępnego
sprawić
odnosi
elizabeth
mitch
zlikwi
dostała
fscx1
185
##niak
zdobę
benzy
karta
##ołem
radzi
wydarzeń
##iz
małżeństwa
cesar
izrael
siedmiu
góra
obcią
dzwon
gwiazda
konta
leżą
spodob
naka
wtorek
kontrola
olimpij
statu
vol
imprezy
charakterze
wzbu
menu
pret
oddziel
papierosy
toksy
wielokrotnie
##onka
najgorsze
##tes
##żemy
chuja
osobiste
sojusz
konkurs
tatą
zabieraj
chcielibyśmy
trzecia
główną
naturalne
wchodź
płyty
trage
reszty
##owuje
zajmij
kontaktu
cerem
fli
osła
maz
pracowni
siostrze
lotniska
świadek
kryzys
odeszła
ya
##poli
##nastu
zaproszenie
aman
wart
profi
pomara
##iła
chorwa
ogromne
##fikować
przyp
rak
stanę
profesorze
prędkości
##zujemy
winien
policjant
##czonego
ks
kolory
zin
spoczy
powodem
dopad
czytaj
przeczytaj
agencie
premiera
##aria
##jąco
##25
with
klasa
##stkę
staru
ciaste
##czyliśmy
otrzymać
wypowiedzi
##alność
otwier
artykułu
gliną
wystąpił
fat
gazu
##som
jedz
zagroż
bezpłatny
piekło
##cina
zawartość
czwartek
##prawi
realizację
posiedzenie
widzą
wycofać
powrocie
gazety
zapozna
jemu
stronach
aposto
przyniesie
##ruch
##wzię
##janie
wrogów
szczery
##towa
##shot
##lement
1995
wyspa
cycki
spółek
amerykański
##rzymy
ewan
zakładam
użyte
nauka
zwierz
rebe
jaco
##cyjno
##ralne
zdarzyło
uzbroj
skończyło
kem
dwadzieścia
śmi
opo
przestrzeń
automatycznie
nadaje
trz
obiektów
gwi
odzie
##arch
##zia
wolnego
wzor
napić
##gasz
chłopakiem
cali
kochał
kłamiesz
##prawiedli
zaopie
##walu
gatunków
bau
uzd
powstanie
klej
dobrzy
wood
gwiezd
żonie
zdjąć
pracowała
wykła
strategi
cudowne
przedstawicieli
płaci
odniesieniu
telefony
szybkie
zareag
chrz
wzięła
##ino
wywoł
lasu
wytwór
węgier
bliźnia
wskazują
osi
pira
galakty
wieży
kochana
przeczytać
snap
hiszpanii
wtrą
dojdzie
##ky
taylor
ota
udziałem
sekcji
##miesz
doży
gram
##16
kumpel
eur
dusz
ustawi
mężczyzny
##77
rezerwacji
wietnam
zajęta
pomyłka
zainteresowany
zani
uję
nieob
nade
##szości
ski
niew
obowiązków
nare
studio
uwolnić
dojść
format
siłą
bać
szach
przygotowy
glob
admira
##wań
cierpi
świadka
odwoł
planecie
grand
wyelimin
przemysłu
nazywał
przetwarz
##ou
słuchasz
poważny
opiekun
wziąłem
bezpośre
użyj
kow
zapraszam
polubi
##ep
##nili
archiw
zegarek
##lizację
##otek
młodo
##13
przyjaźni
świeże
nauczył
184
hasło
jackie
kanały
prawomoc
##warant
mistrzem
emeryt
pańskiej
kongres
budowa
pobierz
cle
mięso
##stami
moj
sześci
fascy
##brze
tchó
##ise
##ese
wiecznie
##piony
aku
phoe
repor
zaklę
zaufanie
carlos
finansowania
węgla
rozszerzeniem
pru
pragnie
czułam
wspomniał
##dt
mld
integra
rogu
bir
##tter
##cjo
kolacji
marty
66
magazynie
robiła
zróbcie
koła
sfor
otwieraj
##tkami
1993
rozgry
wayne
żyjemy
##czyły
##ałaby
nawie
##resji
następna
zapomniałeś
##zar
##dzki
##nan
sygna
organizacja
oddychać
klimatyzacja
##współpraca
dodatkowych
##mią
otwarty
##ńcy
nienawidzi
złych
nabo
czysta
kwat
zakończenie
rozpa
kwad
bohatera
ogar
##darz
połowy
oddam
zaczynają
##tyk
##więcej
musieliśmy
armię
przeprowadzić
alpha
zabroni
dookoła
##var
mieści
beth
zmieniła
pociągu
##zg
walczą
rzeczach
wiąz
dawać
##cks
dziwa
naprawi
trzymał
podstawowe
podmiotów
grafi
symbol
lal
metra
pochodzenia
piętro
przyciąg
zdania
skupić
nareszcie
ewange
spotkaliśmy
scenariusz
uważnie
wykorzystuje
lepsza
mick
swobod
naturalnie
800
białym
największą
zdejmij
spotkań
cofnij
przygotowanie
świadkiem
ustalić
japonii
podobny
okazja
powstrzyma
gle
ziemią
mora
##oto
rozstrzyg
##iera
##rin
skutek
kosztuje
brzyd
dopuszcz
egzamin
kwestie
kariery
biedny
wydatki
przyjaź
przedsięwzię
##towany
##ceń
##gin
##tował
##ping
sędzie
imponu
głośno
zdańwspółpraca
zdańwspółpracapomóż
amer
68
przycisk
najwyższej
##nieśli
nadchodzą
piętrze
upewnij
porządek
##czyków
##kowski
naprze
wdzięczny
##bb
stworzenie
umysłu
białego
feli
teorii
przebi
konieczności
nakrę
twarzą
seryj
kwotę
##zeru
studentów
krem
kark
zapomniałam
departament
mana
zwrot
##fry
##lizuje
bezna
##ode
pracownik
obszaru
suszarka
służbie
##niosę
kawałki
##owska
techniczne
##lować
podnieś
strzela
płacą
wydziale
##rego
czytania
łączą
mądry
zrozumiano
miastem
##westion
nazwał
wiedź
szansy
zruj
##xi
franci
ape
najwięcej
własności
##leniu
##dawaj
dis
twe
##czoną
opa
barry
dowiem
##gorz
wpaść
##uta
pałacu
stolicy
regionie
pomagać
##osa
piwa
##pina
##lecia
organów
pojazdów
posel
obcych
##14
odległość
##tujcie
przedtem
ug
znieść
przyszłaś
igrzy
szer
past
chciałabyś
62
truci
czytałem
hanna
urzędni
##kowana
stwierdzam
grun
zbieg
spowodowane
pierścień
cudem
współpracę
europejskiego
pracownicy
wel
budynków
molly
rozdzie
agenta
palce
##owskiej
grz
##vice
##godni
ważniejsze
serde
zajmiemy
dołączyć
szeryfie
##łaby
jessi
pewni
izby
maggie
wariat
podzieli
hałas
imprez
##ben
##18
popi
dusza
paweł
wirtu
##dowy
zostaliśmy
ny
##krę
przyjdź
##unę
geografi
dor
czarna
lotnicze
suka
zostawiłem
india
przystan
zamknięty
ludziach
ostrzeg
suko
tło
cieszyć
czerwcu
##pel
kuli
roger
##aju
angel
skórę
szukałem
specjalnych
podkreślić
zamówienie
uderzył
pysz
doprowadzić
średniej
college
ryzyka
koł
##biny
dłoń
toaleta
odszkod
sas
oddychaj
##ds
##leria
strata
zdolność
##bii
##toni
miejmy
przemi
pigu
opowiedzieć
głodu
dowci
ratować
szacunek
wygran
zwra
bądźcie
dumna
market
paramet
letni
pse
zwiększ
sand
##nisa
pojedy
otwarcie
wydać
opad
gorsze
chorych
kula
##tacje
zaprezent
##low
proponuję
om
pomysły
##ann
brook
specjalnego
obaw
płacić
przyczyną
##cymi
flory
biorą
sekundy
##rzym
poszukiwania
tabe
weźmiemy
kont
wieki
zdarzyć
skoncent
litość
minimal
##lizować
położyć
ustawą
pierści
wenty
dzwonić
okropnie
##pher
jork
dzisiejszego
przyrze
gara
dało
ubiera
wiedząc
##niono
forsy
europa
wymyśl
usy
większej
##graf
właściwości
właściwe
bart
kraje
##cisnąć
zastosowanie
posa
chaos
ignor
internecie
wyższe
zmęczona
##targ
mieszkał
parlamentar
nazwą
kapł
większa
dyspozycji
martwa
grasz
usłyszałem
snapshot
obcy
lois
zagubi
każdemu
przyz
##prasza
wystaw
zapad
wojsko
umrzesz
##waniem
bandy
thor
odmawia
trybie
szukał
tekstu
skradzi
opozy
stałe
zapewniam
lucas
zabity
włoch
planie
wci
energię
sprawoz
postu
instytut
##bol
otrzymaliśmy
powiedziałbym
zastanawiałem
##fil
organy
ówczes
pewnej
##landia
osobie
pełnym
idiota
##łaj
##mujemy
stowarzyszenia
młodzi
niewiarygodne
##22
wyła
alkohol
teoria
ocena
przypadków
obecny
chcia
częściej
##gs
zapomina
##tonie
zostawiła
##niania
tygry
sekretarz
bryga
nazwać
##ves
szczegółów
oczami
patrząc
##czonym
czarno
##czniu
matth
news
szyi
dana
interesów
technologi
okra
##atem
dłoni
piękną
bay
zakłady
błędzie
bombę
kit
potom
pam
##rować
jeziora
buddy
rękawi
udu
dużego
gejem
##bądź
0000
partnera
profe
sierż
odrobinę
##pla
skrzydła
prostytu
##owice
słusznie
skrom
cru
wagi
francisco
2020
paz
nieszczę
zgła
arcy
ostrożny
użyciu
rozpoczęła
zabawny
przystojny
zabezpieczenia
królowej
##gląda
wykonywania
1940
walk
##ówce
osą
przyspie
zadział
rozd
wykonane
##śniu
pomor
zasługu
podzielić
ustawę
woł
światem
##lod
skończę
74
kwota
telefonów
skłam
marki
izo
podstawy
wizeru
wszelkich
amber
1941
niewinny
67
russ
69
próż
zasł
##słem
##antem
zauważył
transpor
micro
1943
wizytę
baby
##żyła
środowisko
dyspon
londynu
ip
##xa
tamten
##can
najpraw
nadzieje
zaczęły
arth
##pper
ćwiczenia
inteligen
zapal
ret
okie
niebezpieczeństwo
rozumiemy
harvey
poprostu
gimnazjum
osobowych
zidentyfik
mem
pańskiego
facebo
lokalnych
bole
zwykły
##czników
##owcy
poście
próbę
wziąłeś
kadencji
zgodził
zabójstwo
styczniu
wujku
czekałem
wypu
ośrodek
więź
##red
oświet
##wałaś
infek
przesłuchanie
##chyl
prosta
rodzicami
##czyłam
duchy
dostaniemy
pozostało
jaw
wilson
mone
##ńczycy
chociażby
naprzeciw
rumu
statki
##cor
warszawy
rozegra
##ffy
podpisać
##skawi
obses
niebezpieczny
nadejdzie
pojedziemy
##rzyk
zanu
##conych
służbę
koj
witry
oo
nakład
cookies
złodzie
przeważ
soph
santa
old
odbył
obyd
baz
najm
hun
sobotę
ubezpieczenia
podar
wejdzie
próbuj
wymiany
publiczne
hostele
sprzą
awaryj
dziwka
ander
zapłacę
częściowo
kopii
1918
farma
naukę
niezbędne
zaryzy
rozmawiałam
nadaw
bezu
##wód
nathan
odcię
anti
sejf
brzegu
wrześniu
zago
hay
rejonie
osiągnięcia
##mus
funkcjonowania
paryża
wytłumaczyć
józefa
lem
używane
zasięg
wyzwanie
zakrę
law
procesie
kochan
siedzibą
more
mądra
skrzyż
znajomych
przetrwać
cole
świadomość
przeżył
slo
grane
pisma
vince
zdarz
posłuchajcie
dzieciom
prywatności
andrzej
zwró
trenin
##tanie
wychodzić
zajęć
##hatak
zakończył
##33
oficerów
##gene
używają
ścianie
88
abby
materiału
poprawek
słodka
niesko
zajmował
##ujcie
rozpoczyna
prowadzenie
zaczynasz
zginęło
teore
98
stosowania
ludzkości
zapytam
łam
propozycji
przejdzie
nazywać
grupahatak
czasopis
##ms
przestał
fragment
narciar
korzysta
ukoń
##ig
##ington
restauracja
wynagrodzenia
gada
palec
stanowisku
maju
pensjonat
zawiado
jadą
dołącz
szpieg
spotkał
znalazłaś
nieodpowie
krawę
##acji
przydat
ukrywa
##lara
mówicie
pożąd
kabl
##niesienia
pawła
powody
##ere
łago
zabieram
mit
wanna
time
kapu
ogrzewanie
prokuratora
obozie
procedury
##lish
ekspres
wó
sukinsynu
minął
kierunek
zatrudnienia
bruce
zastanowi
trybunału
poznał
błędów
zacznijmy
##ction
silne
polską
hil
granicą
nosa
##bane
bater
##orzę
baru
wyjątkowo
niebezpieczeństwie
wesołych
seni
charlot
napisz
sportu
ratunk
śladu
pobyt
przem
trzecim
staw
siedzą
toru
dil
należał
precyzyj
graj
chem
zabójstwa
tortur
##ajnik
potencjal
kalen
zaufania
##figu
hou
wybory
szalone
sprowadza
##czasie
ochronie
wyjaśnienia
dziewią
gwiazdą
zajęło
kw
##100
forte
pokoi
naukowych
beznadziej
uspokoić
##onię
przeje
przyjdziesz
prawnik
zadebi
##stępujemy
##dacja
umieścić
przyzwo
panny
samemu
międzynarodowych
dywizji
hra
spodziewałem
epo
przyno
uważają
free
miłością
adama
##walił
gadaj
podsek
optym
kolega
rozmawiam
semin
lato
tańczyć
parafii
morzu
wari
byście
umieram
ściśle
ogrod
wioski
narobi
splu
dworze
bywa
pismo
środowisk
saty
orbi
1920
##romi
linco
zasu
anonim
##sali
wspólne
istnienia
trafia
odmi
##dzanie
przywró
zginęła
określa
ksiądz
puści
najpięk
błyskawi
kwalifika
grudniu
wykonana
mleko
kradzież
opak
odesz
1942
ryt
placu
tęt
dalsze
zwłoki
zrujn
zgłosić
wskazać
baza
węz
odle
twardy
##wycza
regionu
doskonały
alternatyw
##elu
gwałt
wersję
bogaty
archiwum
zamknięta
podejście
##ffff
gary
lekcje
wul
##padzie
hrab
silniki
wpływem
odróż
fundusz
podek
wybie
wymagania
latać
pozostali
szwa
bul
##eter
ogromny
podłodze
##ida
świąte
radzę
zapisy
pozycja
oświadczenie
lord
pewności
pokazał
włady
siero
synów
przewodniczącego
##czające
motor
emeryturę
stale
sektora
kultur
referen
##śmier
97
aresztować
otrzymy
oddal
siedzisz
terry
pojawiła
królestwo
właściwy
##roma
użył
przedstawiciele
samotny
lotniczych
atmosfer
rytu
podejrzany
##cti
dziecku
caro
wpływu
##dencji
kłamstwa
boles
obrazu
południowo
apara
uratował
beze
przyjechać
podekscy
wyborów
kostium
józef
zapewnienia
nate
##tacie
ciasto
odbywa
prawna
prawomocnie
błogosławie
pasa
skłon
ada
pytać
pilota
tez
przyjąłem
gardło
##szyła
##żymy
smakuje
prost
##burgu
miod
##czasz
uszkodzony
pul
sierżant
##skry
wzmac
zadebiut
naraż
przeciwieństwie
papiery
przysłał
zdajesz
usz
order
klo
##seksu
podłą
przyszli
więźniów
parlamentu
dorosłych
narodzi
ogólno
chodzą
##limy
leczni
##ili
mig
informat
nieszczęśli
##lady
stę
mistrzostw
zamo
##czono
73
alkoholu
pytał
przedsiębiorstwa
spada
przeczucie
pair
wydarzy
##prze
wicem
przeznaczone
dziewczynie
##niały
składzie
statków
załatwione
starczy
wnę
rocznie
junior
krótkie
departamentu
lepszym
zjedz
śwież
zbiór
pałac
dostaliśmy
objawy
prowadzę
ograniczenia
odwróć
warunkiem
nisko
zaczniesz
przyjeżdż
komitet
schwy
przykryw
relacji
księg
otwierania
przekaż
##oke
wyczerp
pomyślał
identyfika
skok
postaram
##bem
błag
##żonym
zastrzel
##llie
##ming
##osła
odpa
##mawi
politycznych
ustanowi
smutne
republiki
kierowca
mane
zwolniony
lipcu
##not
biurko
poci
oczyszcz
wydania
cholerne
##ram
wolisz
##grafi
dotyczący
##wani
##letu
międzyczasie
okulary
cztero
##tujące
obiecaj
naprawde
mole
pokaże
próbowała
##żysz
wezwać
województwie
pierdolony
senatu
sprzeci
dona
##naście
ciepło
trzeciego
##tos
mecze
##dero
picia
margar
śled
członkow
##fę
karę
opiekę
wyspę
służył
kelner
##lizm
jaku
josh
większego
psychiatry
##niasz
mapie
płacze
protoko
resztą
##dla
danego
planetę
pożegn
##minaj
wspomni
poprawi
chore
przegapi
wysłuch
chcieć
leć
granice
następnej
projektem
prośbę
konstytucji
płuc
tajemnica
##mujesz
kule
pety
##pr
załoga
obiekty
##udo
pogar
lotnisku
wchodzić
najprawdopodob
pośród
english
mes
technologia
sposoby
kłamać
##dzaje
przyzwycza
dowiedziałem
##nieni
słyszeliście
##pson
wojskowej
powiemy
##ffa
odmie
zdu
łaci
wizyty
ludzkiej
##rian
wpisy
modelu
obsługa
scenie
państwowej
narzędzi
kochają
budowlan
pełny
##żen
dowodzi
klau
wstać
gniew
rekord
hip
bloka
ruszyć
próbują
chłopie
##mb
1919
ręczniki
amator
prezydentem
beck
tworzenia
radia
##zdy
sceny
##ori
helen
nieobec
znana
ręko
tatę
poczuć
stanisław
cechy
gala
cmentarzu
temperatury
porozmawiam
dowodu
uregu
opowieść
pomóżcie
opowieści
północno
koledzy
szczęśliwi
piętna
przyjechałem
sędziego
trójką
huh
medycznych
traci
króli
##leya
rent
obecnej
south
dług
78
dziesięciu
drewna
żywy
zebrać
wprowadzenia
ble
przyjedzie
ambi
##ckiem
comp
zaszko
drużynie
konstrukcji
klienci
najprawdopodobniej
kończyć
matthew
##smy
##ńsku
pojechał
##lace
hin
informaty
biegu
##kany
from
##telni
odbiło
silna
finał
##sfak
wyrów
zielone
profesora
##znanie
sporzą
bani
chleb
starej
reg
wracasz
wrota
regulacji
##oci
rozkład
ranka
siedzę
pieprzone
wkro
syl
zniknęła
wyjeżdża
63
kolacja
plasti
otwarcia
natura
niedorze
kluczyki
zginęli
agentów
rodzaje
poszli
przepływ
instyn
straszny
obiecałem
89
book
pc
cierpię
płci
oliwka
lekarstwo
wysiad
podpisał
cudzo
zgwał
posiadają
czekasz
##lili
odpuść
myśleliśmy
konsekwencje
##bija
piśmie
zaciąg
##kiet
poznałam
##stii
zmieniać
##siem
cooper
wyw
trafić
toa
##tum
kalifornii
dowódcą
założenia
wskaźnik
york
francuski
##cznij
god
uto
incy
tajne
wydatków
##gue
pięcio
pojawić
budżet
##tyczną
##żyte
##ssa
##dowania
różno
camel
odbierz
zdą
##rick
##kodaw
zom
prosty
powtórzy
1975
johnson
oporu
październiku
##niczej
osad
pomówić
przejąć
bezpieczni
winna
meryt
odnalaz
zapali
##23
czaro
adwokata
numeru
uczynić
poprzednich
podanie
person
mordercą
powiedzcie
dino
kochamy
zakładu
tłum
tatuaż
est
sowie
##ury
opinia
tel
poznaliśmy
atom
skutki
podejrzanego
przyjęciem
samoloty
zespole
przyjęty
lecimy
przytom
##cera
##sci
książce
##zan
objął
poszukać
##owac
zmusz
walcz
płatności
kun
##kry
serw
uruchomić
zgadnij
##grani
andro
regulamin
ludwi
##beł
agencja
##nikach
mięsa
opcji
dowiesz
sąsiad
##lock
randka
##zić
określenie
następuje
##sier
##versi
żu
##aktyw
zawarte
##ette
zapowie
##well
##mum
##rzyja
planem
parker
zastanawiał
przewagę
słab
inicjatywy
dostarczyć
alb
zaatakował
kres
bitwie
racji
zaczną
klik
mamusiu
odwagi
##ozę
zejść
młodego
trwało
jedena
zwiększenie
torpe
odbędzie
owa
weźcie
młodzież
obowiązku
laski
sprawdziłem
##łod
solidar
##pracować
tragi
próbki
wyjątkowy
przestępstwo
merytory
oczekuje
agresyw
więzienie
nieśmier
sznu
listopadzie
lesbij
wyścigu
lapto
wchodzimy
nagryw
motocyk
żal
marzenie
uwzględni
zeznania
ochronia
sekundę
##kajmy
złoty
76
czele
pilnuj
wyszukiwar
kowbo
rekru
systemem
prawnikiem
##mierza
dexter
skończysz
##plika
zwolnić
wojewo
wysoką
wnioskodaw
ważną
##ralnych
ustawo
międzynarodowej
piłkar
##nęłaś
historie
toku
niesamowity
powtórzyć
zachowuje
działał
howard
elli
wywal
pojawiły
podziem
festiwalu
porozumienia
spędził
##tim
przedstawiam
konkursu
wschodzie
marynarki
kolejności
wojskowych
jeździć
ubiegł
##gdy
ky
wywiadu
przechodzimy
zespołem
ulubiony
pacjen
##źli
kosmo
plac
peru
jakiekolwiek
cesarz
##szer
##bara
tożsamość
istoty
##asy
złotych
zachodu
zwracam
wpi
niemieckiej
island
gracz
##prise
zajmują
przewiduje
##ńcem
pobiera
weźmiesz
posprzą
katie
good
##ril
potwierdzić
powieści
mulder
zrów
ukraść
##ttle
helikopter
wzór
trudności
rzeczywistość
pik
zapar
zeby
propozycja
##wiu
betty
zrozumiesz
font
kota
zostaniemy
szcz
międzynarodowe
kontekście
burmistrz
członka
standar
sny
niedzielę
zaspo
##0000
holen
czekolad
twi
zdjęciu
wola
przewidzi
nai
##zmem
usprawiedli
kieruje
uważamy
zwolen
sał
trum
##jam
zabrz
##tonu
charlotte
##ałyśmy
rozumiecie
poda
przekona
węż
spadł
białych
hostel
##prawa
poczy
stypen
stawiam
kina
inwa
chorób
przestan
pogor
śmia
potrzebowała
liczą
blue
dowództwo
wytwarz
buda
fundam
wiedza
swym
postanowił
mniejszości
popły
enterprise
tram
odzyska
zdolny
skupi
nogami
dawniej
zarobić
##znę
twierdzą
reguły
poważna
wzajemnie
otrzymała
guzi
##liła
starszych
pokazy
sprowadzić
awan
głodna
agentem
greg
średniowie
michelle
użytkownik
wdro
każe
przepisami
wirusa
tożsamości
kapelusz
abra
przeszkadzam
przyjdą
generalnego
zainteresowanie
któryś
rzucił
techniki
komandorze
przyczyny
skupia
dupkiem
wychodzimy
wiod
alu
przeciwnie
zakończenia
wyma
testam
##świę
pseudo
##niły
nadzieja
##nictwo
day
przekonany
##zowane
ole
robili
pożegnać
negocj
pozycje
dyrektorem
wyrzucić
sercem
wymo
mah
##walifik
austral
założył
##nianie
koper
het
zgroma
znaki
rozprzestrze
##pek
nauczyłem
zastąpi
##letnie
owoc
umieści
łaj
1968
zadzi
ohy
pomieszczenia
dupa
wzra
wypier
nagroda
know
nia
trasy
pańską
krajowych
vincent
rywali
siad
##21
zostałam
chłopaków
kolejnej
sierpniu
zapalenie
warta
sędziów
ostrzec
chorobę
rozrywki
spowodować
zdecydował
terapii
określone
publika
butelkę
wyśmie
zakup
polo
##gom
torbę
##90
piekar
##pion
##lany
marie
##tyków
potwo
nomina
##luj
poradzisz
gatunku
postanowienia
kawiar
załad
przyznał
przyjęciu
kongre
porozmawiajmy
ryzykować
##nięciu
kapitanem
##enie
##26
przeszła
bogów
sally
zmieniają
pytaj
bakter
śledztwa
kombina
pasażer
krótkim
prawnika
rzymu
bogowie
śmierdzi
wróg
##glądać
jesse
osza
##ras
##łkę
bezużyte
poczujesz
przystępujemy
szczą
rozpro
poprawkę
sobota
kuku
powtórz
##scie
zapobiec
prosiłem
unij
##lana
##onę
mieliście
##kor
zachor
dziewczę
skończyłam
jamie
myś
sms
kras
opłaty
wypły
szoku
77
##trzymują
poddać
osobom
kwietniu
interpelację
specyfi
julia
szkołach
info
produkcja
któregoś
chle
long
##dek
dai
straciłeś
71
wezwanie
partia
pogot
zaskoczony
dotarł
określonych
wiedzieliśmy
pustyni
bunt
pospie
pada
babci
nagród
scu
emocje
ori
magii
latar
lody
płacz
podwie
zabicie
spieprzy
położenie
dramaty
zwolnij
bai
odręb
wydłu
pomarańcz
ubra
##ganie
nauczania
zarzuty
aler
krzywdy
##cjom
seba
powierzchnię
jay
donna
rozmawiałeś
magazynu
zrozumiałeś
reprezentacji
nieroz
##bił
gordon
banda
powią
przygotowu
napast
pch
posłuch
odprę
reformy
dzieciaku
##col
jakimi
rozkła
ofiarę
koordyna
grzech
reklama
czoła
##dzkiego
madam
nastroju
twojemu
liczę
##łko
radość
namierz
##owiu
gład
tancer
dokończyć
likwidacji
posze
kenne
##rap
przyjm
##ose
north
posiadanie
##loguj
this
##wiec
zachowywać
żyła
pogody
##dzonego
ważnym
rodzinne
video
scenę
relacje
##mak
mniejsze
##sten
jersey
dosz
##mując
aktywności
amerykanie
mięśni
hodow
dress
zniszczenia
gorąca
uzyskania
##wymi
kółko
sel
kuzyn
zio
marii
sup
określić
##głe
##wców
pkp
pośrednictwem
dostate
notat
obserwować
bożego
1946
limit
wzięli
wiąże
##ptu
obrzy
1980
61
próbujemy
teks
jednoraz
chrystus
kodeksu
nało
ciężka
próbując
##tycznym
wrogiem
##uszki
latem
samolotów
symboli
paw
haw
86
##lada
##śc
##lg
łapy
##czonej
michał
denty
fundacji
muzu
bezdom
spojrzenie
##dowe
mostu
noga
##tic
łaska
##ader
włączyć
gib
mogłyby
przewodnicząca
##strem
propa
kodeks
kobiecie
tradycji
zabójcy
hong
prawne
##ciłam
##went
poprawić
zask
ogólnie
widy
komórek
file
głębi
kawaler
##dzka
obsługuje
płaszcz
96
gitar
##lano
mistrzostwach
##fal
kochałem
##tową
hollywood
egzem
krzycz
##piemy
wygryw
audy
graczy
##owce
telewizja
szczycie
nastąpiło
pomia
zwycięstwa
puszczaj
imieniem
zaczęliśmy
arche
exp
aro
kurew
zamówienia
goa
dyrekty
konsekwencji
analiza
##57
termina
średnio
niemieckiego
eks
##tok
160
gir
stanąć
##owro
wrażeniem
1988
weszła
krzyża
szalona
gun
grupą
cudowny
oddziałów
przestępczości
wydanie
##ux
##owskie
pachnie
społeczne
najważniejszych
wozu
parafia
niewidzia
luksus
##szty
frie
##komo
dziadku
##stawienie
stają
##soft
krajobraz
##nicze
derek
miller
fle
rezerwy
fajny
miałabym
spen
wojcie
gigan
wetery
grawi
płakać
przydziel
jebany
oddych
wschodu
źródłem
pogląd
przeniósł
##niczych
sprawiedli
deka
kochany
przyniosłem
wyrw
spak
kąpiel
##stant
pln
głosowanie
odwiedz
uszkodzenia
stery
poku
zoo
jin
##czania
testów
nowot
dokonał
rab
płyta
właściwego
saint
ufasz
doga
próbować
przecie
##ślą
##dował
dźwięku
ptaki
lekcji
poznaniu
##ball
nadu
jaskini
muzuł
popie
powstały
dzwoniła
sla
##macji
australia
##ąb
lodówka
znaleźliście
##atora
upi
pasy
łazience
niemieckich
świadomości
plotki
perspektywy
ciepła
laure
kolegi
##dison
94
xviii
ludu
ziemnia
przechwy
drzwiach
dogo
fascynu
##niliśmy
ulicę
zapomnę
natal
upar
korea
schroni
zasług
zemsty
ped
piłki
uwzględnie
czarną
dzisiejszy
zajmuję
ustawodaw
przeprosiny
wyglądała
strzały
nel
##bot
zielony
tade
ponowne
ewi
czarowni
podstawowej
club
dałam
##muł
87
##szonych
##cek
konieczność
ocean
##kowała
##chen
loty
paula
intele
rozpad
obawia
energia
laska
##ralnej
dnie
front
tkwi
doskonałe
##bru
namierzyć
##wiona
##kli
śmigł
ulica
##lamy
##cyna
lokalizacja
idealna
zapłacił
głupio
francja
przyszły
poba
##czkami
zbadać
##szeniem
hydra
uciekła
##ńcie
odet
domowe
wykonanie
1985
uwag
wściekły
uświado
ekologi
michaela
wibrator
uczuć
suite
##ktury
objaw
następną
raporty
strategii
komórkę
angielskiego
koleż
niepodległości
papież
nancy
włóż
październik
fox
godzinach
stwierdzić
uwierzysz
idioto
bić
wygrywa
utwór
spowodowało
poker
##anię
odży
czwór
tematu
chase
trzęsie
urodziła
daty
skazany
manu
zder
dziedzictwa
współrzę
##tus
gramy
lite
sl
korzystania
emocjonal
zapamięt
jajka
pasażerów
penny
naśla
road
hoteli
przyniósł
wielkopol
śpisz
przeszkadzać
sco
mordercy
powiedziano
steven
funduszy
pion
serwer
zdrowotnej
xó
przystos
późn
##dziu
xóõ
lotów
zorient
wzrok
potwór
##niec
różnicy
raportu
mediów
##czość
ostry
ker
84
wracajcie
fabryki
rewi
powsta
ró
tyler
##ałów
struktury
bag
kość
zgodzić
niekomp
nacisk
przechodzą
lim
zmarn
dostępnych
właściciela
79
say
strefa
wyświad
##wel
kazałem
toalet
afryki
1938
##ryn
producentów
hak
północna
##nent
brown
nieporozu
podko
podłącz
radości
bezprze
nakar
có
myślałaś
narodu
moty
piłka
otóż
casey
ule
fotograf
aparat
hitle
dyskusję
nukle
##dzmi
poc
medycznej
przedsiębiorców
znu
bzdura
budynki
niepełnosprawnych
mali
mądro
śmiet
wspaniałą
stanął
powyższe
arg
##duj
wyjaśnię
rzędu
zapoznać
konsult
zaoszczę
serwe
fish
##mentu
przyczyn
przesłanie
różnorod
##ciliśmy
##dziec
tereny
strój
jadal
deser
współpracować
narodowy
serdecznie
ochrania
niepew
opisu
pożyczyć
##asa
zmusić
mocniej
transfer
złożył
zastępca
idiotą
butów
##unkowo
buł
psów
orkie
##zeni
faktu
zbudować
drobne
śmiał
1960
przychodzić
lidze
strefie
namów
ocenie
fut
mą
##dliwe
balkon
kasa
przekrę
chat
federacji
zachowujesz
kamerę
nosisz
strzelił
##tywi
##prawę
##ciach
odbyła
sydney
zainteresowania
świade
doce
efekty
bron
spons
wolf
koleżan
##ond
zbudowany
rh
wiedz
rozbud
##gua
nóg
##rzeniu
##rich
##bieństwo
związki
żarty
biznesu
ludzkiego
monet
kroki
wpływa
gla
odpowiedniego
ulubione
wybieram
panienko
babciu
##jecie
nauczyciela
śpiewać
biskup
zasilanie
przynę
byłego
ciałem
uwzględnia
##para
##nionego
cather
zdefini
sol
herbatę
darmowy
##dzeni
jerzy
związków
wynikiem
należało
naleg
##ceu
lepszą
trene
wyślę
posiadał
##dzonym
martwisz
szeryfa
83
absu
certyfika
gwarancji
uniemożli
piekle
popełnił
nocą
zakładni
ćwier
kontakty
terenu
##hel
##ness
pozwalają
dick
przyjmuje
badaw
dorw
trybu
sebasti
pielęgniar
##tani
tańca
absolw
niemniej
pieniędzmi
sądziłam
garażu
##imy
##27
##mann
zwykłe
ścianę
93
otwieram
ery
masy
płaskim
przyjemności
straciłam
karierze
konkurencji
startu
ety
paki
partnerem
serialu
błęki
puste
pojawiają
kolesia
lutym
koz
##otera
próbowali
terminie
pą
komisję
squ
udzielenie
zbierz
platforma
tour
wynaję
finansowego
wygłu
##kes
platformy
sformuł
zrze
przerwać
stowarzyszenie
iron
planeta
przedo
znanych
australii
##habili
przybli
krzysztof
cień
ośmiu
##ujący
kupię
podejść
rozko
kształcie
uderzenie
zdrowy
ledwie
amerykańskich
sprawdzam
atmosfery
nieskończ
fr
poprawia
parano
uregul
##jga
pełnej
##gią
społeczeństwo
uderzyć
##lle
terape
dev
słyszycie
wiara
posłowie
zaginę
uprawnienia
dodatek
atlanty
umawia
jeli
##mił
mni
czarnego
rozpocznie
hm
zaloguj
ekranem
marcus
zamienić
przykładem
przybycie
czarnym
koka
boją
kierowcy
##adź
obszarów
pode
grunt
wste
stwierdził
przerzu
zastrzelić
normy
##jor
ekipa
oddzwonię
personel
1947
współpraca
golf
lodu
ema
przewie
pościel
zasadach
cap
##kała
nawiga
catherine
dba
wymu
obrę
bitwa
harol
dźwi
wrócą
wywie
chęcią
##zuje
błędu
magia
pierdolę
lock
##lismy
jezioro
cierpie
emma
toalety
oży
gorące
odgry
trwał
zaczekajcie
przywiąz
maleń
zatrzymał
zgadnę
zakładów
spóźnienie
zadebiutował
zasługi
telefonie
przestraszy
odkryw
andre
##kins
podsum
apte
united
podmioty
##wce
tutej
carol
chwa
publicznie
rachunki
próbowałeś
wszelki
700
rey
najwyżej
byl
suge
musiałaś
etap
wieloma
uczestniczył
niesprawie
##paty
##nięciem
laura
sposobów
numerem
dostępność
##ceniu
##żyłem
płyt
lekarstwa
finan
kurwy
traktować
##lnością
hans
utrzymanie
języki
wyższej
##łbym
##cus
dostępna
podsekret
naszy
##cena
bum
piotra
tole
klasyfikacji
wpadłem
skóra
powierzchnia
patrick
marshall
kończą
jakikolwiek
sztyw
1987
international
glen
wykonywać
zdarzy
uważał
wydarzenie
przyznaję
wynalaz
uchwy
najwyższego
ever
wolnym
metoda
konkursie
południa
straciła
won
zdarzenia
mona
opuść
drę
##nijmy
szlak
kategoria
##ick
substancji
##nifer
lea
troche
przeciwnym
wątpienia
sztabu
gospodarstwa
dę
nazywamy
stres
pamiąt
logowanie
##wacz
##sing
kurczaka
budowie
130
dziurę
uczestników
bierzemy
anne
inspektor
1981
##ymet
jordan
społecznego
##bc
light
niesamowicie
oddał
prywatnych
##oria
zakłada
pamiętajcie
tanich
kompatybi
rannych
górach
##cyz
ostrzeżenie
rządzi
większych
domek
prawdziwej
gps
had
socjal
dub
życzenia
ulep
towarów
kopalni
wynagrodze
przygotowany
zapobieg
bolało
typowy
nieist
carrie
wydru
stone
przyjaźń
komer
179
berlinie
zrobiło
pełnomoc
##żne
##żonej
południowa
what
napęd
##hl
pytałem
rozszerz
grey
##towane
mleka
spektak
płynie
aktywny
powa
wyjdziemy
##letni
uczył
centrala
najem
sprawozdania
robiliśmy
teatru
aplikacja
zasy
spodziewać
##szczone
myślenia
dziewczyno
##rence
keith
gniaz
parkingu
universi
zgłoś
dzielić
oskarżenia
deszczu
odbud
zaprosić
##cznikiem
musiały
kontakcie
zachodzie
##bus
przerwa
jeremy
mylę
formę
1948
indian
okrętu
znajdziecie
zębów
uważajcie
rosjan
zawa
używając
podjęcie
starą
1982
wojskowego
spotykać
mogliby
zobaczyłam
obronie
##ologiczne
frodo
##żoną
shar
stanisława
pisał
ral
##woje
zdecydować
szt
przejścia
oszuki
myślimy
obawy
klas
wpak
sugeruje
randy
wizyta
##iach
kenny
##tań
##stera
podsekretarz
dziury
schu
programem
przejął
##atorem
fel
wysłałem
księgi
##gania
przedsiębiorstw
wychodzisz
anth
poez
ate
starusz
1984
obserwat
off
##yton
tunel
stosunek
audio
kwart
zabrała
##canie
183
komentarze
rola
##ik
okazał
zwiększyć
plecami
spróbujmy
łańcuch
pierścionek
ziom
##ądz
fscy100
toe
zabawę
wyło
pańskim
pudełko
wykonuje
budape
burza
maki
##28
ludzkich
symu
piętra
##dźmy
ubranie
osłania
szkolenie
mikołaj
szmat
##żar
dono
##tacją
rezygna
wybaczy
wychowy
##tm
beach
limi
zwraca
podaje
niezu
płyn
desi
oskarżony
upadku
skór
okazać
paryż
podgląd
kai
liter
zrobiliście
##żer
podróżu
ulicach
fscx100
dotacji
testu
##logie
krąż
mikołaja
zarob
baseb
zajmujesz
##dery
okrętów
użytku
kardyn
przejażdż
##ema
##żnych
najni
wypowiedź
##niejszej
myślała
ciesz
oliver
wykre
booth
reakcji
oszczędności
fryzu
druku
camer
wykorzystania
klan
ślubie
##rzad
praktyki
przywyk
cin
grzechy
pomyśli
kanadyj
zależało
zaburzenia
##skami
potencjał
##zin
jutrze
prywatny
ślepy
młode
stołu
gardero
mły
amerykańskiej
samolub
księżniczka
pszcz
węgl
##bad
hitler
opowiem
gray
##sin
dupsko
##centa
##knął
jero
oszalałeś
##ement
rozumieć
przekazał
zabawić
draniu
1986
umierać
rządem
open
czterdzie
camp
macierzy
garnitur
podobnego
skończyłeś
bond
przeana
##łowa
azji
jach
bara
słabe
sprawdzi
papieru
pozwolenia
flash
bylo
zda
zby
konkre
meksykań
##bera
ukrywać
okoliczno
miles
wymienia
zaginął
czarnej
napeł
analny
algo
zoe
niemu
vale
##vor
kursu
##dzkiej
złośli
##bierzemy
patrol
##dzając
niemieckie
akcje
głupiego
zatrudnia
więźnia
stłu
wrócili
malcol
niemców
##dzonej
współpracu
poparcie
uznał
przemyśle
kancelarii
hart
##letów
##ggy
kiepski
##dago
delikatnie
mechanizm
osłony
ethan
pojazdu
rozmie
kiepsko
zastosowania
samotna
umierają
dostawy
wycieczki
##ges
##łamy
zawdzię
##wny
kilo
obrad
obudzić
ochronić
miłosier
wpła
stosowane
wymagane
medyczne
##yd
##pce
bam
puchar
bliz
przyrody
napisałem
imprezie
##dztwem
związana
rani
zjeżdż
kapsu
kores
portfel
owoce
niespodziankę
trop
lokalizacji
zgodzi
poinformować
funkcjonu
postępu
krzyczeć
młodą
##heim
gieł
wyzd
klini
satysfak
##mawiał
przebud
zajęła
oświe
ładunek
podlega
##lizmu
##fon
spał
defi
##ralny
christo
zakop
##telu
wychodź
przyci
gmina
dorosł
kolegów
istnienie
wieczor
wydawać
przyszliśmy
kadłu
poo
mać
110
miesiącach
hard
##ódl
jednozna
kilko
rzymie
szampana
gmin
ukryte
zostawiłeś
zostają
sprzedaje
prawosław
okolicach
kawałków
pułapka
korespon
murp
czwarty
zaczęłam
mamusia
lane
czerwonej
##stał
infrastru
sprawozdanie
meble
salo
śledzić
cez
zginiemy
nago
##niecie
krajowego
najwyższym
##ńczyków
##lenty
lind
rejestr
konwer
kryminali
powtarzać
wojskowy
dżen
paso
##wca
wiarygo
##chnąć
wysia
frankie
mianowi
oczekiwania
##ląt
prawnej
okaże
usłyszy
robiłam
##cjonalnie
ero
angl
opowiada
##vera
zabytków
davis
jem
kierownik
mianowicie
powiatu
##boli
##chester
narzu
caroline
pocałować
##bny
wydają
##soli
powiadom
przyzwoi
##iów
biblioteki
oczekuję
ambasa
religii
mówiliśmy
##thy
##bby
##gre
strażnik
zmia
statystyki
przedszko
kir
##lus
niżej
niezupełnie
przedstawienia
powszechnie
brzuch
mieszkani
bramy
##pan
sprawami
odwrócić
bezprzewo
więzi
piszę
windy
wstań
obsa
słyszeliśmy
##skop
klin
odwagę
kimkolwiek
dawnych
politykę
zrozumiałam
kontynuuj
piekie
sprawozdaw
weterynar
dżentel
przytrafi
kątem
siódm
wygło
connor
długą
kluczowe
taras
dowcip
obrzyd
kroku
ye
wykorzystanie
##mini
##puszcza
##techni
zawart
kieli
##sować
sprawdza
wyposażone
przychod
pedago
licha
inwestycje
spróbujemy
service
obsza
sophie
kupa
pilnować
##wska
##żuter
bazę
lak
owen
wróż
kosza
geo
pomogą
kupę
wlas
biżuter
kryształ
##niętych
wypa
##żąd
chrześcijan
ann
handel
medycyny
uwadze
zawody
staramy
zamykam
##towania
puścić
pęk
przepięk
okład
biegiem
funkcjonal
złamać
aktualności
samolocie
tropi
odpowiadać
##dysku
hat
pogra
kluczem
prezenty
pokrę
katalog
jedi
kolekcji
glina
ie
dopil
##cyjnymi
miałaby
nuklear
1972
young
##rię
czarnych
neut
zbierać
##house
rozwie
odpowiednich
resort
##ęt
podkreśl
odkryć
tomasz
urocze
używany
pości
mikrofal
##stom
zajmować
castle
rozli
82
fantastycznie
ryn
nieprzytom
zwrócił
istnieć
potrzebujecie
okłamy
blondy
dusze
dżung
częstotliwości
kompeten
europe
hos
dotknąć
seminarium
wszechświata
niekonie
1973
zniszczone
mario
zombie
przeką
rękami
bałem
własnością
##lake
eska
przełącz
pasują
1970
www
podaw
##ciami
treningu
back
nauczycielem
wyży
dłonie
korpusu
cias
onz
gnoj
następnych
majątek
odwiedzi
##nują
szl
argenty
usytu
producenta
odwal
londyn
uruch
harris
dopasowanie
ff
zawierają
##kiewicz
niebieskie
1983
okupa
##cane
osobistego
ubezpieczeni
jess
ulice
##miotu
kształcenia
##elem
pobu
powol
udał
uchwały
odwróci
prawdopodobne
lis
kła
złej
jerozo
zapasy
zai
podniesie
zamel
ciężarówki
prowincji
poświęcić
torby
manhat
wyobrażam
pozytywnie
przeciwnika
pai
140
córe
uznać
powiedzia
ryzykow
naukowe
należała
przeniesiony
dociera
wróciłam
gorz
sufi
opublik
postaraj
##owcem
kamienie
bibliotek
senatorów
wycieczkę
liber
zazdrosny
uchy
##towana
##lki
gruby
wybran
lubel
gówni
martwe
##owienie
popularne
zaszło
siat
spotykamy
treść
świetnym
spadek
angela
ubezpieczenie
##aniny
cięcie
intelektu
jedźmy
wpuści
czyta
##ałach
river
publikacji
##tain
przeszło
racje
wymyślić
lew
fałszywe
berlin
zabieg
smaku
land
zaprosił
próbowaliśmy
##right
bloku
tchórz
##żbie
stoję
przygotujcie
granic
stosuje
humoru
mistrzostwa
booking
udzieli
kobietami
diabeł
miejscowość
##pun
samotnie
płacę
##loga
zabawki
kandydatów
wspie
##ądy
##ssi
##szku
agenci
microsoft
##mmer
dzieciaków
przegran
##bon
chip
sztukę
sprzedał
internetowych
zawodowych
margaret
zaczynać
sygnału
spring
najniż
ćwierć
prin
##tuł
##tarz
musz
spokojny
##gara
trzymają
wali
językiem
pieprzy
uchodź
gotowości
posterunek
opcje
wybierzesz
bieżąco
remont
ubezpieczeń
byłbyś
zastanów
##jenia
festiwal
pust
współloka
wystąpienia
wyrazami
wash
ptaków
##owskim
##pliwie
internetowe
##blu
spro
ogłosi
wyrazić
infrastruktu
biurku
##termin
rundzie
rozwoj
odchodzę
studiował
emocji
##cat
pielg
końców
katarzy
właściwym
arch
ubi
gus
silnika
podstawowa
świetną
algoryt
##mijcie
##ters
śru
##onko
##oween
##stur
##witz
obiektyw
okolicznościach
placówki
modlitwy
pokonał
tajemnice
szkolni
skurwiel
cierpienia
##kieru
##cci
zadaj
socjali
wspaniałym
rozporządzenie
miss
występował
##kowskiego
tworzenie
bramę
##owsze
bibl
ruszajmy
##stans
leni
wzywa
##lesa
walker
sprawdźmy
narodów
uszczęśli
poważnego
normalny
spust
osobowości
nosił
kopal
polityczne
podstęp
odbyło
rolników
178
dziwką
hura
##iałeś
nieprzyjem
##orządze
usd
teorię
##fej
księga
szkoleni
przestaniesz
utrzymania
elżbie
warunk
1956
małżeństwem
zniszczony
urazy
bingo
##rison
##skaj
dochodzenie
ellen
adwokat
##rodzy
pogodzić
paliw
elektryczny
dziewczynką
poszłam
legislacyjne
kopię
spędziłem
wago
##łatę
wujka
twierdzisz
cesarza
zajęcie
##szach
neu
joy
poczta
uczniowie
##lanie
collin
manew
artykuły
znosi
glu
stoisz
zamówi
pocisk
instynkt
zasługujesz
dziwko
odsunąć
wkra
wyroku
potrafił
regularnie
wskakuj
wykryw
grob
ambu
policjantów
śnieg
##olet
##uu
persone
##ac
1976
poradzi
niesamowita
zespołów
przywioz
otworzył
diece
zaty
największa
myśleli
chęć
fajna
beat
ekipy
klatce
realizowane
hop
propozycje
podejrzanych
hele
cher
##lka
kompetencji
przepisu
chro
pic
zadecy
żywego
##czące
przyjęła
adi
wykonał
wchodzisz
pochowany
przedstawił
##kera
obowiązuje
rewolucji
##zard
wyprac
dzier
przypadki
elementem
master
1937
prześ
wielkość
##ającymi
klatki
większym
nielegalne
domyślam
debiut
##ica
wynajem
porusza
##dry
zawodach
wno
ture
intera
wyślemy
wieczora
telep
lód
zasnąć
such
##wencja
czerwie
##owicach
ważnych
poder
jutrzej
kieł
##jej
kwestię
naczel
pają
wierze
towarzyszy
##ware
zgodne
mocne
wendy
esko
specja
ricky
##wiając
przeciągu
środowisku
##jenie
holender
zanied
każę
franka
przepraszamy
skalę
bali
##czekamy
podwójne
burmistrza
przeraża
morskiej
duchem
ping
nożem
trzeź
podpa
##lasz
ll
##tką
sukcesu
wskazówki
skończymy
eksploata
##rację
reakcja
zwrotu
łot
##kałem
bułgar
pierwsi
znalazły
snaj
dyna
celowo
##non
moce
zamordowany
światu
pozwolą
potwora
miastach
młodszy
strażników
chciałaby
ava
aleksand
informacyjno
obiecał
pierwotnie
wypoczyn
plec
widz
zniszczył
hoj
##rome
zapamiętaj
zginiesz
lipiec
obiecałeś
poczę
porozmawiaj
powtarza
targ
schodzi
akcję
dobę
militar
podróże
##zowany
nazi
##słać
##atorów
niespodzie
posiłek
clau
czarodziej
fort
1950
reporter
##55
##ders
zwykłym
spadamy
wymienić
kukury
rodu
galeria
##jąłeś
wes
harm
hydrau
równocześnie
toast
stałem
hali
sprawdźcie
##stawić
wieża
##suj
uzdrowi
diego
##pular
zrozumienia
przyjechała
htt
ustawić
mające
warszawskiego
chand
roba
aktywność
harcer
czerwona
##ciągać
wzmacnia
1979
1978
il
zastąpić
##ceniem
zabierzemy
kumpla
zwany
##wiła
piękno
##krew
zrezygnować
trybunał
prochy
konfigu
rosyjski
przeważnie
potwor
potrakt
##bią
masę
dostałaś
doc
przym
salę
##ancie
majątku
drodzy
##vina
rozwiązaniem
##wne
##anna
zostańcie
powstań
naszyj
konflikt
ubieg
zawód
złaź
grubo
ruszajcie
ciekawy
kwadrat
ogniem
if
boż
zysku
potwierdzenie
gh
##fen
wybrzeża
tacie
kh
sprzeciwu
blan
podsłuch
licznych
szkody
m2
lad
mere
##vas
miłos
lecę
mine
halloween
##zen
uprawnień
śledzi
##inie
zaży
paliwo
naród
dziadka
var
niekoniecznie
wyciągnij
martwych
zostajesz
##ciło
druk
zdaw
##zienie
zapominaj
włochy
##wieniem
bożej
zapewnienie
wzru
rozmawiasz
##ild
facebook
produkcję
znaczeniu
##dziera
opowiedział
zobaczą
państwowych
wprowadzono
wdraż
lini
ciuchy
##manem
drużyn
bauer
##ujące
##rodzenie
zapraszamy
##ht
krawędzi
##łak
niewoli
spotkałam
wyposażony
lyn
##liż
##rywasz
akcent
widząc
pomogła
mik
##owisko
rozpatrzenia
well
niecie
dno
wprowadza
zastrzelił
laty
pocału
sok
oficera
spytaj
170
##grafii
##uch
##kio
dzwoniłem
zagrał
utworzyć
pouf
uniwers
arthur
marzeń
ramiona
trudny
coro
ustach
##dzący
odpowiednim
jennifer
##wieni
litości
prawdopo
przyrodni
stark
1936
określonego
##vers
senat
odwró
królewskiej
odebrał
odpadów
##29
wysu
imiona
brachu
przesłuchania
poradzimy
czcionki
##bet
żegl
mach
wypuścić
przywrócić
patrzył
uciekajcie
dziura
##stina
pucharu
ostre
bish
japon
przeżyje
islam
kani
czuła
rasy
americ
artystów
alibi
odpowiadając
##pał
jasny
chinach
1921
dwójka
odchodź
przyjeżdża
zaniepo
zabójcą
zgłosił
przenosi
niezwykłe
elimina
##miała
##cznością
faktem
oświaty
##34
##asie
##aliście
teddy
ochoty
rozpoczęto
rebec
wyszedłem
trudniej
zyg
fach
east
halu
mene
afryka
##sor
sper
radzisz
ataki
zrobiłbym
tablica
davida
##wskiej
1974
analizę
slu
rozporządze
gl
róbcie
##df
przyjęta
wewnętrzne
bell
cyklu
##uri
sesji
ludzki
odtwarza
dramat
wysył
rządów
##inię
rum
##zur
manie
ramie
virgi
ogólne
zbę
1930
widzia
real
okropny
##dziem
aud
afryce
hannah
##owskich
podobają
##tuzja
depozy
##lacją
wszechświat
uś
kwatery
brzy
sg
ogromną
podsłu
bije
chiny
frontu
taksówkę
plikiem
przyłap
royal
uzgodni
dziwna
patron
wraith
autenty
martwego
stację
cenie
zarządzanie
zlecenie
pracownika
amerykańskie
poprawy
wytrzyma
jamesa
dostępności
isabel
podobnych
aucie
##onami
połączone
pokazują
##jami
##toli
odwołać
proch
mru
stolik
czegokolwiek
mate
zdoła
rozłą
edycji
populacji
1969
trudna
dodatku
##ódł
rozkazu
poszukiwaniu
fru
małż
podnosi
wydaniem
zimna
zagwarant
remon
##biego
homoseksu
##ice
oder
portugal
zmody
##trw
phoebe
procedura
##czamy
makija
wykorzystywane
przespać
międzynarodowego
williams
wyjaśnienie
grób
rehabili
amerykańskiego
style
##wieniu
uczęszcz
koman
scenariu
opisać
poprzedniego
czują
##języ
##śne
##bisku
center
żołnierzem
##ózł
blair
raym
mechanizmu
jonath
ponoć
ośrodka
wymagają
bow
rzut
##lay
line
1928
##est
iraku
różnice
aaron
grubas
bek
psem
tabletki
indu
logan
dri
##rpu
najd
otwarta
stew
szczegółowe
jeżd
teatr
joseph
oczyścić
obrona
przedsiębiorstwo
tunelu
##stępie
historyj
dalszych
posiłki
wystraszy
gabinetu
tlen
medali
połączeń
uprawiać
peters
##sień
marcin
dotycząca
angielskim
wesele
rosyjskiej
pon
rezerwacja
zwykła
zarzutów
odejdę
wydajesz
dotykać
lance
turystów
właź
##phi
ogłasz
##ppy
##own
farmaceu
jebać
##lls
dildo
conne
scena
ułoży
imponujące
białej
samorzą
ziemie
albert
wygrałem
podłogę
komandor
##żera
ogłosił
##talent
##kowałem
alphah
##jedno
aktualne
kapitał
pomyśle
lotniczy
zrelak
ołtar
grub
miałbyś
włoszech
alli
shane
rośliny
przeznaczenia
oddzwo
mundur
jeździ
ary
##nką
pojedziesz
megan
zagła
uszcze
tamtą
##owszechni
wstąpił
wiktor
seat
dalszą
mielibyśmy
koloru
niezrę
aven
praktyce
strażnicy
obszarach
barney
wsiad
inspektora
parą
powiadomić
zaple
##step
organizacje
wychowa
##urne
wstrząs
dbam
rozlu
granicach
tytułem
zgromadzenia
potrą
evan
podstawą
doli
niania
##ance
chodzę
omawi
wnętrza
##ita
upoko
obrazów
urlop
##raniu
miłej
##64
##oney
austrii
upły
cukru
kodu
kursy
wieków
##brania
przejdziemy
dzisiejszym
odnowi
złapał
przeryw
clay
kryj
##rzona
march
prawdziwych
dowiedzą
177
zniknąć
nieś
glin
##dziesię
zawodników
kale
puls
ogłoszenie
poszczególne
rep
##fikowany
zarazem
fri
hei
uczynił
kwestion
wpisz
wygodnie
pragniesz
zmysł
nocleg
sid
xvii
gminie
córce
noszą
zasuger
##niałaś
wyśmieni
niskie
willia
arcybisku
odmówić
trą
młodym
wilko
quinn
nicho
funkcjonariuszy
postąpi
##owat
legenda
łyż
oceanu
niewielu
artykułów
zrozumiała
obszary
zaby
rebelian
wspominał
prośbą
utalent
opór
plaża
roberta
artylerii
płyną
mordę
pió
potężny
kompromi
##sje
mickey
##zujące
potwierdza
wywoła
ofert
##gers
##ślił
cameron
kopie
traf
rosjanie
##tno
minie
deleg
wypełnić
ochroną
##loo
zmień
##fla
zwycięzca
rozwali
oskarż
oddziale
jednoli
fale
##wiercie
wolni
##rzała
prawdopodo
dylan
roszczeń
chow
##gana
piani
adop
swi
starsze
wystart
przywilej
przegry
natalie
fotografii
pocałunek
kwater
przeszcze
##nicę
przewodnik
zaakceptować
##sterdam
##mir
towaru
##wido
jill
1949
##niłaś
bliski
zajebiście
pogrą
##wna
najmłod
przeg
obrzydliwe
wty
sukienkę
##iały
ciekaw
barbara
##czyka
powstało
epidem
1954
trwania
jani
przemawia
bieli
obecnych
otwierać
wracajmy
meredith
widocznie
obejmu
riley
##tegr
zdy
prasy
zabrania
studiach
wykra
ośmie
bieda
działu
##niczy
postępy
środkowej
cyber
automat
autorem
ax
zaim
widoku
śró
pomnik
pobo
chci
użycie
down
profesjonali
##ken
ec
noży
stawi
jarosła
stacjon
zapomni
##iałam
##nold
świętej
reklamy
człowiekowi
policją
opuszcza
karabi
##znał
pocałuj
##lei
potrzebowałem
balu
wojennej
mej
zet
salon
zlikwid
##lnymi
##czący
miewa
doprowadzi
zbrojnych
key
gościu
znoszę
cudzoziem
##zacją
gubernator
przyjaciółki
rozwal
zabójstw
dany
ludowej
znajdźcie
śpiew
hem
julian
azj
zawsty
##hn
wrz
usługowy
technik
drużynę
najpo
podatek
upoważnienia
zgu
spróbuje
spalić
tempo
mistrzostwo
telewiz
złu
blog
##ei
wydany
ei
starze
zastanowić
odcze
księdze
mieszkają
zasilania
mazowie
chodził
meg
sektorze
##wiecie
technicznych
niemow
rzuca
wezwij
ian
barb
okręty
głęboki
opieką
laser
ciekawa
firmą
nieustan
rodzinny
tlenu
najnowsze
konstan
datę
##xy
siedź
hunt
źli
kąpieli
odwrót
koszyka
tworząc
anthony
nat
wyróżnia
szwajcarii
domowej
skak
kent
zadzwoniła
dyplomaty
prasa
powiedzą
kamienia
przerażające
##mował
bed
naturalny
scully
pokarm
92
trzecią
zar
tworzyć
randki
odpal
zmuszony
wydajność
lecą
stoją
manipu
amsterdam
kolejce
palesty
stań
##ror
##dak
nienawidzisz
dzięk
wracają
apart
##boga
grają
spieprz
##żach
spotkało
wyłaź
komplek
rokiem
##stali
##ńsko
##różnic
zespoły
obrą
ucznia
kwiatów
obejmują
terminu
teal
ocenia
zmieniłeś
##ałość
dziwki
##czen
zadaw
wstrzymać
zniknie
przepowie
przegrał
przeciąg
matu
##suję
niewielkie
lubił
przeku
##ństw
skre
##etki
mara
##dowę
marion
odpowiednią
dadzą
tzn
niebi
life
tatusia
power
wypali
zapłacisz
wspó
miejskiej
oboję
utraty
fali
karmi
zauważyłeś
##stone
podał
sent
ścieżki
naduży
##gosłu
nieśmiertel
izraela
whoa
niewinnych
solo
ik
niedorzeczne
zostawiłam
zawodów
spowoduje
kosmetyków
nieprzyja
snów
stefan
pomysłów
ekspertów
wojennych
głą
odkrył
##tnia
houston
doliny
odro
wystawy
stracisz
##yment
##oku
zabud
żartuje
zniszczenie
zamknijcie
traktuje
##rzony
wyjątkowa
stosunki
pear
galerii
immuni
bailey
departamencie
##thor
karetkę
1977
drań
##biej
korei
rozpatryw
domku
lincoln
pobra
wschodnim
żywych
##spodar
plecach
tward
nogach
wydostanie
żywcem
podjęcia
ukrainy
furgo
mecena
włożyć
wspomnień
przejdźmy
fotografi
tamtych
biblii
kwar
obrzydli
##żyli
kręgosłu
jazz
trosze
wyrzuć
brygady
niebezpieczna
dorośli
zwiększenia
stod
ewakua
dobrowo
stawić
##ienta
zlokalizować
##rzego
sant
nadzór
skończone
obraż
##biorę
powiązań
dowodzenia
kupy
rzeczami
serwera
fazie
kompanii
wyrwać
##głos
amerykanów
wen
skurwielu
fanem
##rett
dawi
zintegr
papieża
najlepsi
trasę
lewis
odnoszą
posiadłości
##burga
pozd
chodzisz
##twych
##dc
układanki
ciasteczka
zakupu
telewizję
jacob
ulic
duchu
technologie
gas
trasie
zakupi
znajomości
instrument
stworze
dzisiejszej
bohaterów
krawat
obrębie
funkcjonuje
zaprzyja
potrzebę
raju
diament
kwalifikacja
hory
ashley
lada
honoru
rai
emisji
kontrow
cour
elliot
kurator
##tney
korzystanie
żelazko
módl
##lene
zróżnic
rozwija
sąsiadów
##schwitz
odegra
stosunkowo
położona
aresztowania
gabriel
maskę
##test
wspólno
podziału
draż
obciąg
namal
odpowiedniej
##35
szczenia
obrotu
teksty
##tażu
piszą
stroną
abraham
##paliśmy
##pos
##latuje
wystąpić
kuchenka
budownictwa
hipote
clo
##xon
otworzę
##pewno
##dłem
holo
instytucje
##cey
batalion
school
##gy
osobności
sho
danym
lotnictwa
##dyk
edi
auschwitz
wrocławiu
złamał
stopniowo
przyjaz
##rują
##logiem
wątroby
potworem
napewno
wyci
##bran
blake
ziar
wynagro
wsko
tortu
zjazd
diabli
##lno
grant
jacyś
##pieniu
bzy
ustalenia
notatki
przebu
odnosząc
zapisać
paris
klientem
policjanta
kajd
##mena
zdenerwowany
##gali
czyj
rozciąg
afgani
nath
skutków
tas
byłyby
straj
taaa
biod
szum
nędz
komfort
##nną
miran
transakcji
iry
mason
way
łączności
zdal
zdobyła
bieliz
##box
usią
##bron
bydgoszczy
little
moskwie
sądem
kciu
perfek
przedstawię
nazwisk
poczułem
ogrodzie
##esper
odzwiercie
ukar
pieprzona
##kinie
przejści
wyszukiwanie
samolotem
wypuszcz
koali
dochodów
śpiewa
przypis
odpuści
##ladel
wynagrodzeń
university
urodzenia
##aniom
słowem
zachodnim
odnieść
glor
czynsz
trwać
dziewczynkę
##eman
miliardów
stracę
zamknął
zmartwych
zestrze
##ciała
palić
stwar
music
kazała
pięknych
nadzieją
sale
noce
artysta
zainfek
organizm
##pty
połam
udawaj
1922
zgłasza
propor
##prezy
wilhel
philip
mastur
pryszni
dzieciństwa
pomożemy
delfin
przebywał
adrian
##adą
biskupa
##lda
dama
namierzy
##onomii
pp
rober
ekstrem
rzekł
spałem
grzbie
przemoc
złość
pm
zaklęcie
objawia
żela
personelu
mmm
dzwonisz
punktem
jesz
##czkiem
przemyśleć
zasoby
grzesz
dogad
delega
surow
samorządów
najw
zranić
ustro
sprawdzimy
zmieniłem
czerwonym
##polis
##liliśmy
dywan
pamiętacie
walt
ato
##gine
ford
dostrzeg
nawo
arogan
zmartwychw
dj
trzema
ein
ante
proponuje
wysłany
składniki
dokumentacji
wyobrażasz
łzy
organizację
najgorszy
##czynienia
##biony
okup
poniższych
whisky
obudzi
1967
##gel
gał
##isa
##miemy
wyczuwam
##dora
travis
postanowiłem
komor
dołączył
ludzka
niesie
zgubiłem
niemi
live
vane
karol
doskonała
1957
skontaktuj
zabierzesz
niezawo
wrót
##niało
osiągnął
##lują
używał
przyprowadź
zwracał
liv
wywołać
daisy
pułkownika
doktorku
pasoży
wesp
obecne
centów
81
kuba
##gowie
ręku
cyr
słabość
spadła
##onął
pokolenia
##szczyć
sportowe
##ords
szedł
samu
##45
flu
czytam
mniejsza
posterunku
1924
1917
akces
polowanie
przeczni
odświe
tamto
serwisu
##ess
przejrzy
1934
dwuna
1964
taśmy
zemsta
ruty
zakochany
zrównowa
zasadę
lokalne
głosowało
bennet
mających
kłamstw
aid
##yer
##gni
wróciłaś
bang
czynność
naukowcy
##ących
trzydzieści
##skiemu
##roe
pieszo
schowaj
wytrzymać
sytuacjach
drogowego
prawnego
kolonii
tracimy
czytasz
utrzymuje
##iłeś
metalu
przygnę
kogokolwiek
prezesem
poczekajcie
portal
sof
wskazany
poczekam
promocji
##tive
rome
chrzest
##ield
wspierać
##enta
dżungli
moz
święte
słowami
winda
pieczę
dodaw
upie
ósm
przyzwyczaj
bież
krzesło
zareagować
##oka
1933
synowi
zostawiaj
podobna
zamieszki
centralnego
lubiłem
północny
przeniesienie
##cation
wysokich
azja
zamówić
spotkajmy
zadbać
audrey
żało
branso
radyka
wewnętrznego
murphy
biedna
statkiem
staży
napisała
kierownikiem
##much
cząste
taak
ogon
##data
team
1971
##telny
mostek
paty
czwartej
##żnej
spadoch
intu
byłabym
stawki
samodzielnie
słody
wygrałeś
stypendium
zadawać
odpuścić
despera
linda
mieszać
długim
politycznej
like
polep
czerwonego
rezyden
odsł
##mierze
nicole
przybyli
zdradził
##mes
wspólnoty
wszelką
wpuść
komen
##pierdol
zidentyfikować
zmarłych
wsia
władza
załatwił
allison
bałam
cudowna
naciśnij
instant
##szyło
polskę
nastąpił
ewentualnie
##gory
fac
ama
autobusu
##dację
##łowi
zasz
bern
policjantem
##kse
poprzedniej
siedziba
trójka
villa
brzeg
wizytów
agentka
sektor
##uty
zabito
różnymi
sano
link
dałaś
stref
lustro
##zię
jakbyśmy
harmo
szczęśliwego
wodnej
bory
sądów
ludzką
wasi
##laty
tau
anny
zwiększa
gabinecie
końcem
rysz
niski
cad
##zł
##sche
petera
żarcie
technika
wyższy
psi
baga
zbrodnia
##inger
project
palm
pije
leonard
waty
##tte
tex
geniuszem
zabezpieczyć
popsu
1935
##czanie
gazecie
raporcie
litery
granica
noszę
seattle
trwają
przedstawiamy
times
dotrzemy
cmentarz
trenerze
prowo
sti
##88
wyrazy
przewodniczącym
indywidualnych
ire
sile
##rodą
przyjechałeś
wysokim
zrobicie
stephen
spłu
##kus
finansowej
zwolnienia
płuca
wygn
jakkolwiek
kay
znajomo
kondy
neil
knaj
złote
ząb
pijesz
##czyni
interfej
nauczyłeś
hut
nina
pokona
podwór
zebranie
maszynę
zadowolona
##lacz
troszeczkę
wstrę
minimum
900
różnego
interesach
wysłuchaj
piję
carla
koszm
stry
demony
widokiem
sukienka
reag
porówny
wybuchnie
fragmenty
##ziono
instrukcje
zostawisz
bezwzglę
zapytał
ts
zabezpieczenie
##vens
burke
kolorze
przesk
sprawka
znaków
dorwać
todd
##zjach
uwierzył
entuzja
dea
karl
dostaję
pw
dostajesz
padnij
kb
błogosławi
konkretnie
redu
fü
wprowadź
przestępstw
kierował
zakończyła
rodzajów
rozwód
wiceprezy
american
programami
##wol
psie
baweł
##65
sprzy
ade
lt
irlan
psia
konsultacji
##37
kasz
##akami
##czków
doktorem
egzempl
##nistów
wkurza
sue
##rowni
miałoby
##ggs
id
nazw
niewąt
##robić
zgaduję
pozdr
świadczy
hami
żydzi
drapie
nienawiści
jac
prędkością
spierdalaj
robiłaś
##racje
naprawy
optymi
ctu
wizu
national
wiatru
zakładników
smutna
ludzkość
##czyłaś
scar
trupem
sztur
społeczność
przedmioty
niegdy
szafa
twarze
sod
wstąpi
winni
nazwiskiem
dopuści
przypi
chciały
mianowany
##vat
współrzędne
usłyszał
tajemnic
psychologi
sałat
życz
przyjrzeć
prądu
otrzymuje
rzeka
##stabi
wzniesi
starał
korzyść
rosyjskiego
##dzkim
wybrałem
under
podda
szczera
gory
dozwo
##48
wojsku
amanda
##rowe
nin
autora
##stero
kradzieży
wejdziesz
wojskowe
wymiana
kilogra
##lerem
##liwie
kochałam
przełom
##cial
odpły
obliczu
podporząd
kontaktów
pior
ulot
kory
hd
ruth
zamyka
unikać
katastrofa
wade
siak
gapi
utrudnia
indii
##ings
reprezentuje
niemieckim
czad
hugh
zamachu
kontaktowe
koszulę
brooke
paszport
wli
##gują
obi
nagł
dziennego
jerzego
wyli
szczęśliwe
przewidzieć
##dzoną
350
stwór
##kane
terenów
zamarz
masak
1965
oleju
meteo
zalicz
zgadzasz
wybrałeś
sugest
mądrzej
##trzas
szczeci
wzięło
##fra
1929
lewa
mord
crow
##ult
##chł
śmiać
przyle
rozgrze
nerwy
##ownych
dojazd
znajomy
władcy
dożywo
numerów
skło
wdzięczna
oparte
żyli
młodej
cierpliwości
różnicę
trip
##aniec
stresu
group
czujniki
budzik
esp
cierpienie
##ffi
##wczym
ocenę
kanału
##każ
zabytk
wspomag
zapisz
szes
bonnie
przygotowane
amunicji
dajmy
uderzenia
zamieszany
osobami
skru
zdoł
relak
decyduje
175
pozysk
inspektorze
##niaka
plak
księdza
pomyślę
tracy
kolonia
liczbie
indyj
##lał
reżyseria
wspólny
kłamcą
melod
europejska
południowy
zdarzają
email
zaro
koty
centymet
##rzyst
pozytywne
zabawna
##aniach
interesie
wampiry
karnego
zadb
zadziałało
nabra
charyt
stoimy
reform
wkła
monte
##syła
##nton
##polu
zdrowa
literatury
delta
ewangeli
kancle
sprzedawać
wyjeżdżam
##kutek
rejestracji
yang
##666
nieto
antonio
wallace
dostali
##nnie
tramwaj
projek
zagrożeniem
używamy
gust
kląt
dokumentu
kowal
tajemnicę
wskutek
spó
mowi
##anne
##godzi
skończona
kończę
użytkowania
##hua
##skryp
pomagasz
fik
zwariowałeś
naszemu
obywatele
skraj
oznaczać
dźg
zabiłam
##spania
słowy
autorstwa
##żna
drukar
nieli
##mic
rezon
charakteru
##anią
porozumienie
przygoda
żałosne
wierzymy
zatytuł
głosem
echo
##dn
##stanu
pozwoliła
nudne
edwar
sugeruję
taśmę
non
szkie
fanów
presti
konstytucyjnego
kno
##dniejsze
dennis
klubów
pozostała
ćwiczeń
##kano
zdem
saman
##lit
cich
spencer
napięcie
skutku
##lah
ment
##tube
kontynen
tort
wyrzą
##ślizg
1914
##zywał
przyjmuję
##bierać
przedmiotów
tess
hok
uło
fortepi
wynosiła
kreatyw
##logiczne
najgorszym
wysłuchać
naukowy
rozg
położone
zdesper
jadł
wieczność
szaleństwa
dwana
##fet
rządzą
korepety
strzelał
serc
abyście
waszyngtonie
##wiło
1966
##ffin
dokona
zaoferować
smy
##kul
##lim
wykończ
ciężkiej
opisy
poznania
marsz
odszu
wzboga
utworzy
kulę
sterowniki
wnętrze
pracowałam
łaski
równi
1958
włoski
kilkoma
siedzimy
##xie
pomagają
mierze
dzisiejsze
zada
procesów
bena
finale
wojną
gabi
filmach
wynoszą
powiad
skutecznie
##czkach
motelu
tomo
91
andrze
świętych
połączeniu
##kując
migu
homer
braćmi
##trzymuję
handlowych
##walne
zabrałem
dinoza
ree
szeroki
nienawiść
pomagam
oc
powieść
starałem
docel
wprowadził
utworów
dziesięcio
madame
mega
niedziela
mir
obserwacji
ulubiona
idziecie
bawisz
dołu
przypadkowo
zaatakować
dziewczęta
uczciw
multi
umówić
pirami
seksualne
prawą
pogrzebie
zabrałeś
pap
ful
hazard
zbytnio
generalny
odmówił
terenach
przedmie
biało
dwójkę
dog
##lasy
kupiłam
snow
zobaczycie
podchodzi
koncie
sumienia
aleksandra
ciążę
najwido
biel
dodz
blok
dzisiejszych
pozwoliłem
walenty
towarzystwie
wyższych
mandat
stanley
opowiadał
napole
leżeć
młodzień
ograniczenie
oficerem
ep
##kówki
zignor
skończyły
kody
schem
see
mocą
fire
losu
hello
wspólnej
spostrze
nadmier
otru
mania
hindu
szukając
wale
##łku
wygodne
gdańsku
spróbujesz
ooh
ministrem
wall
ustawienia
kanapie
##amia
maksymalnie
kompon
kompi
obserwuje
kather
3000
traw
sytuacją
najwidoczniej
właścicieli
##zujący
ogłoszenia
ministrowi
przypomnę
śniegu
gangster
ciśnienia
zacząłeś
fryzje
wicepreze
impu
eksplod
smart
fc
##38
przyś
najpopular
1952
klucza
adap
wzrosła
niecał
krzyk
oferują
3d
sammy
państwowe
handlowe
turystycznych
realizacja
##bridge
modele
marco
guz
uchwał
halucyna
##aro
konserw
harmono
rio
##tując
chwała
##ence
##bioty
planowane
fala
niechę
szanowna
naukowców
upamię
kolejowej
wolałabym
nab
seth
bokser
##ciął
##ctw
jakże
narodowe
vie
znajdował
wstawać
##tham
specjalnej
kariera
skały
najdroż
skurwysynu
tokio
wojownik
##czeb
podstawowym
##ownia
##ycha
biega
##cania
##owemu
troje
kochała
pranie
##rid
girl
plam
nowojor
najwspania
specjalna
buffy
zacie
zatrzymy
pobierania
tłumaczyć
drobia
forsa
wejściu
##rysk
beau
##rodku
wybierać
1927
uznania
ponosi
instytucie
tenis
##dowych
wifi
orle
wyższego
filozofii
jessica
angaż
łatwy
snajper
aw
porwał
niezłą
utratę
apol
zjemy
lasy
argument
pisem
rudy
gatunki
wspaniałego
naturalnych
przyjadę
gliniarz
sztuczka
polegać
wymagań
drinki
ostrzegam
bestia
##cisków
przedstawione
korytarza
papierosa
rakiety
ciszej
nieczy
najwspanial
lake
wpadnę
niesprawiedliwe
leku
płytę
lubimy
##wające
odziedzi
zaspoko
##ciłaś
##mieć
1955
trium
bzdur
spotkam
zaproponował
transfor
określenia
##ian
barce
smutny
potrzebowali
przytrzym
zostaję
domowych
szwecji
noś
pełnego
dumni
inst
dzieł
progi
dyskusja
cykl
kadry
szantaż
167
przesłuchi
przejmuje
poznałeś
##eria
odczyt
wypoczy
1963
zapu
grobu
albumu
polecenie
grecji
banki
szczury
##snąć
wybranych
125
zmienisz
##serw
poślubić
sucho
sześcio
##cken
wos
cyfry
rosja
dwór
załatwimy
rozmowie
motywa
dąb
najbliższych
zapomnie
##onii
sekcja
polecenia
jakichkolwiek
akumu
##owiska
rzetel
dojrzał
##nicą
posą
złapali
uroczystości
racjonal
lauren
##the
powiedziane
rolnych
międzynarodowym
zarezerwuj
##sują
ściągnąć
powołany
przejmować
##bury
dwanaście
doświadczeń
##cając
##ślijcie
bibliotece
salonie
zostawili
polacy
zobowiązania
##ądzie
panienki
270
wyszukiwania
geograficzna
112
pannę
##ius
zaleg
rene
napal
april
wkurzy
night
depres
zimne
spory
prosisz
##bre
oryginalny
rozbił
ooo
babi
afrykań
typowe
niedostęp
osobistych
wyzdrowie
naład
przedaw
korytarzu
##komu
judy
termo
przywódcy
wyrabia
decyzją
międzynarodowy
eskor
##lic
korze
##szewi
pójdą
poprosiłem
katherine
rozkazów
schodach
##ktaj
mysz
podatków
hai
##szania
kroków
##trol
dziwi
łow
kontynent
pobud
morska
organu
głośniej
wybrzeżu
uwielb
małgorz
uratowałeś
sejmie
graham
gwarant
pysk
odset
zabiłaś
kontroluje
uzysku
karabin
rzeką
urocza
wykro
spię
przełomie
zdecydowałem
poczucia
aspi
zbignie
północnym
problemami
zastanawiałam
synowie
dyrektywy
szkła
przeznaczony
przywitać
zainstalowany
zapewni
1925
##ołów
zawodu
nowości
##nięć
nadgar
turcji
partnerów
nowoczesne
zachowuj
ukończ
pomogło
letnią
kwiat
nieporozumienie
morderstw
spotykam
fundusze
krzyżem
kąt
minęły
koktaj
szukałam
stworzony
francuskiego
##ower
komisjo
foot
weter
domach
granat
przyniosłam
zobaczyła
opozycji
najlepszej
obowiązkiem
serial
tracę
fen
popełnia
impuls
holandii
przestała
katastrofy
prezentuje
włók
śpij
inteligencji
przechodzić
widoczne
1962
przekażę
##żyło
właściwą
palmer
równ
nieistot
kamizel
prince
zorganizować
kombine
pozwoliłeś
próbkę
toczy
##ńczyk
autory
zadzwonisz
prośba
jedwa
silver
potwory
pokłó
##nette
bratu
obiecać
pożał
budżetowej
pływać
##strój
##gio
##kujących
żartowałem
##wcy
##ala
niewido
generalnie
sandy
elektryczne
##miej
kę
narodzenie
znakomicie
złapią
water
malcolm
narys
prawdzie
pokryw
##magne
montaż
##ash
pragną
dobieg
zastępcą
##ray
shin
loterii
1959
incydent
##fle
zdrowe
gotować
powrócić
karkono
##put
pozostają
##ownego
wiede
soo
buck
prawidłowo
kurczak
##worth
pięknym
tenden
sukcesem
kn
##owiadasz
przeo
lekce
nać
zainwest
obciąż
orzech
lojalność
##anką
##nujemy
##ene
##69
łód
przesunię
wygrała
krzesła
1953
owoców
zaskaku
technicznej
dodatkową
typem
przysięgłych
żebra
wygad
podą
normie
tyłka
##idy
radar
rodzicom
justin
ea
arka
francuskiej
sec
oddzie
avenue
znała
refle
stanow
odcisk
opracowanie
straszna
##czących
kurt
przeprowadził
trwała
woła
##cyjności
internetowa
gruba
niegdyś
cienia
pakiet
wspina
atmosferę
zmierzyć
wyjechała
zawodowej
cywilizacji
naruszenie
bishop
dotyczącej
dotyczącą
kierownika
radością
dalszym
ellie
kirk
sprę
##odpor
wzgórza
zaist
##ciński
cichu
przybyłem
komunikatu
nastąpiła
złotko
odbioru
spałeś
earl
dotrzym
stym
popatrzeć
hiszpania
klasztoru
finału
wał
kurczę
żeglu
schody
##oper
wąż
niezad
eh
kurewsko
górnej
zez
ciocia
używasz
##lio
szczytu
zachowaj
przyjemne
abor
papa
##mor
przebr
mozesz
humor
narodowych
ochroni
dania
ogromna
##będą
wypić
##ódź
róg
##czak
##cali
zakonu
staniesz
geniusz
##stern
walczymy
1932
powtór
listopad
kennedy
odcisków
medycznego
wyrze
przeli
partnerami
##piąć
chy
alumini
idealnym
odłą
czekałam
stracenia
hamul
rzekę
fundacja
bary
sekrety
hobby
niszczą
saro
##sera
##cla
pilne
więzień
zasi
zabójcę
##tnicę
shir
rap
kiełbas
vio
lewą
sportowych
zest
wagę
przegryw
warst
pragnienie
##ript
stek
chandler
wieśnia
##rowali
odbiorę
via
karku
powstaw
zauważyłam
upadek
ucho
##masz
podejmuje
czyny
obecnym
##dowanie
karze
zupeł
kopu
anton
piątej
perku
wykonany
planujesz
małopol
począwszy
scen
opcja
bou
wstecz
przewoź
edukacja
administrator
skurwysyn
przyt
piorun
istota
zwolnienie
filozofi
##mpens
wyrobów
##47
##bku
##ansas
piszesz
##chnie
sra
wspomnieć
samorządy
zastra
uporząd
wpadłeś
android
popracować
oddycha
kumple
konferencja
kempin
dorosły
fabryce
starsza
innemu
torbie
półtora
dziewczynami
stuk
przerażony
morskich
##enek
ciemność
powiązania
gabrie
szalenie
##ara
okla
niewłaściwe
##qui
zawartych
szeregu
służba
powiązane
##more
##ship
myśląc
aktach
##bki
układzie
wle
machi
zgonu
janet
##ias
popatrzcie
ekscytujące
najwyższa
dbać
niebawem
russell
##lery
zapotrzeb
umoc
kręgu
portfe
##rzać
karola
orienta
naje
towarzyszą
pęcher
kosztowało
kostiu
butelki
kapitu
krz
kierować
fałszywy
zniż
lunchu
cn
pluton
5000
przeprowadzenia
porywa
mechaniz
kradnie
płoną
czytałam
rec
pokrzy
panuje
robiąc
spadać
wiersz
rzesz
jechał
tracisz
ciociu
1951
winę
cerami
1923
wyższa
ukazał
wiadomościach
odkryłem
##logów
irlandii
##pierdo
logo
palant
marszałka
stałeś
1961
gapisz
słuchu
obronę
gin
mocz
cierpliwość
zatoki
cuda
przyst
##skute
zdrów
uzyska
wojskowym
hiszpański
prowi
kano
rodney
skacz
nazywaj
strat
wściekła
cheer
dziewięciu
działka
ekspertem
##68
ścigać
odpowiedzialna
utwory
filadel
przychodzisz
ukończeniu
stosowanie
randce
##śny
wygrasz
wizji
wolą
obudziłem
elektrowni
zabitych
olivia
garść
liczeb
wysokiego
spółdziel
starzy
wewnętrzny
##lono
formacie
ściga
listu
neo
fabryka
zagospodar
dochody
wyprodu
##kowiec
trenera
##jasz
##glądy
precz
tronu
##tta
zbudowano
podejrzewam
waszyngtonu
fara
prasowania
areszcie
##ón
sera
grałem
##muzy
opróż
dacie
pojeb
słuszne
profilu
prysznicem
wolnych
pojedzie
wodo
biegnie
dostrzec
batalionu
dowództwem
jesienią
##dzkich
dowiedziała
samotności
przyznaj
##dziesięciu
hasła
wymiary
prognoza
fizj
##towego
pizzę
szczęśliwie
##ree
naleś
używam
żąda
elektrycznej
pogadam
anderson
grzechu
cywilnego
koszyk
reki
wedle
maksymalna
andrzeja
pracowali
##izol
ciężarówkę
rekon
czerwoną
wieczy
##jom
krypto
##uszu
ożenił
zbliżyć
bree
tematem
skarpet
wykrę
budować
domyślny
łączność
zmysły
##warunk
gni
anno
##towanie
stanowić
lokalnej
paster
napij
nastrój
rozmawiałaś
niewątpliwie
systematy
pułapkę
komunikaty
poznała
tradycja
oddawaj
plaz
vii
publicznym
zabiło
dobrymi
oficjalne
zasłużył
ubrać
sorry
##39
decydu
pierdolone
ukrywasz
1926
kompatybilny
kondo
budowni
wzięłam
pacjenci
płó
ciężarówka
pisarz
pokoch
there
gazet
świnia
egzami
posiadania
detektywa
hydro
niepotrzebnie
doje
zjem
zobowiązań
reputację
pielu
zawodowe
pieprzonym
tragedia
lei
barbar
hokej
szyfr
szli
role
upro
##zywania
skomplik
adresu
słonko
inżynier
fos
sum
##ktry
##hal
miedzi
##tujący
dystans
poczty
zawrac
kitu
podatki
##niosło
zadzwoniłem
pecha
dalszy
kanady
marketing
1931
zaprasza
dyplo
pokera
grzeczny
zapał
producen
gorący
przystanek
naszyjnik
mp
zgodziła
##walić
bezbron
idioty
państwowego
powstaje
tary
konstrukcja
podpisz
##styna
specjalistów
protokół
przetrwa
##dech
czaszki
zrezygnował
autorów
recenzje
horm
zmierzasz
zapomin
wizję
babe
żółty
tagi
wpadła
polityce
brytania
zygmu
współpracował
wokali
głębokie
szczątki
dziecinko
silniejszy
kulki
plemienia
nauczysz
##das
ogólnej
lang
centralnej
ramienia
bystry
palenie
pamiętał
sztuce
krzywdę
kapra
linią
zwłok
samie
rzuciła
przebo
wilk
atrakcji
szło
konte
prognozy
##44
##lubie
tabeli
anglia
cont
##rch
jedzą
strasznego
osobisty
##pedy
pedagogi
zadaje
wojciech
wcześniejsze
dowodził
zapisane
konkretne
tag
##qua
bezpłatne
##tara
lądowania
wyzwania
szanuję
aplikacją
trafiła
nieunik
##gły
pseudonim
##terze
klam
zadu
szybkiego
pomieszczeń
słabości
metropoli
##szasz
##dzkie
wejściem
size
czytanie
norman
##ezor
zabranie
basenie
cierpią
pracach
##macja
operacje
casino
etni
obrze
kalendarz
wodnych
##shire
złożone
##fro
##dall
##tkach
kryzysu
kane
##ture
dekla
dykt
dowodem
wybrała
rządy
pozdrowienia
odnot
bą
posk
chleba
##rs
bones
waszyngton
plaza
łamie
ucieczka
warsztat
##body
mno
sugerujesz
##bis
##eo
wyjątkowe
wysłali
równoleg
wpada
troszczy
bliska
ocalał
pięknej
otrzymałem
napijesz
zbiornik
zdumie
zh
podam
uczestniczyć
określony
przyczyna
malutki
angli
sekretarza
gibbs
collins
##trzymuj
regulaminu
wiosną
przesył
wymiaru
kolesi
głosować
##miały
siedzenia
##uk
licząc
mówcie
ned
pełnią
hań
stosować
detektywem
bm
zatrzymam
pz
omówić
##datk
herbata
zabijają
gward
weźmy
kultura
papierów
##kani
flota
wilgot
tyłku
przywitaj
spódni
robó
impul
rur
nauczę
wykrwa
wodne
kumplami
niewol
##orm
##dis
wpływy
wsadzić
wnosi
odniósł
pene
oczekiwać
oprzeć
czo
szyję
##zienia
rozwijać
osobowość
nawy
##999
środa
##ontar
1200
nakła
obecna
śliczna
podkomi
oszalał
wbi
##ujących
drewno
szybka
nasa
whe
101
eksce
brązowy
dallas
świate
narodowym
interesują
kaset
mistrzów
zjawisko
wersje
ptaka
ekipę
ukradłeś
hud
najważniejsza
golfa
alar
diane
wydawał
dziennikarz
wypis
biletów
dżentelmen
naczynia
stri
##gór
alle
trenerem
planach
poruszać
dopuścić
zabieramy
ozdo
remi
##gowa
przetar
rządowej
zabicia
##łód
laskę
drużyną
postra
opon
piosenek
formular
mb
szkolnym
burzy
leczyć
##mam
kompania
australij
naft
willa
specjalną
guzik
śpię
zabijemy
##szesz
tłuszcz
zjadł
##łymi
paczkę
benjam
zaczynajmy
sygnały
prywatnym
cholerną
nicky
biblioteka
aj
przepy
przedysku
nasie
pojedynek
komplement
uświadomi
fizyki
brody
włączony
mae
ogrodni
alphahff
##lonie
zmienię
poszliśmy
##świecie
##stach
kanada
christ
wolontar
niezde
szukacie
boży
wejdziemy
ciszy
pozwolimy
negocjacje
krwawi
cart
zabawnie
dysponuje
ciągł
##óbr
iso
podziwiam
wynieść
zarejestru
przerwie
europejską
doprowadził
##hrer
warzy
region
merce
heather
##eł
naga
place
htm
maru
kibi
żołnierza
uznanie
wiosce
##dona
##ов
##spon
członkami
kopi
konwen
broad
zyski
wywi
##iss
##67
##zew
busi
kamieni
penta
spora
stracimy
limuzy
słodko
spadochron
nada
git
worek
chcąc
posługi
##gracji
poszukaj
politechni
1ch
trzymamy
prócz
flot
ambasador
dotyka
negocjacji
baseball
sklepy
prawnym
południowym
rzeczywistym
szep
operacyjnego
korzystając
dokończy
gangu
uprawi
##wii
##tety
miłą
prowadzisz
znałeś
mina
##łyby
istniał
zabijania
znajomym
wierzył
ptasz
skrzywdził
##gee
wykres
ocenić
harold
wejdę
##niejsi
wysadzić
żywe
tracą
postrzelony
##trzymujemy
korup
wyszłam
paige
mięśnie
mt
##ap
poproś
zawodnik
klingo
skrzydeł
sterowania
opublikowany
zostawiam
##nięto
pozbę
dodatkowy
torba
wycieczka
##anko
dywizj
odciąć
księżniczko
wózek
liści
złości
oszustwo
zakładzie
ay
##katoli
szczero
veroni
gem
czytelni
noah
zostałaś
garderoba
zrobiłby
rekrea
technologię
gracze
teoretycznie
poszedłeś
rozpoczęcia
monica
byłych
skał
palca
niewystar
##gasse
guy
odwiedził
fizycznej
puk
##ralnego
##dykt
przyjaciółkę
agentko
ślicz
##kształ
wystarczyło
##jazdu
komendant
llo
##rówki
obsesję
duke
zagło
##śniesz
##alujemy
aaa
dostawa
masaż
strzy
klimatu
zdałem
inger
pieniądz
odejdzie
bolszewi
gromad
adresem
bea
wypełnia
metodą
jubi
450
##święt
znaku
przyrzekam
obsta
faza
dziur
brytyjski
poznasz
czyści
spadnie
toby
odlicz
rzeszy
159
swia
regul
##nionym
kilkana
cala
nowoczesna
obrób
materii
zainteresowana
wrocław
porzad
urodziłem
##netki
queen
##wimy
historią
ryż
nieud
zanot
zeznanie
pacyfi
wilgo
chmury
##orami
wzno
buzia
zadowoleni
ucha
rejestracja
zbudował
utrata
głosi
rucho
spowodował
sans
kanapkę
zajęci
grim
##aktu
powinnyśmy
toaletowy
wydała
dalszej
cierpli
młodości
victoria
warp
wyprowadzić
teatrze
##grafia
silników
jadłem
kupiłeś
przyjazd
wolną
##entem
kombin
pilotem
##wanego
duchów
##wczego
zginą
doprowadziło
staran
autobusem
##szymy
maski
przedstawiciela
gałę
okien
cry
twej
normalna
##żcie
hiper
policjanci
porucznika
oszukać
##manie
mordercę
kumplem
state
fizycznie
poć
lawrence
przyjęte
szkło
powiadomi
uczcić
sharon
aleksander
ox
potwierdzam
strzelców
fazy
bonu
abi
pyszne
bolesne
##coną
kilkanaście
gdybyście
dziennikar
nao
oddzwoni
wynagrodzenie
##rywał
przejdę
piąty
hiro
##ashi
wyszli
come
winić
schronie
turystyki
##owcu
##gol
przyjazdu
spotkała
egzekucji
##rell
zjawiska
kłamię
krwawienie
pozbądź
technicznie
ubrań
hitlera
heł
bądźmy
dźwięki
równowagi
długopis
profesorem
kazałeś
ranę
break
pradaw
czajnik
kawiarni
dry
apartment
moduł
bawią
zasadami
zamieszanie
szczególne
astrona
##komunika
metry
any
nons
##ev
lasów
smoka
odważny
włos
kierowcą
lwowie
##rzeń
szty
mocny
dzwoniłam
pociski
promieniowanie
##tności
miasteczko
legis
wydane
zadziwia
ogłu
pośpiechu
odcinka
kazimierz
architektury
cholerna
katedry
##asi
konkretnego
##braj
barcel
rozgrywek
odblo
komputery
domyśli
dowiedziałam
brzmiało
wyposażenia
słówko
##kov
popołudnie
przemieszcz
made
stałych
sklepów
przychodzę
debat
ojc
uciekli
dolara
prowadziła
dolinie
cholerę
nauczyciele
olimpijskich
oczekujesz
##pch
wstą
schować
apety
informacjami
kome
banków
sięga
przeznaczeniem
##publi
modernizacji
ludność
rip
bierzcie
mamuś
##rzałam
igloo
ciasta
sytuacje
jeźdź
ciepłe
implan
niewielki
oble
wypat
totalnie
cebu
skojarzyć
pól
reż
dajemy
wiążą
przedni
szafie
##ologicznych
##nix
świątynia
polityk
kosztować
##robot
##nowy
##rant
genialne
strzę
tkanki
##stat
zdarzeń
brukse
zdołał
portret
ratunku
niebezpiecznie
baje
opodatk
kurcze
wysiadaj
minę
wygłupia
dofinansowania
żywność
pochodzę
kulkę
skojarzenie
grill
ukrycia
krasno
kłamał
nurkowania
parametry
podniesi
usłyszałam
warren
##wiamy
probo
naomi
skoku
nowymi
słuchał
zastanawiać
przepły
ponu
kok
wystawie
konkretnych
obsługę
producentem
portalu
##yo
##etti
map
##gnoru
monroe
śmieszny
rozstrze
obroni
wyciągnął
funkcjonowanie
##wień
valent
myślach
najtru
najtań
puśćcie
mars
publiczna
shawn
trasa
monety
##85
lokal
gwarantuje
rebecca
fotografie
biblij
rządzić
popełniłem
najlepszymi
jebane
pigułki
umiar
odra
prymi
##nit
zazdrosna
114
twierdził
podusz
obowiązujących
##szyfr
kurtkę
królewska
gubernatora
artur
znałam
md
finansowanie
zobaczcie
daniela
antybioty
przepisach
gospodarczego
bach
konfliktu
promieniowania
kupuje
dostaną
diabel
kontynuował
organizmu
korytarz
prowadzimy
skale
tchórzem
dziki
przywróci
rozważyć
bogi
manife
etykie
najsil
gębę
debbie
ubierz
wystarczyć
tracić
targu
pozbawi
niena
##niz
politycznego
intry
charytatyw
miłoś
xvid
##key
wieść
będe
##pora
nov
odwrac
struktura
daliśmy
szkolny
sai
gorszy
konkretnej
wszechświecie
lubić
zaprogram
rados
rou
ołów
##rowała
opuściła
krajem
##eryj
##wiały
zachodnich
rury
otwórzcie
komna
emerytury
kurna
##anami
sąsiedzi
inwestorów
##sse
przystąpi
higie
palcem
podróżować
miasteczka
benefi
sonny
najważniejszy
niekon
rocky
ralph
świętym
tyłki
blur
raf
kura
##mun
władzo
przeszkadz
zdenerwowana
zakończone
##mel
##dalu
##rado
rozpoznać
znajomi
rozpowszechni
komisarz
zza
##rwi
rozejrzyj
##89
dopo
budżecie
sea
zatańczy
toba
zaf
skurczy
wyobraźni
brennan
gwiazdki
##oder
tsu
pech
dokonano
węża
dając
obfi
obowiązują
ustalono
zewnętrznych
głowi
sukcesy
zlec
uprowa
witami
ropy
wzroku
frydery
przypomnij
fabu
strategia
koncepcji
juan
brała
dokładne
dziękczynienia
możliwych
wysiłku
demona
składu
##liwych
majtki
seg
zagadnienia
uzupełnienie
chel
##kiew
prefer
prywatnego
wicep
życzy
krakowa
umorzeniu
przerażona
silnie
padł
business
byłym
murzy
pielęgniarka
zawodowego
indie
armią
wróciliśmy
przyjście
wszedłem
studenci
##tsu
indiach
##orą
poszukam
over
henryk
szaj
namię
pomysłem
liczb
podejmować
generator
przebywać
opieka
bóle
srebrny
gazeta
wkurzony
##mię
siedziałem
##liwym
przekony
prosiła
kontu
zdaję
skończony
tempie
pojazdy
rocznicę
brzmienie
usunięte
pisanie
zapoczą
uspokaj
spędza
plem
brazylii
mieszkała
##ott
podstawę
przesuń
zainstalowana
gandal
jednostkę
przywią
poświęcenie
naprawia
##ark
cieniu
przywódca
synchroni
ultra
petycji
czystości
lotnisk
chowa
składników
bogaci
któż
mitchell
przetarg
przyłącz
skomp
kosztem
myślenie
##ск
kryje
kierowców
##ziony
dzw
cezar
gardła
ciast
eksport
##stre
rela
christian
fall
zwane
wynośmy
ulubionych
weryfikacji
niezadowo
porządnie
przemian
różnią
naukowej
wei
##arząd
##torami
funkcja
##arzeniu
franklin
prestiż
piek
świętować
znalazło
math
niewolników
##szające
allen
giną
warzyw
him
nomin
poświęcił
starszego
benny
oświadczenia
otrzymasz
upuści
kira
modlić
inform
kobieto
lana
odwi
jules
##wycię
uderza
czynników
spełnić
##dit
ronnie
##ałbyś
express
świr
konserwa
odpowiem
nelson
poland
##torzy
imigran
ramionach
podle
szerokości
lie
spadam
##cra
##stora
przekonu
fantastyczne
wzmi
dzieciakiem
##bka
szkolnictwa
popa
##gich
białą
lokalizację
rodze
##rald
listów
gale
pracuj
wzrasta
pamie
plażę
zniosę
przyrzą
##berga
dialogu
pojechała
chodz
niezgo
ścieżka
zack
udziałów
kwas
rena
##vier
sławny
mace
minuta
gwen
włącznie
kasyno
zostawimy
##fem
sulli
zmniejszenie
licencji
wój
przygląd
fascynujące
##dziony
##rzone
klon
wyprób
formalnie
##hm
zgromadzenie
protest
czytel
paszpor
wykop
hydrauli
pieprzoną
zaplanowane
##fikowane
oskarżenie
##ltacie
przestępców
##niczego
sztuczki
płk
##racją
siar
starasz
##mur
brudne
własnymi
room
królu
##wina
##czający
kredyt
skręć
anul
ciemne
ćpun
nagły
pańskich
otworzysz
sele
skuteczne
benjamin
tylne
demonstra
opublikował
nienawidzą
rezultacie
śnież
erica
dworca
podstawa
kwiecie
##trem
cięcia
wypożycz
znanym
haley
głupota
oddali
rozumieją
hec
zapan
kryć
jądr
efektem
pomagał
nazwisku
pazno
pokła
zamraż
napięcia
cenne
uspraw
pozostaw
ferra
ewentualne
dodaje
stoczni
stwierdzono
zaginęła
nabrać
spędzać
poglądy
wiecej
meksyk
zwiadow
igloo666
porzadku
komórka
igna
armat
wyleczyć
zdobędę
import
kłócić
stul
odpocznij
##dowa
barw
elektromagne
dzieki
badaniach
przypominać
narzędziem
odznakę
ruby
##owując
izba
nosem
prawi
spider
krzywda
immunitet
##36
wyjątkowego
przebrać
konspi
wypłaty
wyjściu
szok
znajomego
christine
iza
##anty
okropna
kaplicy
##lali
usłysze
##fre
trzyna
usił
zbrodnie
spotkasz
pokażesz
##rzeni
faktów
craig
spowie
##łup
viii
osobowe
ptas
kitty
call
oglądam
nakry
szki
komory
klasę
zniszczona
niewyk
narkotykami
domin
##guage
dopaść
cheł
myliłem
wymyślił
przygody
ekspozy
katastrof
pobierzesz
syno
##orek
gospodarstw
lekcję
obywatelska
restruktury
istocie
##kiedy
orzeł
nieograni
ogółem
metr
dzieciach
kompetencje
bezpośrednich
znajomość
##latorium
xiv
ograniczeń
telekomunika
brzucha
niebezpiecznych
sweet
##kowali
mija
hau
scie
wyjazdu
sfer
##jeb
magiczne
##tio
1500
hora
dziwię
dowództwa
odraż
fizycznych
michała
dostatecznych
##czcie
harper
ośrodków
przeklęty
##dena
instytucję
średnią
porwanie
##nali
kutasa
zielonego
zmiażd
washington
miejskich
ufo
koko
rzece
have
radzić
troy
led
zamierzamy
publiczny
przeszliśmy
przyku
nowelizacji
typy
przeszukać
niestabi
anioła
fizyczne
nadajnik
zajęte
prawników
odciąg
intym
koniecznie
absur
ilością
wybrali
wielokro
gruncie
twierdzę
##letnich
piętnaście
idioci
historyczne
##etów
efekcie
cami
dream
trafie
wylądował
nf
stopa
przyb
oblę
##wów
bookman
potter
funkcjonariusz
podw
ekranie
sebastian
rytm
intui
ataków
poczeka
diamenty
naprzeciwko
obrót
stosunków
##vard
pierre
##syjne
przyjechaliśmy
leczeniu
tadeusz
wiewi
zarejestruj
acz
przełam
kosmos
##ący
lorda
standardów
haven
efektów
umrzemy
tablicy
rodzinnych
lordzie
klikniesz
##urch
słaba
przydać
pracowałeś
wprowadzone
fiu
##sport
spójrzmy
bezpośrednie
pobieg
zajmiesz
centa
##kiewicza
szor
zrobic
negatywne
alej
sprowadź
tęsknić
konserwat
potrzym
poznajesz
obawiać
kadr
pielęgniarki
obecnego
exe
zwyczajnie
instalujemy
spło
##łyście
obudził
newslet
##nell
simpson
spin
##skanie
premium
podłoga
##fera
przywódcą
kwalifikacji
pracowaliśmy
nabiera
##szają
brama
##pus
neill
schwyt
raymond
powołanie
wylot
zamont
podla
wieprz
przysługi
odesł
fami
##fort
częstotliwość
przejechać
wykorzystał
gospody
przyjechali
##szczeniem
rodzinnym
rozluź
tai
bombard
śródziem
chiński
złamie
##side
panowania
pionie
resztki
##uld
rachunku
side
urok
##głęb
wezwał
nek
samoob
uczą
prywatnej
daruj
świeżo
podu
wysi
stulecia
czekając
osobista
##rósł
wypierdalaj
##zujących
wyjaśni
przetwarzania
amerykańska
niezwykłego
losy
##xt
ginie
shepher
odłożyć
osiągnięcie
lustra
language
odmówi
pisania
rory
inc
wyjściem
zainstalowanymi
odbieram
##śń
przyjechałam
nietyp
specjalnym
chwały
proponujemy
środę
dotarło
inspekcji
wież
niki
załącz
##kh
zaginię
najwyższą
etat
##pokaż
odznaczony
obrzę
luci
sąsiedztwie
białorusi
postępowaniu
zastrzyk
procesy
zuch
berlina
din
kręcić
domag
##stykę
refun
ofen
zastanawiasz
dziękować
smutek
leslie
prymityw
cross
opiece
utworzenia
obłę
twitter
gabinet
krępu
edukacyjnych
minus
##macie
pomieszczeniu
rege
przyznanie
zabierasz
##46
##ars
bezrobot
##pton
elena
mot
ib
wymienione
##cd
odwrotnie
##niosły
kostnicy
aktów
pozarząd
czystej
##elia
żni
apollo
##sol
przytomność
##czami
chirurgi
progid
jonathan
henryka
załap
typie
cindy
odłam
perf
zabierać
chen
##szyłem
przyniosła
##conego
synte
różnic
buj
będących
wystawa
sądzimy
częstoch
##mas
doskonałą
wyświetleniem
105
pięćdziesiąt
##pła
głębiej
sprawiają
china
zaproponować
całkowitą
republika
##gate
##49
##lion
świnie
ciągnąć
opęt
wakacji
uczeń
wypie
wyzw
symbolem
chwyt
##siadł
##rzyjmy
##ślać
czyja
##gła
wpuszcz
mid
beta
zbliżaj
##nowo
antoni
nazywała
hek
chemii
filiżan
obrab
opowiadać
złożenia
sponsor
interpelacji
uzbrojony
rozch
boom
mikrofalowa
kumpli
szkolnego
nacisnąć
przyjmie
skierowany
terrorystów
zaszkodzi
marne
wygram
##rina
twardzie
odszkodowanie
rozdzieli
niekiedy
zadzwoniłeś
dynastii
powło
pierce
walizkę
##koło
filip
brid
znienawi
świeci
kolekcja
makijaż
przeprowadzono
penisa
monach
kino
##owicza
styczeń
deter
analizie
żałosny
czymkolwiek
zapoczątk
zbliżają
ułatwia
utrzyma
zjesz
podręczników
szukaliśmy
serię
bracisz
wypełnij
przymus
dopiln
elektronicznej
wracając
posunię
zamieszkania
filtr
załóżmy
wizerunek
barie
dowolnym
1915
wyświetlić
starszym
##ralna
wymienionych
złapię
biznesie
korona
zorien
gotham
celach
##bow
opart
sędzią
dark
pogło
korporacji
zgra
specy
prawy
monachium
##terów
##eeff
rozpę
##cząt
ostra
niczy
odeś
trafiłem
niektór
egzo
dk
siostrzy
sprawdziliśmy
gotówki
zaskoczona
trup
państwem
menad
współczucia
przyznała
##verly
usłyszę
##pas
stawka
kliniki
molest
skin
luz
wydaję
wyproduk
zmarłego
żądania
truska
nieprawidłowości
przydział
zgas
when
##bier
##żyłeś
chór
##iro
##żur
psu
odpoczynku
bylibyśmy
##puszczę
popularny
problematy
skal
posadę
romantyczne
zasięgiem
count
krąg
świadkowie
yan
kontrower
zewnętrzne
aaeeff
##yu
wrażenia
otoczony
afro
kupować
zmieniły
nieodpowiedni
##wale
##raj
żegn
zapewniają
liny
bec
odbywają
milo
chorą
uzyskała
królowi
##wło
uszan
załogę
wypadków
zabijanie
##onor
idei
władysław
ae
rozłącz
zmiesz
medyczny
bos
zmniejszy
szału
książe
ścieżkę
dedy
wysk
zasługuję
spałam
dostaniecie
medium
motory
hugo
pojawiło
podejrzeć
pieśni
spodziewałam
spoza
zielona
xiii
włączone
przejech
##naż
wahad
czujemy
zainspi
uznaje
drapież
mez
krwo
ceremonii
terapeu
##yśmy
zmusił
##yl
##fur
błogosławieństwo
umyć
komendanta
morris
poły
pusta
istniała
oparty
dostarcza
ocie
zajęciach
##nau
##nth
otoczeniu
wynikające
wypij
zamieszkał
witryny
przewyż
fiuta
poświęcony
##ownym
barcelona
przyszłego
owie
patty
wynosić
posy
rico
szóstej
oddasz
nieofi
fitz
genialny
pijana
układa
odwdzię
przeczytałem
znaczne
cuddy
spóźniłeś
wymianę
masturba
kola
walkach
europejskim
posłusz
rozmy
lekcja
meczów
koszmary
##tech
popad
dzikie
znakiem
wyborem
kategorię
śmierdzą
happy
promieniu
patrioty
wschodnich
zwanego
##umaty
kandydata
poprawę
##ppe
165
świadczenie
obydwo
##trzą
sexy
lecie
pacjentem
zachowują
karoli
dwudziestu
biblia
gener
możliwy
naćp
prowadzący
podobał
decydować
przypomniał
kni
piasku
autostrady
##mis
bosto
##liwą
uwzględnieniem
kolejowego
##xx
ryj
gwiazdę
##42
dranie
oknie
norma
jeziorem
spoczywa
zawali
synku
kolorów
wytrzymam
wysłała
legalnie
czytał
maila
bej
schodów
wspólną
swobodnie
gliniarzy
wadze
liam
znanego
zmniejszyć
##anci
wielory
hambur
wsadź
ukształ
tvp
##tness
średnich
odmiany
luty
wydziel
światowego
zaznaczyć
wypada
##lau
dotarła
duszą
spotkaniach
katalogu
znaczyło
satelity
##cjoni
rosie
podbi
stadium
warstw
chłodni
miłym
bravo
stopę
alison
zawiodłem
##czymi
sztuczne
egzy
kluczowych
##sl
wyciągnę
otrzymali
detali
linę
dojrz
poety
##anin
spokojna
cywilnej
240
point
hoo
richie
mij
regionalnych
rozerw
powodują
poczuł
przejażdżkę
sztok
dystrybucji
jet
##akuję
naturze
zwracać
patrzyłem
oglądasz
zaangażowanie
przebiega
kryjów
ciężkich
najwyższe
colum
konsumentów
bent
apple
##31
powiedzenie
powodować
lepszej
manipul
##rak
ryzykowne
cieszysz
śmiech
wskazówka
wyszukiwarki
guza
kanapki
pozostałości
temperaturę
róże
przejazd
summer
atakuje
legendar
samura
sprzyj
zakładamy
religia
##eno
efektywności
pospoli
przeświet
zmianą
żołnierzu
flet
pablo
wiedzie
kuchciński
##chan
złom
partnerzy
prosiłam
przyłączyć
byłą
dostają
otoczenia
lig
dzieciństwie
dowiedziałeś
skierowane
zajęli
konfe
dominu
lenny
##gus
szpiegiem
czwarta
wiosen
konferencję
łoży
basenu
trwały
brutto
dyskre
##wających
wydana
szczególny
natk
głupoty
##lee
przysią
spock
pozostawi
izbie
reed
pogawę
##lizowane
kanadzie
mamusi
naruszenia
siedzibę
klatkę
##baw
kampanię
kwarant
dofinansowanie
ninja
bezcze
dalszego
##łonę
kansas
dojrze
porażki
przygotowuje
brie
otto
nieucz
pomij
włosami
usunięcie
siedziby
kompli
pracownikiem
nędzy
matematyki
##owiny
odbyć
reese
przysięgę
staruszek
sprytny
pomiar
korpus
zakry
podłogi
##ardzie
dziale
nożnej
wiki
gospodarczych
##rena
lokalny
cierpiał
##eny
uznany
smal
letniego
wzywam
kazimierza
gadania
##conej
rita
koły
wejdźcie
posiadaniu
##ista
niezbędnych
wycię
turner
interwencji
ukrainie
zachodzi
zasadniczo
##daj
dziekuje
dawnej
zabijaj
gliniarze
skoru
szczególną
paniki
późna
dochodzenia
bransolet
anato
##ques
opol
gimnazjach
klientom
rzucać
błyskawica
##szkodli
sympaty
arte
odbierze
##cript
odkrycia
kretyn
owe
ix
kolejowych
postawił
odkrycie
nieruchomo
##tie
złapałem
uzyskanie
władca
rozpuszcz
doprowadza
kopa
zesł
##ruję
##amo
najświęt
bedziesz
zapisu
rosa
kolesie
podpisy
hell
williama
panel
słowacji
mediach
powiedzie
wyścigi
prokuraturze
rabu
załatwienia
##nionej
lekkie
włamanie
szkocji
##rice
stadion
przygotował
tegoro
tina
ojej
wyprawy
##mark
inwali
moglibyście
##kanów
przeciwdział
potrój
przybędzie
curtis
##cjum
zestawie
freddie
irland
zapamiętać
odczytać
design
diety
##nowe
##dziesiątych
##nościami
cukie
czekaliśmy
obywatelskiej
wampirów
widziano
zachował
odbyły
rozegrał
oprowa
legendy
##sea
naroż
clevel
szczególnym
krewnych
milu
rodzinnego
odpręż
pdf
##atką
amerykańskim
kancelaria
wypar
mniejszy
dolary
farmie
względów
wykonywanie
wolnej
przyjemnie
odpowiednia
gna
ukryty
pięknego
hałasu
##sud
płacisz
##onalne
pudełka
będący
zdradzić
anie
równa
istotny
pomieszczenie
musiałbym
namiot
pochy
##ffer
ruchów
sheldon
##bell
spr
dóbr
odchodzą
pochodzenie
obcym
skarbowej
zapomniałaś
wierzyłem
poranek
szpitali
udogodnie
ożenić
europejski
##nieście
demokracji
stefana
byla
wiejskich
obrażenia
krótka
samuel
niepowod
rż
##chov
przenik
##84
##dex
proc
rozróż
skórze
madison
##aran
rozpie
lepszych
gorszego
terapia
##fów
dorwie
czerwonych
zastrzelę
pozostały
zastępcy
pomyślałeś
drogach
świeży
bieżącym
stanowisk
szmal
weget
wyszedłeś
dziedzictwo
zostawiać
zawał
change
willie
note
##kalip
wywołuje
praktyk
dawał
indek
ogniu
##owną
sprząta
stopnie
##hou
skrót
zdobądź
##nicza
twórczości
##szyli
diana
poczułam
ubrany
przyło
wygramy
podium
hoł
zgłoszenia
zamknęli
##orządku
organizowanych
sonda
##mont
ugrup
miecza
wspominając
jakub
bawcie
pobawić
wstępu
##dalej
intru
utworzenie
polegające
letnie
##mete
przytrafiło
nienar
płytki
zgłoszenie
gła
##miernie
##kość
wieczne
spojrzał
robienia
zrozumiałe
pośrodku
posprzątać
sztokhol
faszy
idea
deut
zmniejsze
odrzucił
##vana
##nowie
prix
##robo
niemo
##lotu
złamane
zamieszkać
niska
wzięłaś
##nel
znając
fiolet
spowo
##rit
zawodnikiem
utworzono
igrzyskach
odrzucenie
adwokatem
premierze
eth
rewol
rozbro
august
grobie
perry
wygraliśmy
skrzydło
ratowni
##ocie
syp
wielkano
reakcję
prezentacji
spani
studni
wrzesień
mieszkamy
sądząc
zeznań
łom
pogrom
odtwarzacz
cheerle
##dzina
waga
nieprzewi
uzyski
dłuższy
dosię
cierpieć
prawdopodobieństwo
powrac
złapiemy
szybkość
kongresu
zapytania
małpy
trójkę
przedło
##czycie
przejrzeć
całkowita
porównania
##akują
śliczno
##liłam
##czyny
stanowiły
diecezji
leżał
trofe
tabela
abo
dysponu
seme
przedstaw
spuści
marines
nios
hrabia
zawartości
miguel
low
hazar
słyszała
replika
wkrę
wystąpiła
zaprojektowany
zaproszenia
pracując
gównem
gazetę
zbliżamy
naruto
##manów
pył
letnia
lili
harra
wybrzeże
wstydzić
pogłę
podstawowy
zaci
zwanej
facetami
fortunę
podlegają
kwatera
zgadzamy
tłuszczu
dyscyplinar
jagiel
obchodzą
potwierdził
hr
placówek
zezwolenia
współpracuje
torebkę
##jeni
odstrze
wizje
czoło
monk
chorobą
wdzięczni
ohio
pragnienia
niewielka
paznok
champion
korony
cukrzy
zalet
nauce
##lemen
winter
szerokość
zapalić
dymi
##dens
##turą
podejrzenia
##etta
##ografii
nerki
bałty
##wanym
##lania
##lett
przyszłych
spotkali
nieustannie
rewe
odejdziesz
odpowiadają
postrzeg
pizza
zmro
bogata
piersiowej
skargi
nonsens
##tność
humani
tajemnicą
załą
strukturę
##zował
rundy
brazylij
zaat
##oster
poddaję
prez
byciu
ucieczkę
detro
ostrożni
poprosiła
przetrzymy
kupuję
dubli
zajrzeć
dodatkowa
spacerem
smar
orygin
##lebia
maryn
opiekować
wejści
ojczyzny
slaj
opisuje
zamordował
##ronów
##bły
##arzę
ven
przykry
juri
search
zniknęły
oceania
##see
##nokształ
weszli
##stwu
ruchem
odpowiadam
francuskim
pieprzonego
maleńka
mych
rin
tuzin
ml
##usiu
feno
sportowy
dzierża
##liło
kolejki
przekazanie
oddanie
##ćcie
dotyczącego
##dzielni
##czykiem
##gha
krop
zgubiliśmy
labi
nawiązać
ostrożna
skrzywdzi
przepraszać
ez
strzelec
dotyk
##ralnym
bajki
##kw
dawnego
398
regionalnej
prototyp
zasługują
wychowania
pociągiem
lodówce
spółkę
##kraj
zatrzymamy
kuzyna
woo
uszkodzenie
kawalerii
ujawnić
stracili
trudnych
przetrwanie
papu
pudła
najdalej
##walny
##cm
zaczekam
torze
rozle
uczciwie
zawrócić
zbudowana
odlot
powit
prezydium
restauracje
hills
##iagno
czwo
##miona
walczyli
hunter
vel
##anor
wyład
auk
wysyłam
picie
urodzony
grzegorz
fitness
okupacji
sprawdził
dokonuje
nora
głupcem
zajmujemy
hetero
##obserw
podatkowych
współlokator
bier
wpraw
##czając
blef
odło
widywać
##eg
##view
virtu
wschodniego
niepokoi
wynająć
zapłaty
farm
##towym
wstydu
skop
caleb
unieważ
egzaminu
##onera
uno
historycznych
zaraż
sterowanie
louise
donald
przestaje
polityków
zrozumienie
wnioskiem
prawny
beton
##utka
sól
ass
otrzymam
##wiania
luna
opłata
opady
zainteresowani
stroju
detroit
panowanie
gui
szczegółowych
dwi
zatrzymuje
kontraktu
pobło
majora
moczu
lokalu
zyska
reaguje
copy
##chodach
cass
wyga
skryptu
umieścił
##dowany
znajdowała
maci
budzenie
standardy
##wiała
angie
pracowało
jone
katowicach
kanałów
mgła
yun
wojowników
obroń
##cowi
zamówień
marihu
##wencję
##rzani
zalog
charliego
navi
kwestią
meczach
##mil
poszukiwa
##mine
obszer
demo
oszac
czechos
frances
miejskie
mniejszych
##towała
bliskich
procedur
hiera
##saw
niełat
konwencji
księciem
comic
narazie
zostaniecie
##bio
zatrudnienie
federalni
pozyski
##leć
wyglądacie
przekazane
możliwa
domową
rozpoczęcie
wykonaniu
wpierw
##87
##staliśmy
ubie
spore
koncentra
zamro
morskie
biop
zakochana
więźniem
odtwarz
zatrudnić
pn
delikatny
najbliższym
psze
zakładając
opracowania
jakiejkolwiek
kupiła
odwoła
ogólnopol
wporządku
przód
prawdziwie
głupek
centrali
przebywa
płaczesz
utrudni
komunikat
price
oscar
ulega
georgia
nietoper
gracza
cieszymy
potrzy
pierdolić
niezwło
usma
robie
uwielbiają
rasa
schodami
##ity
staruszku
obcego
porady
carson
wyrówn
kolegium
alo
aktywa
członkowskich
sno
gołę
długotrw
piłsud
uczen
muru
całych
złem
choin
turcja
przesłać
brytyjskiej
shu
artysty
haj
trupa
ogłosić
załatwiłem
rezygn
transmisji
##wający
zaniedb
##pur
lom
##82
spółce
godności
wspomnienie
konstanty
pęt
przestanę
pozdrów
ścianach
handlowej
żydowskiej
roll
znacząco
epoki
##riar
ograniczone
rekor
formacji
pit
bella
##krzy
skoczyć
uległ
##zzi
powiadomienie
end
juda
łapię
pomogłeś
założyciel
tajemniczy
##lizowany
upadł
kłamca
przekracza
kabi
walczysz
operatora
miny
odczyty
rogiem
starać
wybit
warszawskiej
rocka
przeszk
kopia
##niosłem
baltim
baterie
objawów
lase
przestrzeg
pralni
##amery
oznaczało
atmosfera
cerkiew
##niętą
akcesoria
odpła
##stronomi
vip
japonia
życzysz
nazist
elektrow
chciało
improwi
zdobycia
mądre
udar
oak
ubiegłym
zamień
awansował
jurys
wygraną
okrad
przetest
billa
main
##łuję
obróć
casa
państwie
chó
strzelan
pieprzę
zerwać
##sted
pogotowie
cleveland
usłyszysz
komentarza
##att
kontrolu
pokro
lokomo
beverly
czwarte
##nez
##ńscy
wis
##stop
grudzień
centralny
wyjaśnień
widzów
##arzony
dostępem
mieliby
pocztę
3ch
protestan
baterii
griffin
napaść
żyły
wymk
norwegii
kolejno
##hor
award
diet
podwójna
coun
skonstru
iran
ciężką
francuskie
poważnych
wisisz
rozpoczęło
średnicy
wrogowie
umieszczono
##ira
##lizacją
generalnej
posiadać
rozmawiała
łącznej
myszy
letnim
kartą
formatu
##gieł
ujęte
zemdl
135
żądanie
zamknę
manny
kaden
##wskim
maska
wach
baba
nieznany
miasteczku
shan
niz
kazali
narodzin
ostateczna
sd
wznowi
shepp
poparcia
piper
lokalnego
objęte
złapie
kwita
pocho
cynk
pozwalasz
wietnamie
powraca
eva
łami
sypialnia
wynoście
świadom
orderu
milczenie
egiptu
uczyni
secu
marc
wykoń
penis
field
akwar
tha
muzyką
instruktor
wag
obecną
##niesienie
zabrakło
wytwórni
spała
prawym
płaszczy
obia
##owrotem
nowość
błyszczą
wypra
alfre
złóż
zabronione
##tkie
producenci
##iami
bił
##tez
małpa
planowania
morzem
zapłaciłem
obniż
samantha
baltimore
##rio
krainy
holu
badać
utworu
dowi
##mad
kontrole
danymi
jagiello
rozpoczyn
##pal
słuchawkę
przeprowadzenie
stacje
rozdzielić
publiczności
##owską
##kini
futbol
komuna
tekstów
przeciwny
złożony
wrest
doyle
uzupełnia
stosowany
wybaczenie
zeszłego
dee
martina
homoseksuali
mści
pościg
##zaliśmy
laptopa
zagłady
jedne
pał
pato
##waliście
łos
##górz
skutkiem
przesko
komputerów
ucieknie
cr
##latory
kalendar
inwestycja
oglądaj
wpadnie
piask
marze
partyj
atakują
popełnić
prawnicy
##say
sweter
dzielnica
przegapić
uzbrojenie
cara
wysoce
take
kłami
##cco
składają
zalety
królestwie
zachodniego
biegną
odtąd
napiszę
wynikających
kartkę
czołg
założenie
lekki
doświadczeniem
remis
uczciwy
##ugu
przebiegu
wyszko
##lton
##nięci
##dzała
bliskim
minutkę
1916
zakupów
dysko
rezultaty
instrumentów
oryginalne
##zzo
przeskan
rzecznika
##lerie
zobowiązany
przekład
cassie
starcie
uciekają
##ardów
oczekują
nsa
ojców
kolumny
##ric
zawodow
##cing
##stawy
konieczna
prawdziwi
gnoju
chronione
mym
uczysz
znajdźmy
stymu
bunk
##cznemu
hope
szerokie
umieszczone
##łowie
poczekamy
jedynego
cath
tęskniłem
ludziska
protestu
nerwowy
zera
mikrofonem
zagłę
wymar
bede
naturalnego
krótką
najbliższe
zwery
złożonych
boisku
żałować
pracujących
sofa
##dum
poprzednie
czechosłowa
szkolnej
podjęła
handlowego
##liwego
przezię
lubie
ciastka
głupią
barbarzy
scy
mądrości
ścię
szczegółowo
zlecił
##ołom
biznesmen
wynajął
##type
richarda
toleran
audi
faq
piesek
wystąpienie
pokazała
##euro
jast
##inga
pokolenie
pracodawcy
right
łatwa
napój
francuzi
moon
gruntów
posiadam
apostol
senatorowie
zmien
urw
grosza
przypominasz
debaty
dowiedzieli
odpowiedzią
traktat
zainicj
nazywany
żalu
zasie
obojga
naukowego
zadziera
liderem
##dzających
cylin
dokonania
kanale
adams
posłucha
zapowiedzi
włamy
przekonasz
zaimpon
magistra
niekorzyst
911
granicznej
##ardo
ciekawego
amerykanin
aktorem
rozbudowy
pokazywać
piech
cholernym
przeznaczona
nico
działacz
przeglądarki
hrabstwa
##łby
ambulatorium
church
opisał
nowoczesny
wydajności
polar
##zną
##nei
wiedniu
prowadzona
metali
rankingu
misją
siema
dziewcząt
##conym
napisałeś
miliardy
galacti
##letniego
wiernych
szkód
normalnego
architektoni
najcie
gest
##sher
zasił
##nch
##izo
barwach
##yz
barbie
adopt
miesza
dworzec
właściwej
lublinie
zaoszczędzić
teo
biegać
eksploatacji
wkur
budowlanych
żelaza
nocle
istniejących
więźniowie
gniewu
tool
kalifornia
patriar
bied
kapita
lodzie
##dlu
drink
freddy
adol
##ffe
wykorzystaniem
kościołem
suma
ewa
poznam
świadkami
brandon
koniu
ścisł
gniazdo
christopher
doświadcz
square
maya
huragan
heart
łóżkiem
domyślić
piosenkar
hammond
hybry
orę
##vio
odporności
voya
##chą
dawkę
maciej
craw
przyjęto
wolniej
upływ
franciszka
##kara
##orach
należących
poprawnie
rzecznik
słońcu
zarabiać
odpada
make
boska
sądy
dyżur
ryana
znajdowały
eve
reper
##sena
zgodności
flan
szukali
religijnych
##nikom
stójcie
umysły
zwalnia
kasyna
wakacjach
##daliśmy
zapytałem
trafiłeś
tęskniłam
##mik
powyższego
ciotka
wizja
upadłości
muzycznej
##ting
boba
sprawił
##vascript
natar
porter
ogólnego
obejm
kategorie
umyśle
powodzi
rozumieniu
##świadczenie
alfon
sió
##noślą
##atory
zdrowotnych
dojechać
nosie
przepeł
pogadajmy
ey
amne
boskie
dokonu
szczur
państwowym
zeznawać
pożegnanie
moskwy
##dzu
ręcznik
darem
thompson
poinformował
kolekcjon
wyś
spowrotem
interesujący
albowiem
eee
pip
abu
ramieniu
aczkolwiek
legislacyjnego
##dowie
fundament
harrison
niekompatybi
czekała
dziennikarzy
zmusza
##drom
##rity
speku
dyrektorze
##giej
klauzu
wirgi
stałego
pobrania
##czniem
zado
publiczną
odczep
bronił
znieczu
największej
przenieśli
##ńczyka
wykształcenie
średnie
gonna
kawałku
rozgrywkach
spara
strażnika
wyraża
spokrew
śmiechu
społeczny
here
naukowo
rysu
węzłów
##61
baron
przodków
galaktyki
rocznicy
nakazu
czerwiec
pytaniem
tryskanie
##75
uzgodnie
##onald
nikki
mikey
dzielą
kład
##top
melis
dokładniej
wspólna
florydzie
terapię
mieczem
##dawca
miedzy
zagramy
zdrada
współczyn
zimną
##bourne
przejęcie
sfinans
opony
pomal
ośmio
siłami
tamta
superbo
mieczy
przedsięwzięcia
uchodźców
##dowym
świń
pokażcie
osp
krajowym
zawierać
1910
paznokcie
zabierają
zastąpił
jeńców
oparta
neal
chcieliby
przer
pożyte
mult
korpora
##ownię
loren
1912
spotkałeś
znali
snem
##kru
alexander
pielgrzym
wioska
cale
##stic
nieznajo
tysiąca
sióstr
##nioną
box
pojemności
##loni
wybuchła
statysty
##szczem
belgii
##dorf
##43
xii
doz
mikrofon
gniazd
beckett
braciszku
wzgórz
drzewie
marge
najpro
fotografia
kujaw
powietrznych
oran
byłyśmy
wyjeżdżasz
podwójny
przodem
polak
perspektywie
zachowywał
suką
nieznane
sztuczek
katy
rekin
postępować
wojenny
##roy
doszedł
warunek
przesyła
1x0
damon
zakładach
podpisany
uratuje
niegrzeczny
poznałaś
nieuz
igrzysk
rzekomo
polityczny
pojawią
przebić
przyna
too
odeszli
##mym
fau
śpiączce
wyty
uster
wyposażona
złodziejem
wspólnych
krowy
przeprowadzone
mack
##62
szkołą
zajmując
wahadł
cichy
szczęściarz
ring
jasnej
estety
sprzedawca
niedźwiedź
księgę
modeli
naczelnik
uszu
podwieźć
ściem
postawię
obietnicy
##loty
licy
##unkach
podejrzanym
selek
prim
zatrudnionych
czynniki
cis
definicji
nawali
anioły
##ink
##far
poziomy
aresztu
skrócie
turystyczne
przyprowadzić
##lię
opcję
głąb
ranem
nocne
opowiesz
oddaje
okazała
ryszard
bezpiecznym
gorączkę
netto
##edy
##ćmy
stajesz
lloyd
mury
szwajcaria
uła
##czeki
piec
##alnymi
becky
znaleziony
ou
##wijcie
bluz
##sens
procedurę
kablowe
umierasz
domina
jag
subtel
jod
moore
obłą
prawach
zaawansowane
groził
uwolnij
pasek
przyszliście
disco
rozmiarów
przekle
kapitału
przejeżdż
rozbu
lui
opas
pocisków
stevens
zapasów
##szak
pilotów
violet
olbrzymi
nienor
atakiem
uprzejmy
współczesnej
##had
ław
koszulkę
wampirem
przypu
115
wydzie
gola
mający
dozwolone
##miesię
kończymy
##fru
##ził
kiel
pudło
wyjaśnij
gwarantuję
trzecich
lori
bogate
##ierze
##sonem
instal
najp
wykazały
puszczę
wbud
chad
wspomniałem
sanktu
inteligentny
żołądek
laur
mazur
rzuc
boisko
frajer
fried
uciekinie
śledził
##sik
wirusem
obywatelskich
ogrodu
felix
kabel
tajnych
ujęcie
pojm
wyciąga
drake
starań
ponieść
nocny
monitoringu
ósmej
gorsza
gotowania
town
aplikacje
półwy
wskazówek
znalezione
głód
pokoleń
rangi
szatana
dzwonek
wchodził
własna
chmur
##leci
wewnętrznej
wap
przesie
dwunastu
długotermin
wybudowano
byst
kierownictwo
jednorazowe
zostawiłaś
gorącą
męczen
odwołania
okłamałeś
##stością
stabilny
władysława
med
geomet
##back
nieświado
łapiesz
rekompens
postulat
triumf
skądże
states
miejscowych
skurczyby
wybrane
klą
##gos
uwarunk
##81
deni
zdobywając
batman
piasek
policz
bawię
absurdal
##yla
##leje
wyraził
ćwiczyć
zatańczyć
##63
mito
długiej
ranna
dłuższego
niezdefini
porcie
przełą
##cre
nieoczeki
czcionka
admirale
##tho
prosiłeś
brytyjskiego
szał
potwierdzenia
uratowanie
##ądę
osąd
internetowy
podekscytowany
poję
regulacje
jona
rozmyśl
wpadniesz
connie
beneficje
czytałeś
przygotowana
zgubił
sędziowie
otwartym
zapie
tamte
doskonałym
stwierdzenie
kato
białka
finn
sympat
##puł
nazwałeś
bankie
nauczyła
uciekasz
należałoby
gloria
luź
środkami
konsumen
##ciły
availa
żółto
pielęgniarek
dawne
dopeł
##sei
##here
przyjmij
zdobycie
##dowej
mala
##board
sądzić
słyszymy
masło
edition
strzelają
liga
umarli
game
odwrotu
garaż
udosk
ogłaszam
##rans
muzyczny
pojedyncze
robienie
językach
facetowi
##cjona
spadku
rybę
argumenty
natrafi
żartów
włączając
gospodarka
pojedynku
łez
pisarzem
##kum
##niaku
bęb
zapisów
dowiedzieliśmy
skie
##skey
naturę
franciszek
dos
bitwę
zwykłych
spowodowała
zadek
dwiema
spełniające
przyciąga
gwarancja
stróż
unia
przygotuję
kalku
bagażniku
##wnej
zapak
przyznaje
wyrzucił
##lok
zdrowiu
snach
##hh
moskie
usb
ace
kp
marian
jabłko
rozpoczęły
użyjemy
##arem
bezpiecz
twarde
formą
pokrywa
udowa
sprawdzałem
##reen
umowie
szklankę
##ansu
##giego
podesz
pochodził
##ving
javascript
france
oznaczają
##żny
pogadaj
niewinna
wymyślimy
wiedzia
działalnością
abe
##stce
najmoc
nieszczęście
##79
##wald
głupku
##ffrey
śląska
lecisz
zakwaterowania
trucizna
romeo
##lnię
chang
chorwacja
propos
holmes
##oki
rywa
przekła
avery
marnować
kluby
trzymała
restaurację
śmiejesz
dowia
zastan
staj
osiedla
dobie
odbie
staruszka
swie
podmiotu
wyrusz
niekompatybilne
##jest
aniołem
##ałyby
death
##akujemy
typów
##cara
sprawdziłam
urzędników
moleku
tucker
motocykl
martwił
trevor
rozmawiają
uwi
spodobało
obce
samopo
wrób
wieżę
smacznego
zbiornika
ukradli
szczepi
nieistotne
nasta
grą
spont
##potęż
##omia
komik
renes
szansą
kajdanki
najgo
nieuży
szczególnego
##ńczo
##muno
menedż
##86
dopre
zażąd
ofercie
błędem
przyjazny
uratowałem
wpływów
szp
przeniesiono
anek
##lawa
wychodził
obserwuj
zmniejsza
chal
##ralną
społecznym
złamanie
taxi
zaatakowali
sojuszu
zamieszcz
terroryści
##dujesz
zadłu
kłód
##darzy
phoenix
baker
czarnuch
kwalifikacje
cheerleader
##szne
pieprzysz
##zonie
belle
matera
rezultat
jemy
zakłócenia
##śnią
dorzu
światłem
wyjści
umożliwiają
jakiegokolwiek
prasie
zostawmy
##41
##owałbym
waży
uwięziony
rex
zima
dawn
##lizacje
naczyń
##fina
zagraniczne
wezwę
lotniczego
halucynacje
znajdujemy
poprowadzić
niebios
zaginionych
węgiel
zabijając
wyzn
byłej
szlafro
wypoczynkowa
swoja
zyskać
przykładowo
przedmiotowej
zainstalować
yi
##gość
janusz
drą
spodni
dzwonili
odpowiadaj
boskiej
alber
uhonor
uległa
biali
polecam
kopać
godność
podje
uczniem
atakować
wskrze
obiekcie
piłkarz
##ding
robotników
podtrzymy
jeste
krzysztofa
doradca
hea
zachodni
ekspedy
aids
wozie
gusta
zimny
doprowadziły
spotykasz
przytrzymaj
gą
zagraż
mos
ośrodku
wiewiór
sprawdzać
##słali
##med
zadam
carmen
wojskową
kwocie
minne
pożaru
##tions
zarejestrowany
mądrze
małymi
wycofał
wydawnictwa
niezdefiniowane
prowadzących
błysko
brzuchu
czasopisma
solidarności
##dc6
##onemu
wielbi
umiejętność
##steina
społeczną
zapomnijcie
fly
niefor
pochop
##lard
apokalip
donnie
niejas
pokażemy
przemysłowych
prezbi
przedsiębiorczości
idąc
lojalności
schronienie
398dc6
podwi
odjazd
lec
hebraj
superbohat
zamienia
bezwar
europejskie
środkowo
ewangelii
##dana
##91
czerp
tok
wypowiad
rezonans
##wianie
wielebny
kosmosu
kłu
instytucja
przebiera
kosmiczny
rytuał
wyce
##head
antro
strzału
sądownictwa
jedzeniem
dziwnych
sprawiło
cody
wojownikiem
wspaniałych
układy
ofiarami
światową
##83
promu
##letniej
popularność
partyzan
swa
panną
kredytowej
ciszę
peyton
inn
cyrku
odebr
schmi
9999
impera
ludowego
poznaję
tęsknił
##wak
świcie
chudy
wywołu
rodziciel
##wonić
widziany
tyto
twą
sumę
pitt
prywatną
spuszcz
uczestnicy
poszukiwań
##żną
oboj
watson
odu
niezgodne
japoński
najważniejszym
odstęp
##cking
usunę
silną
ustalone
przykrywką
którę
never
miejskiego
##czesz
długich
znalezienia
hodowli
vau
dotarliśmy
##cht
spałaś
chap
zawieźć
##anda
smok
będące
gina
joanna
trzykrotnie
obiecałam
froncie
cir
warszawskim
station
zezwolenie
ostateczny
włamał
##ffen
cool
spojrzy
xxi
##iłam
wrogami
biulety
torebki
filadelfii
odbija
wlicz
##tualiz
##wei
towarzyszu
##jak
królów
romu
zwierzętami
##stas
gównia
zbudowane
podobieństwo
fotel
ślicznie
niecałe
przynależ
kontynua
gotówką
przestraszyć
najtrudniej
małżeństwie
zdiagno
późniejszym
kręcą
uznałem
uchwal
harrachov
##lencje
chuste
usytuowany
rzymian
zaprowadzi
wzgórzu
##lów
mężowi
pomocne
zaobserw
zamordowana
inwazji
dezy
odnalazł
brookly
potencjalnych
onko
zachowań
chelsea
ukrzy
głęb
zdradę
logiczne
socj
krasnolu
byłabyś
majątk
legalne
jednemu
zabiorą
instrumenty
##pedia
meteor
informuje
gadał
potrzebie
skrzynki
dachem
hym
aktywnie
brytyjskie
jonas
mroż
1905
sztand
odstra
dani
ścian
brązowe
generałem
london
przesłuchać
danii
niskiej
wyki
obiecujesz
czyjej
lasach
całkowitej
##burn
lux
zdecydowaliśmy
siedmio
head
##ziom
zagraj
##ima
możliwością
wigi
##karza
libe
rewolwer
bolą
konfron
zazdrości
opery
barwy
mira
##bione
podkreśla
gdańska
warty
pomyślą
wyczerpu
##tton
łapie
rocznica
small
lodów
wykorzystując
walić
robocie
dolnej
bezpieczniej
hawaj
przybywa
stawkę
użytkownicy
##gacji
staż
zamknięcie
przechowywania
buta
działaniach
uruchami
drobnych
ubó
jedni
perspektyw
##żyłam
brałem
indywidualne
parze
równolegle
##pini
słup
istotą
ilustra
zabrzmi
raty
wyzy
niejedno
jaśniej
##dnienia
oficerowie
##kak
dwukro
potraktu
godzinami
najtańsze
wykonano
przybycia
czekola
rozkłady
duncan
szeregowy
vil
denerwuję
objętych
gracie
wodos
specjalność
senior
wyszukiwarka
przyczynę
laboratoryj
uzbrojenia
available
zapra
##nium
muse
spytam
##plar
##wiaj
mylą
##szkol
zakwalifik
symbole
##gwia
okolice
aktualizacja
jedźcie
zabezpieczone
czystą
sumienie
strzele
kryteriów
przybyliśmy
kampania
spisek
wyeliminować
marchew
modlitwę
porzucił
farmer
offi
poznali
salonu
gacie
potrafimy
rezyg
pomysłu
percy
odcinkach
egzemplarzy
generacji
ket
wybrana
gadam
sprzedają
gwałci
sobot
mowę
poszły
przeszkód
przyjęliśmy
sprawdzamy
tygodniach
operator
360
##wick
corsi
identyfikacji
porównaj
nast
##kujcie
rakiet
martini
modlę
zobaczyli
wywa
##organi
zeb
oddaję
##dnienie
pociągów
toler
wilkoł
wyniesie
przychy
earth
maxa
obliczenia
obydwu
ulicą
ewolucji
sli
##wanej
społeczna
stałym
jądra
obydwoje
luster
siedzenie
impor
zgodzę
wymyśliłem
wydost
nagrań
handlar
zjawił
sullivan
company
odizol
nieprawdopodob
liczył
monotype
hie
dniami
czwartym
ekonomicznej
nieznajom
bezsens
polowania
wnieść
żywa
##rią
sprowadził
milcz
wydarzeniach
wyjeżdżamy
wstępne
ujem
ograniczony
poty
##czyński
żyd
spontani
osobno
porażka
bush
postacią
czarnuchu
##orty
inwestycyjnych
hein
zacię
rozsy
goty
podkomisji
interpretacji
nauczycielka
przekonamy
początkiem
##ciarz
organizacją
rus
dez
urze
##nowej
##knę
##finy
naukowcem
##ążymy
ujrzeć
łapać
mcka
gospodarcze
kosmosie
pojąć
wielkimi
oblicze
raportów
jeffrey
sukienki
ukradłem
podważ
zaniepokoj
podjęte
pojechałem
arysto
jaje
powołania
podejmowane
którędy
##hard
lampy
zdezor
używania
olbrzymie
zdecydowała
tworzymy
##dywać
wcześniejszych
sławy
skrzydł
##letem
zaszczycony
poszczę
ściana
flir
widoczny
społeczeństwie
noża
wady
tygodniowo
olszty
hold
##gement
teresa
ukochany
ucieszy
niepow
rezerwację
##pione
##dią
wysłałeś
głupcze
rowerze
eksk
gotówkę
rozkrę
220
masłem
rozwodu
udzielić
wpuścić
pope
wynajęcia
##ałemu
podstawową
kostki
http
vas
##boy
związanego
opracowy
zimą
wysiąść
sierpień
subwencji
kojarzy
##faj
wtarg
siadać
dobi
radiu
kolesiem
ułatwienia
shepherd
mafii
makar
zmienili
przyspiesz
warstwy
##gard
##core
całować
cly
mety
##europej
zastaw
chodziłem
gwo
odsie
lester
zbiory
##terem
rzadkie
edwarda
ocen
seksie
wicemi
czynić
oznaj
##ziesz
występować
toalecie
buzi
dio
serb
##elli
przekazu
skuteczność
podają
##sonie
madry
silnym
tęsknisz
bogatych
drzem
broadway
##adow
pociągi
##piona
paci
wydaniu
blizny
wyniósł
spadko
przeznaczonych
dyskutować
koncepcja
aero
działamy
wymiarze
dvdrip
strzelić
zmieniłaś
mandatu
##rzyła
kwarantan
różowy
interaktyw
przewidział
ocalił
zamkniesz
minia
drugo
napędz
instrukcji
statusu
zwymi
##endri
posiadłość
horyzon
spły
bull
twarda
##lander
świętokrzy
##wczej
##łatwiej
kolanach
ceremonia
publikacje
999966
rocznik
ustaliliśmy
certyfikat
delikatne
##gowi
słyszeli
##dowego
##lingu
naprawię
lokalnym
wyprzeda
kryterium
sztucznych
##towali
potrzymaj
zaktualiz
ciągnie
liczbą
odkurza
najgorsza
##eks
przeżycie
eksplozji
toster
##eryl
autorytet
śliczne
wykazuje
aktywne
zrobiono
zasiad
publiczność
zabezpieczeń
siódmej
zha
reynold
podejmowania
##mom
##cic
wicemar
rozpoczęciem
koszuli
szósty
skargę
zus
pieniądzach
martwcie
odnawia
jednoznacznie
najłatwiej
ruszył
branż
komunikacja
mutan
sztab
podchodź
##iło
berli
seksowna
nauczyłam
pochodzisz
regionów
rozejrzeć
istotnych
doposa
pograni
przestałem
wicemarszał
przelecieć
kardynał
wydano
##rough
dziwo
##rol
równowagę
zdrówko
gret
##dos
drogo
przemyt
prl
zatrzymajcie
złotym
spisałeś
koza
przemówienie
utrzymywać
wracał
politycznym
negatywnie
wpłynie
protokołu
wliczone
zdech
wielkanoc
furgonet
spływ
wprawdzie
zakło
wybaczysz
najważniejszą
zbigniew
czterdzieści
##żywszy
odezwij
##rał
klientami
nagrodą
musiałby
partię
przesunąć
wuja
veronica
tenisa
content
absolwent
##ggins
królewski
blondynka
##hart
##ily
całymi
mięśnia
surf
jarosław
poczuje
skandal
żeś
sztor
melanie
pamią
elektrycznych
##zony
samoz
delikatna
iwan
zdobędziemy
##szość
rękoma
##lecie
uciekniesz
##linę
spadkobier
rezerwacje
ling
przekier
pozytywny
stworzone
skórz
przybyła
zielonej
rękawiczki
pearl
poznań
ograniczyć
odcie
harmonogram
ukochana
krokiem
##ałsz
opisane
poziomów
opanować
pudełku
gorączka
oznaki
wydostaniemy
znę
286
porzucić
1913
funkcjonować
obwinia
zwykłą
pospieszcie
teraźniej
bogini
##nkami
wykonywane
strategię
wózku
nowotw
spodziewał
dupki
latyno
oślep
dostawcy
saul
świadomy
kolekcję
ekspon
wyborze
skopi
uspokójcie
pojemność
powiedziec
lubiła
skończą
plaż
opuszczę
wysiłek
palisz
zapomniała
masturbacja
##ionie
obiektem
mna
kwiecień
rysunek
przydatne
##rada
stuart
zatoce
opóźnienie
##owisk
przejmuję
spóźnia
tłumacz
lewym
najstarszy
luka
##stitu
dodatkowego
szlaku
alba
nazwała
szczęśliwą
szykuje
włóczę
wzgórze
devel
azjaty
posiadasz
##onau
polecieć
zadzwoniłam
podpisu
320
wyłączone
sparaliż
##f5
whit
zajmowała
priory
spóźniony
towarzysz
cerkwi
pobił
##dzicie
praktyka
wytrysk
administracyjnego
ambasady
155
wiosny
czesc
realne
powtarzał
jaffa
żółte
ewakuacji
zagrożone
ods
stosowne
denerwuje
michi
skrzyni
zamordowano
moście
gównie
imie
##izm
kogu
boju
przyjmujemy
zaprojektowane
##92
artystą
damo
wyod
przyjaciołom
wsią
they
ostrzegałem
##din
posi
wezwie
cassi
tedy
youtube
asystentem
gospodarczą
układem
wyniosła
obdar
stałej
przyniosłeś
technicznego
airp
dopilnuję
##city
dawson
samochodowy
upośle
erne
niespeł
prawną
powiedziałabym
operacyjnej
edycja
tęskni
węg
stawiać
mcgee
maile
chwał
zwana
próbowałaś
klaus
##gby
zrobie
chile
parlamentarnych
##bani
oglądał
uparty
union
znaczące
karalu
zakwestion
muzyce
rozmawiali
spojrzę
chrzani
plemię
ciekawi
techniczny
##poziom
przeżyła
wróćmy
druh
potrzebowałam
północnego
srebra
nazywali
wszcze
zastrzelony
współczesnych
country
wide
##bał
wyemi
specjalista
ołtarz
ukarać
##mistrzem
mężatką
powiod
rządowego
##tana
##landa
studium
propag
całkowite
##logicznych
podążać
ciek
opal
okale
niee
zielonych
global
##nus
nadaj
głupich
107
operacyjnym
nowoczesnych
poślubił
corsiva
tragedii
gdańsk
poezji
ustana
rysunki
algorytm
podpisano
##chań
wywiadow
otaczają
jednoczes
składać
##nosci
samobójstwa
polityczną
frytki
rumunii
##plat
przeto
zmianami
śliczny
##czynią
willi
##biu
odezwę
niemiecka
otrzymania
rodri
żegnam
najpotęż
kolegami
łowie
zanieczyszczenia
sanktuarium
niebieska
rządzie
rdzenia
aktywi
uważany
singa
nano
zmieniono
właściwych
apartamentu
koncerty
polityką
want
##ile
padać
##gnąć
##fus
rzuciłem
wyodręb
##dacją
1900
dostawę
zaliczyć
witaminy
kilkunastu
wpłynąć
oddzwoń
twych
zdecyduje
nastawi
barnes
używanie
pamiętnik
odesłać
usunięcia
##95
##hod
obietnicę
zwycięzcą
gniazda
rety
zrobiłbyś
spartak
##ownej
lej
brudny
bernard
mier
śmiertelnie
prostych
##orium
##rował
znajdujących
gazetach
odsuńcie
klątwa
ustęp
##szonym
##iatu
##szonego
pomp
błędne
momencik
indywidualnie
astronau
zawodnicy
łaskę
owak
licencję
kwant
spóźnię
industr
wybrano
sabat
##tyzm
##els
dzwoniłeś
##ello
##lonych
komisje
##cające
autograf
mokre
klinice
recepcji
##dych
klubem
##mund
##pieniem
##odor
porwali
hipokry
bmw
krajowe
działkę
poszczęści
komisją
doradcą
##baj
śniadania
sekretarzem
copyright
przerabia
poradni
zmywar
##list
odszkodowania
force
powstrzymy
ludzkim
wschodni
niestos
niższe
przeciwnik
##iusza
fizycznego
zatrudnił
starania
##rowany
bute
obrońcy
portre
umożliwi
współpracowników
żyj
hack
zgłoszeń
przestawaj
występowania
franken
nastąpić
astro
miejski
miewasz
chęci
zgubić
##fli
niniejszej
kolejka
##cjonalne
odzyskam
zdolna
kuki
##waną
duma
jazdę
letniej
##etka
chorwacji
miejscami
niepotrzebne
nea
dojdziemy
nadać
planowanie
szczęśliwym
priorytetem
bożym
układów
ktos
serem
wilki
niesp
rosyjskich
protek
##town
szary
głupiec
ratunek
czarni
odsłonię
przedział
nadają
zastosować
wyszłaś
żołądka
nasy
massa
spółdzielni
zaryzykować
dzieciństwo
divi
wykorzystane
tybe
przygotowani
##dziw
willy
rozwinięcie
barto
synago
dyd
cholernego
uderzyła
roth
reduk
##lowie
zdobyli
postarać
uzasadnienie
lion
wskazał
omawia
1911
paulie
##nig
pomarańczowy
istnieniu
nosiła
taksówki
rozkwi
granicami
złamałeś
cierpisz
paranoi
rozgło
poszukiwanie
podjęto
pedał
vana
##ległej
rdzeń
podjąłem
dziób
zimy
kuchnię
chronią
francisz
walizki
podejścia
oglądałem
##wigi
kompletny
serena
umieszczony
##istą
wydatk
niespodzianek
traktatu
krajowy
chru
powali
przejmujesz
źródł
ech
erin
wrażliwy
ładną
##load
skraju
##ov
##oter
niewielką
facto
reguł
centralnym
wpisać
##gnaj
koc
saper
##rou
zważywszy
esto
pija
użyję
mei
letnich
traktują
odpowiedzialni
nadzorem
zbiorów
douglas
archer
pala
ordyna
potężne
kartki
bernie
zrozumiem
##rump
łatwością
case
##jsc
finansowym
płatki
bezrobo
##bp
dodania
##fikację
międzynarodowa
konsoli
giń
krążą
spełniają
wpadłam
należały
warzywa
brytyjskich
##sieur
klap
muzycznych
ciekawych
przebudowy
tropika
##odob
szlachec
przestępcy
korzystają
burz
datą
przekonania
artykule
modlitwa
zamieszka
##liłaś
przeciwb
powal
osiedle
tablice
każą
zajmą
enzy
##oshi
powodzeniem
ogranicza
oficerze
##dzające
preferen
pozwolili
nienawidzić
koszula
niedźwiedzia
poprawa
czerwono
francuz
hudson
thomasa
odkład
bridget
podano
chirurgiem
##letnia
problemach
obiedzie
dozna
hamilton
##twą
zaprowadzić
komo
##fikuje
##ściera
małp
league
niemowlę
##zacje
zachodzą
potajem
##gener
programach
kalibru
wlasnie
sabo
rozwalę
przekaź
robót
widze
##infor
zechciał
łatwiejsze
##gne
zorganizował
rozpal
oglądania
bań
nagi
##leen
tomasza
queens
okolicę
zakłopot
łowi
mieszaj
wcie
internetową
podawać
##kacja
ucierp
martha
wspólnym
zawieszenie
naturalnym
postrzał
wysyłki
herbu
zgodzisz
województw
fisher
lina
wampir
zjeżdżaj
kobietom
uścisk
wyższym
kempingi
farmę
##nov
dywizja
wędkar
odjech
piła
145
jago
plecak
współpracownik
##cil
rozbie
rafa
odezwie
dokończ
##dliśmy
kolano
obróci
##tobli
jelita
przero
pierwia
zaczynając
mojżesz
pkb
##stor
poderż
ago
realizować
napoje
bieżące
broszu
kupisz
pieśń
parlamencie
zabita
kropka
ekonomicznych
odpowiesz
starają
kath
nieprzytomny
biegun
zbieramy
deklara
otrzymują
##tujących
pierdolona
##latora
zasadą
miranda
wykorzystywać
rodzinnej
testament
wystarcza
wszelkiego
ukrzyż
wenecji
pytałam
pływa
##zak
siedziała
głuchy
kredytowe
pojechali
bliż
dotknij
libera
great
lądowanie
żądam
obwodu
##cjonali
moda
składam
wnioskodawcy
klanu
##ridge
nut
flam
nem
wio
żeglugi
kapel
realizowanych
cenny
##dzkę
sou
kierunkiem
goli
##ziemy
zachowaniu
zaległości
bliskiego
działało
zebraliśmy
gel
##plan
regina
występy
mięs
brzmieniu
rzek
szkodli
wypróbu
nierów
##iago
magdale
zamykamy
dostawców
stworzona
identyczne
admirał
boleć
aar
rym
##cana
##acie
autorskie
urzędzie
podziękowania
iem
##ask
sądowych
mogąc
przejściu
##lington
pretek
franco
wchodźcie
dent
stołów
##plication
nieuch
przyznam
przyjmować
cyrk
sprzedam
wypch
zaost
scotty
nauczkę
członko
##kument
maryi
królik
wyrażenie
drobiazg
football
evel
próbek
klasyczny
kontr
grube
wyjątkową
##cock
freder
istotnie
udawał
należysz
rozwiązany
hurt
##racać
##niosą
wezmą
spike
przejebane
przywódców
popołudnia
manager
przyśpie
unice
rzymsko
jedwab
kubek
miesięcznie
##lai
faje
deton
igra
udajesz
weeken
niewiarygo
matry
gierki
management
##rzewodni
dyskret
bezpośredniego
nash
odpowiadał
wygranej
księżycu
ską
latami
spre
jestesmy
austin
koci
##nger
niezwłocznie
idealną
dokumentach
włodzi
propagan
finch
widoki
dydakty
oskarży
zerż
ubrana
naboże
zdać
przyjaciółkami
zen
automatyczne
fiut
##gley
obyś
zabójców
katolickiego
naciąg
foreman
butelka
grała
wykrywa
biec
anal
skip
sly
autem
wiedźma
przyjęli
jaszczu
kazach
biogra
wynosił
klasą
pne
sensa
piż
praktyczne
talerz
prostej
autop
zaczęto
nieuda
bohaterowie
zapyta
spłacić
prostą
targi
dowodzenie
szyby
##czyki
minera
oddany
gadanie
hobbi
##stuj
dumą
dyscypliny
##rotnie
odkryliśmy
twa
jerozoli
yale
oboz
kłamią
clyde
##vet
jun
zębami
##cany
##ryczne
najdłuż
krajowa
urzędów
imion
wymiot
dziekan
sieroci
graczem
zwróć
pójdziecie
naprowa
pedro
rosyjskim
stworzyłem
rozprawy
naukowiec
budowlane
masyw
barok
wykończy
doktry
przekonanie
ima
##atorzy
rosyjskie
pota
rozpacz
##án
bosko
##illy
aktorką
disney
dozn
śląskiego
gio
panienka
petro
##sper
użyciem
##pert
radą
speed
zniknęło
strefę
rozwalić
cytry
prezentacja
teorie
##usie
właściwa
działała
satelitarnym
oty
podwójnie
dziekuję
spisku
sheppard
nowoczesnej
śródląd
tymczasowo
garden
karma
dwuosob
naleśniki
bractwa
szyj
##kal
waw
obserwował
zdefiniować
przegrać
rozsądku
powstać
rezydencji
vanessa
poćwi
słowe
##ini
jacek
marsa
monsieur
##zekw
zaczerp
malarstwo
wyjąć
energetycznej
rozkosz
monitorowania
pomogłem
wykładzina
sary
gramaty
hoff
teksasie
objęcia
pozbiera
napisałam
ranek
współczuję
warsztaty
much
światów
mówie
zwar
dc
cul
suknię
naczelnego
chłopakami
przeprowadza
profilakty
wypadł
nauczycie
szafy
finansowy
wytrzymaj
bieżących
##onąć
dołączy
świadectwo
tłumaczył
striptizer
trójkąt
multime
##73
odgło
buk
wydarzyć
komendy
przysługuje
willow
postrzelił
wyznać
pochodzących
chcieliście
pistoletu
records
zdezorient
syrii
wykwalifik
oficjalna
sprowo
ładunki
##rium
##anti
absurd
kochanka
deklar
##trzymujesz
zapobiega
##rory
our
powiedzieliśmy
##onoś
102
międzywoje
żartuj
campbell
spieszyć
usuń
podejrzewa
progu
zagrożeń
szczerość
zrzucić
brukseli
rozgrywki
reprezentował
##zod
biegów
siedli
wytłumaczenie
valley
sedna
założony
padło
wyrafin
izolat
szturm
stanem
brater
telefoniczne
pogawęd
##kla
##waz
poddaw
dowieść
wydawnictwo
zatrudniony
troskę
rozrzu
niszczyciel
kowboj
wiceprzewodni
magię
##funk
kilkak
tajna
wywali
prezbiter
telefoniczna
przechodzę
##fic
zachowa
##dence
##cowe
czynią
podasz
barman
umiał
stanowiskach
hrabiego
bis
uss
naciska
elasty
eksklu
nastawienie
tory
##fizy
szara
jakuba
posłusze
podobnym
jedynymi
przestrzegać
alei
wesel
żadną
##hop
smród
tytuły
organizuje
ofensy
postacie
zlecenia
jeździe
zaaran
wymyślę
poinfor
okolic
fon
realizuje
stom
oczyści
twórców
wild
marcel
zapomnisz
kid
##zej
straciłaś
bliskie
##chirur
##biona
zechcę
jezusie
wylądować
wprowadzony
atrakcje
monika
##organiz
godne
weekendy
księstwa
vivi
bestii
vicky
żołnierzami
##larne
przeszedłem
wypadki
brandy
czwórka
ześ
##71
bezcen
przedmiotu
administracyjnych
azy
zastrzy
##cery
bostonie
indianie
wysyłać
bólem
dojrzałe
włamać
istotna
poeta
prześle
wiecznego
##ryl
ogół
gwiazdkowy
traktujesz
niedziel
skarbów
południowego
osady
polować
wc
##dep
zadrap
##rymina
leciał
dwight
mckay
rewolucja
ośle
metodę
psychicznie
##śliz
francuskich
towarzyszyć
##kałeś
prowadź
porwać
integracji
ponownego
##dując
odpływ
lidera
uwalnia
zapłacą
personal
artyle
spierdo
porą
właściciele
autorskich
sprzedałem
śmieje
waltera
filmowy
zapachu
gris
uważałem
popę
oszustwa
jr
##paster
zdjęciach
znajdować
pokojach
kozi
##kajcie
bruno
ós
deli
blokady
frankfur
##kaut
boston
marvin
ward
porównać
siłowni
popracu
przydarzyło
##gun
##ий
przełę
róża
sprag
bawił
podobała
poprowadzi
sukcesów
chemicznych
omar
wstaw
##tina
##byl
##mijmy
chodż
dozor
stworzyli
digi
jał
używaj
przeszuki
panom
gleby
rehabilitacji
używana
torres
niemcami
##fs
emocjonalnie
wek
##rzeli
normalnym
bost
zakochałem
denerwujesz
odchodzisz
skoncentrować
zamknięcia
sprawiedliwe
włamania
##komp
czaszkę
antido
rozśmie
ustawione
uczyłem
numera
sądzą
szatan
przyjrzyj
lodem
era
wywalczył
oblicz
techniczna
zrobiły
zwalczania
marynarka
taniej
religijne
taśma
wiceprezydent
grab
spóźnimy
uszkodzeń
podnoś
duszpaster
##szonej
żyjących
mówiono
bramki
silni
humanitar
starożytnych
sentyment
zniszczę
podziemia
dogadać
lwa
balet
zatrzymanie
flag
resortu
autobusie
about
współczucie
secret
bij
trupy
cristina
zdał
przekazuje
sop
myslisz
dak
##zza
##lips
zamki
nadał
medale
rolnicy
płynąć
podrzucić
schemat
potrzymać
produkuje
ekonomii
arenie
pracodawców
przeciwból
cwania
ukrył
trak
przejęciu
julio
seniorów
niewydol
pielęgna
małżon
czołgów
niezależne
hector
kuchenne
wskazy
lilly
wypy
marzec
oficjalnej
operacyjny
wojskowa
trafisz
zniechę
wyborczej
blond
wyję
odmieni
##nistą
##ckimi
dolega
adrena
dochód
przeprasza
ent
obejść
softw
zachodnie
zwycięzcy
negocjować
##zało
wyższą
keller
soft
buduje
przejmie
##redy
trzej
wpląt
korzenie
podatkowe
wystarczające
ulga
krym
domaga
##dziliście
##czyc
sepa
kathy
czynów
eksperci
filipi
czwartego
długu
rzucę
pytają
szybę
łóżek
ostrożności
antropo
poduszki
przekonał
biznesowych
narząd
##czącego
rozumi
pogratu
mk
gryzie
przedstawicielami
pacjentka
denise
podekscytowana
spędziłam
suche
odpar
uszkodzone
zgubiłeś
mężczyznami
dolina
##skrzy
świeżego
kościołów
papierze
podłogowa
zasłużyłeś
mądrość
##waje
zaangażowania
bour
bezczyn
prośby
dziedziny
naczelni
##lanych
tajny
kłótni
zważ
obwód
równe
wykonuję
czułeś
zarzut
antidotum
przezwycię
twierdzy
wyznania
dominik
miękkie
jima
##owate
##arne
##zieni
misjon
wprowadziła
##lation
domowa
usługa
przedstawiona
częściach
spędziliśmy
lewy
wątpliwość
zmodyfik
hus
społeczno
luksem
przychodów
latka
piekarnik
toron
foto
łodzie
złotą
frx0
dokładny
dere
iris
upra
##78
odzyskał
sprytne
darcy
sando
akceptuje
swę
niepokój
tyły
przeciwników
zwyciężył
okular
przywiózł
późniejszych
charakteryzuje
strzępy
pozwoliło
przekroczyć
##iser
aresztowano
korzystne
##góle
wyrozu
poryw
powiesić
anten
sawy
rządowych
komentarzy
handlowym
wnik
talen
dystan
sidney
podane
insu
ciągnij
zrealizować
wito
zniszczeniu
ludwika
carlo
promot
##under
dobrowolnie
ane
##rwer
mall
żydem
chłopa
osiągnęła
ferrari
tequ
wierny
opuszczać
wogóle
eksperymenty
namy
repli
martwym
przychodził
zmag
pozbawiony
cykli
zryw
przejęcia
colin
liczyłem
nakazał
kochałeś
robbie
nalot
nogą
mongo
medyczną
##ździ
marmu
głupim
##miony
##ciągu
przestron
miot
napisem
bonus
##kina
##cape
ratuj
opracował
saudyj
szybszy
suwer
małgorzata
dlu
świecą
pacyfiku
kee
popieram
sci
zalecamy
infekcji
studyj
chorąży
opuścili
##niaki
morskiego
abon
zachwycony
pozor
nicka
##grafię
bernar
auhe
powstają
wyciągnie
auhelawa
konsekwent
infekcja
tradycyjne
księżniczki
założona
##piłem
zestawy
109
odbicie
blues
soku
walczę
drania
udowodnij
podkrę
nieskończono
kukiz
phillip
opadów
##akuje
strzelni
porwania
pokryte
ucieczce
głębokości
som
doprowadziła
komisaria
włączył
mozemy
jeziorze
##wac
fs
uroczystość
bogatym
twym
230
dialog
akcjon
mężu
otoczenie
przekonana
standardowe
##nister
żydowskiego
rycerz
strukturze
relacja
##hoo
błą
june
wydałem
oglądanie
odwali
peggy
pozew
dorów
wind
lepsi
##book
wartościowych
pieprzenie
ulubionym
atmosferze
luthor
męskie
##gru
działających
talentów
ruiny
odwaga
zamawia
pobudka
wyjątkowym
deklaracji
##lałem
rozład
wojenne
prywatność
jesieni
szwad
##rent
osiedli
##tusz
gine
zwykłego
intencje
cieszą
skończyłaś
gładko
oszczędź
położenia
##kcje
tyłach
wizyt
wzmocnić
ród
pokonu
krow
##nois
pensy
przeszli
odpoczynek
pielęgniarką
championship
##otą
unijnych
zbliżenie
corpora
przydałaby
niedopuszcz
ivan
chil
jejku
zawołaj
ogólny
plusk
repertu
życzeń
##hamster
##dad
scha
wielce
skonfi
autorzy
łup
hara
potwierdzają
zakazu
mount
brakiem
zaproszony
liczyła
odłoży
##logy
skorump
brzos
kosmicznej
xhamster
ipo
##phone
wyświetl
kilkadziesiąt
włosach
windą
stwierdza
wprowadzania
sprawca
wysłano
sfałsz
gospodarczy
krąży
temperaturze
obojętnie
instrukcja
html
##dnymi
tane
charlesa
morderców
##cut
pur
szeks
pakietu
##dzający
rozwiniętych
sycy
wyszkol
##szoną
powtórzę
##cząca
stoł
okrucie
formuły
składek
czes
daph
spluwę
jung
fajerwer
band
parszy
trawy
przeczucia
depresję
##aly
przeciwnikiem
nastolatki
podsu
uzasadnione
okręgowego
##kowska
1907
klep
wypę
przyjacielowi
udokument
zboczeń
##entach
formowania
##ronu
początkujących
wytro
robaki
zepsuć
roose
##bieństwa
świeżym
poleciał
kilkakrotnie
odwiedza
egzor
bing
senacie
długiego
karai
opakowania
szukanie
apetyt
płacił
krzyczy
wioskę
##enos
##trzymując
wymaz
paczki
ther
##hiku
airport
płycie
pomijając
##eto
cyfryzacji
zatrzymuj
##rez
koszyków
piąta
ekscelen
szekspi
muchy
miałabyś
szuf
sprzeczne
odpowiedzialne
shop
walczyłem
gumę
astero
awaryjne
##łeć
##mira
zdrajcą
programi
odkryto
przestępcą
francusku
dwojga
https
tadeusza
##rera
okrutne
elżbieta
dead
wybaczam
uważacie
jedności
sąsiedni
podniósł
sumy
kolegą
podświado
wiosna
msz
foster
misia
ustabi
randall
uznano
bydła
spowodowały
mężczyźnie
obudzisz
jacques
niebia
kulturze
dochodzą
##niczą
wysie
butach
telefonem
szefowi
medyczna
postanowiła
przykre
ochrz
makaron
zapomnijmy
nici
położeniu
##alth
zamkną
wygrana
jessie
walterze
redaktor
gwardii
narodzenia
rządowe
poddał
sookie
bezpiecznego
stado
czyją
##zera
pozostałymi
##letnim
przyto
weł
niezmiernie
wciel
##ałyście
postawa
dorę
psychia
politechniki
gaj
chińskiej
określonym
sądzicie
##ktorzy
zatrzymany
smutku
sekretarka
kaplica
illi
cofnijcie
zjawisk
kolegę
##działać
gejów
aniołów
rozleg
wypuśćcie
popieprz
wytyczne
piór
optymali
wysłałam
jezior
##kowałeś
pazu
omal
zyskał
skala
akademia
najbo
zacznijcie
kompleksu
odbierasz
##76
##ße
##sau
grzeczna
wehiku
##leton
bostonu
szkolnych
zejdzie
stephanie
krowa
poznaje
montażu
politycy
lynette
informacją
przeprowadzonej
gwizd
funkcjonują
żenu
spoczynku
monaster
stacy
danielu
placówka
kapła
##ływać
zakąt
należę
księdzem
klasyczne
evelyn
toronto
poe
spogląd
zajść
habili
pizzy
wzorem
księgar
sądowej
nieszczęśliwy
##pez
rush
krześle
str
kono
poleci
salom
jenna
##owem
bloom
strumień
denny
afganistanie
zagospodarowania
lanie
dworu
koleżanka
pastor
pradze
biedne
manchester
okrutny
stałą
mówienie
obiegu
etatu
ciągłe
święci
whiskey
przyjedź
wyczucie
rozło
konwersa
sach
ścieżką
immuno
capri
czynnik
kredytów
azot
syre
spotykają
szczegółowy
wylat
sierżanta
dzielny
swat
##dentów
ambasadora
##tujmy
podkład
wyspe
##ałabyś
zdobyłem
tiff
wojownika
wykopali
##ująca
grzyb
zmuszaj
osiąga
pośmier
empi
przeżycia
##bieni
wynale
niespokoj
nastep
aukcji
blask
porażkę
botani
darmową
wszedłeś
bankru
##hem
bezpiecznej
diabłem
dorosła
bieliznę
103
pierścienia
##osie
chwilach
urodziłam
uzasadnienia
##bacz
określi
##01
cruz
ostrzega
##letnią
zmieniłam
struktur
prostoką
uzależniony
##jonalnie
##nery
przyleciał
donny
obchodzić
gm
wyjątek
mrug
zaangażowany
zadość
##suje
mienia
ellis
ochroniarz
nkw
urodze
obraź
zagubiony
fm
lecia
##niany
rozgryźć
bezprzewodowy
lżej
zamienił
oceniać
śledztwie
odbiorców
orto
maszynie
locke
##ńczę
poszłaś
kasetę
detektywi
ziemniaki
ogromnym
przechowywane
pielgrzy
##rujemy
zauważyłaś
america
vs
odje
angelo
gwint
##liwością
numerze
grupach
niewier
tower
obniżenie
rejs
przytul
przybrze
##antami
clarke
1906
słuszna
domowy
asystenta
zabierzmy
znajduję
zaszła
brali
ujdzie
zbawi
odkryli
przebaczenie
incyden
prowadzonej
wystawić
wystawił
noclegi
linux
gościom
ojcowie
##ater
##zamknij
##rzałeś
sprost
koronę
dopływ
przedstawicielem
lynn
wdzięczności
solar
orzeczenia
zwolenników
aspiry
krzyki
zgłaszam
##cowych
czworo
##obie
chemiczne
##kierun
wicemarszałek
720
##wami
rozpatrzenie
##kody
porządny
zupę
dupka
##dym
chłopcu
drogowej
nagrał
najstarszych
żand
zabijasz
edmon
nadzorczej
stadionie
padły
dostawca
pomocyzamknij
##rkę
dziwkę
przestaną
podcze
błagać
aparatu
zdążył
flyn
kretynie
rywalizacji
przeleciał
ock
francuska
ekskluzyw
boze
ruda
użyłem
cum
kraść
podobną
łuka
rzeźby
zdrajca
##piła
bax
pomiesz
niniejszym
kaliber
uzbrojeni
lubicie
kamerą
rezygnacji
udowadnia
##owszech
budynkiem
nazwali
przeniesienia
hul
##lap
narzeczony
jasona
buddyj
uprzejmości
przewlek
powszechne
wampira
wykonują
regionalnego
przelot
rodzą
ciemna
węże
eksplozja
pytała
jednostką
odtworzyć
przeszłością
poddam
spokojne
lewe
wrzucić
dostosowanie
katarzyna
palę
składania
powietrzne
łuk
##anemu
smutno
złapany
koresponden
całodob
przetrwania
piątk
łok
##ymo
rein
polscy
buenos
odrobina
odznaki
##arką
zgodą
zadziałać
santiago
##owami
środkiem
hanni
bezpośrednim
inżynierii
siadajcie
jerem
kulturę
trzymałem
dostosować
atry
piąte
księgach
ukrywał
komunik
##atę
tytułów
inwent
rei
patrzymy
budowli
potencjału
zbadanie
odłącz
gospodarstwo
powitaj
fartu
obserwują
##98
wskaźniki
przeszły
spisk
##biasz
zdrady
poszukiwany
magiczny
puła
szafki
goni
mroku
pudle
##isen
koktajl
działki
##logiczny
odbij
sierra
głodni
wydawca
spodziewa
lęk
koszulki
słodzi
wepch
laską
klasztorze
quent
spór
litur
kilkaset
henri
ltd
odrodzenia
nkwd
obwodni
tamtę
babcią
1908
szafce
##nat
odosob
##berry
absolwentów
niedawna
deficy
skakać
##dur
schrzani
pozdra
platform
zgni
kierunki
przeżyję
pozwalam
najprost
adria
##illo
kampu
wyglądu
kolejkę
różowe
cyc
męski
twórcy
wykorzystują
tamtędy
dziob
osobli
##lujemy
organizmie
komendancie
magister
shelby
##gger
królewskiego
dzienny
aś
zagraża
rodzinna
bateria
##cket
ostrzeżenia
flotę
##ado
awansu
zatrzymania
przybory
ome
szła
pozostawał
##arkę
##sione
przypadkowe
lore
##emon
sound
zawrzeć
niezwykły
farby
awarii
brod
popch
potwierdzone
rozprowa
zainfekowany
słuchają
battle
nieobecność
pay
##pela
##niętym
życiowe
odmawiam
zaniepoko
czadu
zatro
ubaw
##nując
bezwartości
zaaranż
pracowi
jednostce
baczność
forre
hrabstwie
koleżko
##ksi
##kur
agresji
angeli
zbawienia
rzymskokatoli
związanym
czepia
karcie
zabrzmiało
##geni
stroje
administracja
fiona
##niszcz
zdradza
gitarzy
kupimy
##alla
##alnia
jeffer
kapujesz
uspokoi
wulkan
klaun
newsletter
chorzy
koordyn
tętno
michigan
##etkę
drewniane
poddaj
pogodę
zniesienia
##syjnych
aktorka
przekazywane
karkonosze
zdobędzie
mf
toy
trudnej
zrobienie
wyłączony
odnotowano
karą
drogowych
spiesz
0000ff
wczorajszej
biurem
oświetlenie
science
dawajcie
obywatela
denerwować
powstaniu
food
reforma
szeryfem
aktualny
stevie
wilka
rejonu
pochodzące
kartote
zasługa
komunikację
wszechmo
sony
akty
##obraż
soko
podwójną
##ruz
zycie
helena
nieprzewidy
poprawką
##roj
wybieramy
cukierki
##bona
oświatowej
nocnej
potrwać
##stanę
four
zająłem
##dalać
biurokra
roosevel
##kowałam
##cou
złotego
szczeblu
koli
##okre
brunetki
bękar
otrzymywać
rozwiąże
domowego
poważnym
chirurgii
etyki
przymie
ugodę
płeć
##edu
paczka
hospi
##byśmy
institu
eleanor
##arce
czlowie
##aninie
km²
pery
maszyną
zastrzeżenia
dziku
odsetek
wyjdą
wliczając
ore
lotniczej
mogliście
andrea
sakso
wykluczone
przyjechałaś
vaugh
planują
wystawę
podobni
ośrodki
kadłuba
giu
tworzone
wywołań
rozprasz
lokale
łazienkę
##chiwać
popyt
pożegnaj
zagwarantować
przysp
##szar
wykorzysta
kak
cechą
czystego
##ika
minim
nicholas
wstanie
rządowi
lubiłam
tatua
partnerze
kings
szukajcie
daphne
wentylator
aresztowana
ślubem
przeraz
koncercie
dotychczasowe
postrad
stawiasz
laurel
##zowana
nacie
pawi
czekolady
przywieź
nawa
##skon
zemścić
regula
karton
radioaktyw
przyła
kredytu
trenować
obciążenia
dawid
104
johan
spółkach
rzeczywistością
zarobki
##dala
radzieckiego
pogarsza
rebeliantów
starbu
##szące
friend
trzęsienie
wspólnika
żałował
golden
akcjonariu
najbogat
staraj
komed
światowych
zniszczyli
żywą
##cięż
mandy
brzydki
rozgląd
narzeczona
zasłużyłem
barcelonie
dunham
boyd
złago
przegrałeś
bezużyteczny
108
claude
napisali
suki
centre
kłamstwem
przybyłeś
ładunku
odniesienia
czołgi
samorządowych
poma
federalnym
prezentów
zainteresowanych
odrzucić
legitym
750
okłamywać
##przestrze
syryj
##rujesz
zajdzie
obudziłam
określonej
##nuje
rzuci
peni
miejska
zaopini
rozmawialiście
zac
ciekawości
miejscowy
mercedes
walentynki
zsy
tajnej
runda
szukała
zepsuł
napędu
lesbijką
złapaliśmy
stanowił
martwiłem
##gować
##stri
zapowiada
kierowcę
luis
posiadamy
wstępie
kupujesz
dziełem
grali
dragon
słoneczne
##cowej
mość
rozdar
testamentu
zabijał
przyjadą
festival
podręcznik
niepro
świateł
śmiej
wypal
dałbym
piłsudskiego
##czała
winię
antar
tematów
zwierzchni
przepływu
słowach
szukałeś
paja
wydanej
szeroką
califor
finanse
mylić
wodach
lindsay
czos
psl
spieprzaj
wnie
warmi
zdecydowałam
sukni
pióro
##żyliśmy
uw
zabiliśmy
##derson
wykonywał
sprawował
bp
##wskich
garcia
wiersze
edukację
##niczym
sprawiasz
##eda
zachowaniem
retro
hiszpańskiego
bezra
ścis
nalegam
goku
##czącym
schro
aptek
##fikacje
szangh
podgrze
polecamy
otwierają
zasypia
wpadnij
recenzji
1909
obrońca
przypły
sprawcy
klawi
sprzedaję
napływ
pó
rozwojem
sędzio
zaoferował
abstra
gołą
odbierać
parzenia
poświęcenia
znajdujące
avi
##leta
dyrektyw
denver
deski
zbiorniki
wyszły
danielle
zać
zatra
##roczy
pójdź
zaleca
bogactwo
źe
ograniczona
torna
twórcą
ustalenie
wymawia
ogłoszono
piątki
software
aga
marcina
ukryta
państwach
zwij
dyskrymina
pośpiech
odprowadzę
rza
raw
każesz
adresy
drobny
helikoptera
poważną
##działach
narodowości
gnojek
zdążymy
głównymi
evans
kupili
jig
zapalenia
pusto
przekazuję
wybrałaś
simmon
załadować
kich
gadają
uprawy
##ffffff
cenach
burt
ekspert
wypowiedzieć
oprogramowaniem
scotta
bielizna
grania
tia
##liwi
zauro
oddaw
##feld
przydzielony
##ée
jajko
odporność
museum
reid
trudniejsze
monitoring
wsiąść
ofierze
uwierzę
##niaków
legislacyjnych
czarnok
ewakuować
półfin
brenda
zawdzięczam
czystość
respek
najbliżej
spadajmy
przechodzisz
wyczuć
słoneczny
ignoru
zastosowań
ucier
szanować
silnikiem
otwartych
nerwów
ukazała
[...]
