[PAD]
[UNK]
[CLS]
[MASK]
[SEP]
!
"
#
$
%
&
'
(
)
*
+
,
-
.
/
0
1
2
3
4
5
6
7
8
9
:
;
<
=
>
?
@
A
B
C
D
E
F
G
H
I
J
K
L
M
N
O
P
Q
R
S
T
U
V
W
X
Y
Z
[
\
]
^
_
`
a
b
c
d
e
f
g
h
i
j
k
l
m
n
o
p
q
r
s
t
u
v
w
x
y
z
{
|
}
~
£
¦
§
¨
©
«
®
¯
°
±
²
³
´
µ
¶
·
¹
º
»
¼
½
¿
Á
Â
Ã
Ä
Å
Ç
É
Í
Î
Ñ
Ó
Ö
×
Ø
Ú
Ü
ß
à
á
â
ã
ä
å
æ
ç
è
é
ê
ë
ì
í
î
ï
ð
ñ
ò
ó
ô
õ
ö
÷
ø
ù
ú
û
ü
ý
ā
ă
Ą
ą
Ć
ć
Č
č
Đ
đ
ē
ė
Ę
ę
ě
ğ
ī
İ
ı
Ĺ
Ľ
ľ
Ł
ł
Ń
ń
ň
Ō
ō
ŏ
ő
œ
ř
Ś
ś
Ş
ş
Š
š
ţ
Ť
ť
ū
ŭ
ů
Ÿ
Ź
ź
Ż
ż
Ž
ž
ș
ț
ə
ʻ
ˇ
ː
˛
˝
́
Α
Δ
Π
Σ
Ω
ά
ί
α
β
γ
δ
ε
η
θ
ι
κ
λ
μ
ν
ο
π
ρ
ς
σ
τ
υ
φ
χ
ω
ό
І
А
Б
В
Г
Д
Е
Ж
З
И
К
Л
М
Н
О
П
Р
С
Т
У
Ф
Х
Ц
Ч
Ш
Э
Ю
Я
а
б
в
г
д
е
ж
з
и
й
к
л
м
н
о
п
р
с
т
у
ф
х
ц
ч
ш
щ
ъ
ы
ь
э
ю
я
ё
є
і
ї
ա
א
ב
ד
ה
ו
ח
י
ל
מ
ן
נ
ע
פ
ק
ר
ש
ת
ا
ب
ة
ح
د
ر
س
ع
ل
م
ن
و
ي
ा
ა
ი
ḍ
‐
‑
‒
–
—
‘
’
‚
“
”
„
†
‡
•
…
‰
′
″
‹
›
€
℃
№
™
←
→
∅
−
≤
≥
─
│
├
┼
▶
►
●
★
♪
♫
の
ト
ラ
中
文
艂
贸
##u
##i
##c
##k
##f
##n
##d
##e
##r
##s
##t
##a
##b
##l
##z
##j
##w
##h
##o
##ł
##p
##B
##E
##T
##2
##1
##5
##O
##L
##U
##S
##Z
##W
##A
##X
##N
##D
##R
##Y
##m
##ń
##о
##с
##и
##й
##к
##г
##y
##ą
##é
##g
##I
##м
##а
##н
##v
##0
##7
##8
##ś
##M
##ö
##ż
##ę
##G
##C
##P
##F
##ó
##í
##6
##ź
##č
##ñ
##x
##т
##р
##ы
##9
##K
##V
##š
##ő
##Ę
##ć
##ë
##J
##ě
##™
##4
##3
##Р
##У
##Д
##˝
##H
##ä
##q
##°
##Ń
##Ľ
##Å
##Ä
##е
##ж
##л
##ü
##у
##ý
##ă
##à
##ê
##п
##Ą
##в
##ф
##ū
##д
##æ
##Ś
##Ć
##å
##я
##ç
##ã
##Ż
##ד
##מ
##ה
##Ł
##ρ
##ά
##τ
##ο
##ς
##ò
##¹
##³
##і
##ч
##ь
##ţ
##á
##ù
##±
##Â
##х
##Ó
##ō
##Q
##µ
##ā
##א
##ו
##ר
##ř
##ш
##θ
##ν
##ť
##α
##υ
##Š
##đ
##ø
##×
##ц
##ň
##з
##ß
##ḍ
##â
##μ
##ι
##´
##λ
##η
##σ
##œ
##è
##χ
##ω
##ē
##艂
##ח
##ל
##ž
##κ
##β
##О
##́
##ú
##щ
##ð
##−
##ľ
##ė
##ˇ
##י
##ъ
##→
##б
##ŏ
##ş
##ε
##ό
##γ
##Ö
##ə
##ı
##Ş
##ů
##Ã
##ŭ
##ю
##ì
##≥
##ح
##م
##د
##ī
##ί
##ი
##ї
##є
##φ
##の
##К
##ת
##נ
##ע
##ب
##ن
##ב
##Ñ
##δ
##²
##º
##ș
##Ü
##ա
##و
##ر
##ي
##ل
##Ç
##ô
##ё
##С
##э
##ا
##س
##ा
##Ÿ
##Г
##И
##ğ
##Č
##ן
##Á
##Н
##ï
##î
##Ĺ
##÷
##π
##ა
##Ф
##ש
##Ź
##õ
##А
##П
##פ
##♪
##Ø
##Т
##Ш
##€
##Δ
##В
##З
##І
##М
##Е
##Π
##ʻ
##©
##ː
##№
##ع
##ة
##贸
##É
##Σ
##ק
##Ž
##Í
##ț
##Б
##Ú
##ラ
##Ω
##Х
##½
##Ч
##Α
##®
##Ц
##Ō
##û
##İ
##中
##Л
##Я
##Î
##ト
##Э
##Ж
##文
##¦
##Đ
##℃
##£
##˛
##¼
##Ť
##Ю
##¨
##≤
##¯
##─
##♫
##●
##★
##←
##ie
##ow
##st
##an
##ze
##ch
##ra
##zy
##ia
po
pr
na
##ię
##dz
##on
##li
##ar
##nie
##ni
##sz
##go
##cz
##le
##ak
do
##am
je
##ne
##ów
##or
##ał
nie
##ka
##ci
##ny
##em
##er
za
##ro
##at
się
##ki
##na
wy
##ła
prze
##ku
##cj
##oś
##en
##ej
##ty
##om
##cy
##rze
##cie
to
##od
##wa
jest
##ob
##re
##ko
##ją
##la
##ry
##cze
##je
##dzie
że
##wi
##ce
##nia
##owan
ro
##tu
##ym
##kie
od
##dy
st
##al
by
sp
##owa
##czy
##os
##ych
##mi
##ego
mo
##wo
##dzi
##my
Nie
##za
##wie
##ości
kt
##szy
##da
przy
##anie
##ost
##owie
##ru
##ta
jak
któ
##że
##ło
pod
##in
##by
##cji
##ani
in
##iał
##sze
ch
##ot
##nych
dz
##rz
##sta
##is
##ol
##rzy
##ek
tak
pra
##ad
##łu
wie
##ania
ma
##ca
##ub
##mie
20
Je
ty
ob
##ję
##raz
##ma
##ży
##ąd
roz
##sp
##gi
##ły
##ja
te
##si
##ski
mi
##mu
##wia
To
##skie
pro
przez
##ró
##bi
##el
19
co
##as
##owi
##pra
##nego
mie
##ną
sz
##kt
ni
##no
##ami
##ier
##nej
Na
##un
##wy
##ęp
jed
##il
##ków
##et
##nym
##eś
##ość
##zu
Ch
dla
ko
tym
##stęp
Po
##ent
##ez
##pie
##czą
zost
re
##cia
kon
##te
czy
##owy
##ga
##ony
##ska
##bie
##ści
##ała
##ter
##ana
bę
##owe
##niej
cz
##ane
dzie
##cja
Za
##du
##pi
li
są
ze
zap
##szyst
##ół
201
##sk
pow
##śli
##one
tego
##ona
roku
##owych
mu
tu
##sie
##ój
##to
##im
go
zna
##ba
##yt
##sty
##ności
które
##cyj
Co
Wy
ra
lub
##uż
który
##owej
ale
pa
##eł
##ud
sam
mnie
##lko
Pro
przed
naj
oraz
##dział
##ował
Tak
##dni
##ut
wi
##um
wszyst
##fi
##szę
##ować
Jest
##ur
##owanie
op
##ięc
Dz
bar
##ść
##art
##aj
##ew
##ńst
##gra
##po
wła
sk
##jąc
##wią
##gu
Mo
powie
spra
##ście
##su
##gł
zd
##any
ci
był
może
##lu
sy
będzie
Prze
St
##owania
##niu
##jący
##sy
##ach
##ali
poz
##dzo
##ran
ży
##sza
cza
tylko
lat
##mo
##ało
##śmy
##ron
##ktu
##amy
##iała
zak
ka
##ok
##js
##for
kom
##ięk
##praw
mog
##rod
##odu
##szcze
pan
doty
##we
Wie
Jak
##owego
być
jej
Mi
##obie
moż
swo
##odzi
##łem
bez
##es
##cu
os
##rg
##nę
##aty
dob
##skiego
##op
##ówi
miejs
ok
##kę
pot
gł
było
praw
##cję
##ii
##ały
##ierw
Kra
##nist
##gl
##ób
##emy
##dę
wsp
##nik
##tw
##pu
Od
##ład
jedn
jego
##orzy
##oby
##kiem
##00
##wiąz
##czne
bardzo
Ale
##bo
##śl
już
##lem
##tor
##skiej
##ór
cze
##cje
##cza
##sa
##ji
zro
##nika
##ed
Czy
Pol
##óż
##owym
##uje
dotyczą
##prze
##oj
cię
wyk
wz
##zenia
##owo
ja
##iedy
Ma
##lej
##cznie
le
##cę
rów
##kura
Re
##ność
##się
de
##owadz
##and
odp
więc
wska
lu
##cznych
##ać
my
##arz
In
ar
Bo
##jące
usta
##aniu
##dzy
bo
##ól
ich
jako
##kaz
ten
##oł
200
rze
##aw
##czę
org
##uch
##rę
on
##waż
##liśmy
##ir
##pis
tej
Dzię
##owane
nad
##era
cie
##obi
##zna
pierw
pos
##ri
mówi
sie
zam
##nież
##pr
##owany
##sią
##anych
##ec
##lo
świa
##pad
Ja
Sz
Mu
##pa
##ką
##taj
czę
zrobi
też
##kach
og
Przy
##dł
również
##łą
##it
##fer
został
##onych
##ans
żeby
tam
10
##iej
Mar
##trzy
##słu
wskaz
dy
zaw
##ców
##liw
jesteś
Pa
stan
##ich
##iędzy
##skich
##oba
##śnie
organi
##łam
##bu
Ro
Ni
tem
##kuję
##kich
##zenie
##iu
##dź
##czego
##czas
Do
##rw
związ
gdy
cał
##alne
##ery
także
##ową
##owni
##forma
##de
18
ta
##ono
##ju
była
dru
##cą
kiedy
aby
##ałem
##ytanie
Dob
tra
pl
##szą
odpowie
##dzieć
Te
##szych
##czyć
coś
gru
##uk
##cznej
two
##bym
mam
sobie
pi
tw
##ul
##szt
##iast
zw
##chod
##czny
produ
##ństwa
##żej
##ruch
##kty
nr
gra
uży
##oni
gdzie
##dnie
##czenia
##alnie
kra
##ng
Cze
##jących
##cią
##got
##ód
##szym
##uro
jeszcze
##stat
##dą
##aż
##tury
By
##sł
Pod
##ien
##rząd
##stem
znaj
##ubli
##olo
czas
postęp
##jemy
poprze
##ary
##osi
##ząd
pani
właści
okre
##ską
nas
pli
##skim
##est
for
##arzy
##ory
##ruchom
pol
##up
wyb
im
Może
##czenie
tych
##tów
##unk
Ty
##kład
czł
następ
każ
##ciel
##ciał
rodzi
##ral
pew
##ano
działa
##enia
##szego
##ct
##rani
##rzę
Pra
jeśli
##nię
##wiet
Dziękuję
##lat
Jeśli
##iad
robi
jednost
##zacji
##legł
##ck
miał
Sp
al
bra
teraz
##cyjnych
##miot
Kom
informa
##kowie
kont
ter
da
##szł
sł
spraw
##gion
prowadz
woj
chce
##gę
aktu
Wi
spos
##rą
##ist
proje
kry
##kon
zn
##sko
no
środ
wyd
ją
można
jestem
przygot
kil
##tk
My
##wat
ul
##szej
##kim
##wier
##óź
##anej
me
##ers
Ra
##ort
##ckie
##wet
inter
15
##czywi
ry
prob
##wać
pomo
##dziej
##staw
która
potrze
Proszę
we
prac
dw
##zem
##us
##łeś
Minist
musi
##ora
##ciw
wszystko
##bli
##owią
system
dnia
Mam
##ród
##owości
##rony
##ing
##rów
##lep
##wod
12
pie
szko
##ara
##so
tutaj
##cznego
sze
Dla
##ene
##zie
bi
bud
poli
##res
Więc
wiem
##dzą
##stwa
słu
ser
Prokura
nieruchom
##owadzi
##ciu
prost
An
Le
jednak
takie
No
organiza
##niem
##ard
róż
samo
##owis
##elu
Kon
##zn
war
##gram
##py
pom
##szcz
##cho
Krakowie
nale
##chodzi
mat
##stą
trze
Bar
niż
##tem
Jesteś
##ada
ostat
pre
##zd
dobrze
zmi
dotyczące
kolej
##wój
nam
##eli
szcze
Ko
##róci
##cym
wyp
pracy
199
##den
##lę
miesz
mar
##jej
##owanych
dłu
si
##gie
więcej
##zi
##prawdę
##wał
ciebie
##widł
sposób
##wię
##stwo
##ństwo
##nios
##owana
##nij
par
##stawi
wiel
##he
11
##ża
Li
mogę
##strze
##stan
##iada
##lar
proszę
mogą
##mier
##ęd
prokura
##gdy
##wcze
##bra
##pod
##inans
Euro
między
ustawy
naz
oko
przekaz
##lni
zł
16
##ełnia
Panie
swoje
dro
17
Kraków
##prasz
##nymi
głów
##czna
##ody
##amię
##ńczy
##ion
##dzę
##szłości
lo
##scy
póź
tele
mia
stra
chodzi
##oru
jakie
##oli
##ole
##aniem
wszystkie
##der
nieruchomości
mamy
Jestem
##orze
##tar
szy
##wiad
##nku
ist
Region
Sk
##żeli
innym
będą
latach
##sku
##arod
podmiot
##ęzy
miejsce
były
##war
##onie
wyżej
##szu
##czu
30
dzi
##co
zm
przeciw
##cją
porząd
War
##onu
##roni
##dza
Ar
um
ek
##row
ce
innych
##ąda
duż
Al
przypad
których
nim
poprzedni
kl
funk
##ial
dostęp
Pan
##gól
##pli
##rum
##wania
moje
ad
trzy
podległ
sty
została
kró
domu
części
##cha
wszystkich
nawet
nic
uwa
Powie
bu
##praszam
##wczy
Ob
powin
##czni
Naj
nau
chciał
minist
##nu
##atu
##czywiście
fir
##trz
##czej
194
##nek
##łat
##gii
Prokurator
##omi
pana
##bior
zmie
peł
##kry
Zap
##alnemu
14
zoba
masz
Roz
sprze
Ta
współ
kryter
##zen
##owała
prokuratury
star
spełnia
Prokuratorowi
Regionalnemu
mają
każd
##ąt
dział
##kań
więk
##ale
##gląda
prawidł
stron
włas
tro
art
##star
aut
zar
publi
stos
otrzy
kla
##stytu
##cer
##wanie
##chę
##nienia
zapyt
Miej
prowadzone
ofer
##ospod
przeszłości
##ety
znajdu
kar
##cych
##dzić
sprawie
##otni
fil
##liwości
raz
dzieci
##pre
porządku
ludzi
nich
właściciel
języ
zgo
##rej
chwi
powiedzieć
osób
##tak
##pły
postępowanie
##line
Gmi
##łoby
13
##jęcia
koń
zrobić
wal
Wszyst
##yba
##nić
spot
##zuje
czym
którzy
##cznym
głos
##nii
met
otw
rę
##gro
Pow
Musi
przygotowa
kryteria
ku
##żą
aktualnie
rozpo
wiele
##dat
przyja
podczas
##ner
##chni
dzię
##usz
##naj
lek
##ałam
##prowadz
##latego
##ospodar
żad
mó
dow
dotyczącym
cią
poprzednim
##sła
##ezpie
wyda
an
sta
##entów
przekazania
##ymi
problem
organizacyjnych
##gn
wskazane
jednostkach
##kol
De
jaki
Dlaczego
##ge
plan
podległych
##łoż
##ium
##mery
##cjon
powiedział
##tua
Dobrze
świad
##now
##kro
prawidłowości
pozost
##dnia
##mawia
mój
##dzenia
##pro
później
Fran
##ństw
podmiotom
##kcji
hist
##łuma
przygotowawcze
##iel
zabi
zakre
##owano
Miejską
##ust
wskazanej
Gminę
##stawie
##dno
##omo
którym
##ata
czasu
##liz
właścicielom
##nąć
zapytaniu
II
##redni
obec
zako
potrzeb
życie
czasie
ba
##kacji
##io
gry
spe
of
świat
##ołe
proce
##por
##enty
czego
szyb
prostu
##łaś
reali
tę
Ka
temu
Cz
spo
##orzyst
dwa
albo
fa
##bud
człon
min
sytua
począ
poja
##stąpi
##ator
##wali
##dow
oj
##tych
##kła
##iar
##śle
Kto
##tnie
bie
##stru
wol
spełniałoby
##encji
zach
##fa
wo
cy
##lam
online
##west
##czną
finans
konie
Pi
obie
najlep
społe
##cyjne
##pej
sek
##któw
##oro
##kami
sku
list
Komis
kobie
##dać
##lan
##bą
ona
##do
##ele
niez
##ników
Przepraszam
Da
sko
której
mał
och
godzi
##ędzie
##rzu
##szyscy
##orz
##żenie
chcesz
##cyz
razem
2017
jedy
wnios
znale
##wiek
pół
stu
##bezpie
wa
miejsc
##kiej
jedno
##laz
##wiera
kilka
czerw
##wodni
##tra
osob
##gry
##entu
##dze
chcę
Gdzie
##czone
##cki
jeden
myśl
człowie
##entrum
wcze
należy
przedstawi
możesz
Wiem
##kolwiek
##zumie
##kow
właśnie
##lekt
193
powst
śmier
198
##łów
polity
ust
##ształ
##nad
du
Minister
zesp
zale
##świad
##oważ
##tedy
##łod
Bardzo
Myśl
Tu
Jo
przepis
##iom
##byt
##jem
waż
celu
naprawdę
dom
##tyw
udział
strony
Kiedy
pliku
pun
##ński
##sto
##ctwa
państwa
mę
myśli
bezpie
##łos
miejsca
##nosi
##sh
prawda
zawsze
pozy
##ti
##dziel
##szał
wieku
##rza
kole
##więk
##kaj
poko
zwy
##łop
miasta
##onego
związku
ponie
##ser
##ktor
##gląd
Dzie
zapew
##śniej
Sam
##piej
bardziej
licz
życia
obowią
dzis
2016
##żenia
Two
niego
##arze
##wić
zg
25
tran
ponad
pry
Ci
##umie
##net
ram
Warsza
sen
fi
##pe
Dod
zad
rząd
kontro
##rób
zostały
gospodar
##sce
zakresie
kto
dziec
kat
uzy
program
##ha
##żu
##kać
##ber
##ejest
Cie
##owinie
##czył
pytanie
arty
##se
Ad
##tku
zas
##jesz
##rona
razy
poziom
mod
którego
zaj
##któ
##ódz
nigdy
##ly
Pot
Gdy
##lim
00
dni
kol
##żli
##ździe
komp
##bar
##ant
##rwa
##cen
siebie
Wiesz
pomy
Sy
##rem
umie
##działa
kie
wrze
stanie
Pos
wielu
##onej
dobry
wiesz
##owaniu
dziewczy
Bra
##stu
On
popraw
trochę
##śnia
##prowadzi
rzeczy
##ve
Wła
##br
Jed
mor
temat
##tach
##jęcie
Dzięki
##oną
powodu
##dem
24
Bez
##owali
##ment
zain
ostatni
rzecz
zie
rad
bezp
wzgl
spotk
197
##wane
Teraz
Nic
podej
projekt
##czonych
##dań
Zost
##róż
##otel
mógł
##szedł
Ten
##biera
##łuch
przypadku
192
bł
pierwszy
##ciąg
tru
##stać
##owarzy
##odź
##gle
Hej
##wiz
pla
##ług
rob
kraj
##az
##kal
##dzenie
pamię
wpły
taki
##wodniczą
świe
mieć
rozsze
ktoś
elekt
##cem
##cię
usłu
##chód
##iaj
##cjal
##pit
##ujemy
##ste
Dobra
##czeń
wyma
Polsce
##kre
eksp
panie
występ
##ore
##racji
##part
##nem
wys
22
stało
100
##edług
zło
ana
Op
Masz
##peł
informacji
##kcie
##kiego
##stos
##kra
ani
pły
dodat
##oma
##min
##ąc
Pani
##żyć
##wal
##lin
kam
pię
prawa
możemy
wcześniej
##niki
histor
##aną
##dyn
łą
Zam
działal
prób
##jącego
wspól
sprawa
wszystkim
wykon
decyz
##vi
progra
pat
będę
##form
##óch
##arm
##onym
stanowis
zało
rozwiąz
##ang
##orów
21
oś
##ster
długo
##prac
okoli
##tom
##lacji
##kowi
##dzaj
ucze
195
##rom
szczegól
##strz
lip
196
##zm
##nienie
##dzia
##wer
##ńskiego
##ckiego
ramach
was
##rach
inne
podstaw
Lo
Par
##ździer
##arza
##tę
##działem
zdoby
##mia
przej
Win
sza
wróci
Mie
##ks
2015
kur
wtedy
niej
##dził
przedsię
##fek
zakoń
##di
ponieważ
Ba
telef
regu
##mal
komu
##mniej
znajduje
Już
Tylko
Zd
mniej
##wę
##muje
zarz
pu
##tacji
część
dwóch
##cach
paździer
##ierp
##chy
ud
warun
##raż
##liwość
lata
##nią
pole
dzień
następu
##byś
ozna
27
uważ
utw
mater
swoją
lotni
##czności
##anego
##daw
Jeżeli
##gh
zawod
##rew
prof
pas
wod
rozumie
##nes
##wyż
##ałeś
takich
kan
Wszystko
twoje
##stw
kwest
Sh
##tej
wyso
cho
2018
##tru
##let
por
##chodzą
sły
miała
Gra
kier
opie
##jech
pozwo
##sięcy
znaleź
odby
50
np
##cent
poś
tobą
kul
##lą
Chce
##cieli
zag
Są
koch
zosta
##kom
grani
##ktyw
poka
zamie
jesteśmy
##zas
##arakt
##kur
miast
##pon
Ok
stop
Kar
chłop
##ler
przyj
##jew
191
mną
spół
stycz
Jego
rozszerze
##cep
##ścia
Bi
dalej
doku
Lu
23
sw
czter
##ią
##lenia
Narod
Zapytanie
dzięki
przykład
Polski
Mówi
Uni
##cami
zapytanie
##nętrz
pyt
##anu
kraju
##partam
Boże
##minist
31
Chcę
fak
sto
##orem
posiada
##II
##owę
osoby
Rze
wypad
##jąca
którą
##ont
##ownik
##szczę
##iadom
uro
##niku
##isz
danych
związanych
ludzie
wysok
powinie
miejscu
##możli
##czych
got
##th
##aka
##raca
##noc
Chciał
samym
km
zawiera
mił
ak
takim
pis
czyli
##waj
##szk
##owników
##gen
rodzaj
kogo
sob
##czony
We
stronie
sil
##oty
Wiel
##tora
##ord
minister
prowadzi
##iat
up
najwięk
działania
Pom
jednym
listop
obsz
przewodniczą
##czeniu
##stów
dlatego
##lik
mus
##ówno
##órz
sztu
rek
##kali
##lenie
##ologi
29
otrzym
##lić
##dziemy
przet
##dzisz
września
##ogra
gene
##cenia
##leg
plik
tytu
ksią
państwo
##ver
wart
Ros
rok
##fika
La
##łudni
##jącym
##orzyć
##gą
szk
##zać
kieru
charakt
##bardziej
jeżeli
##ena
one
##ędu
skła
##zacja
##zw
tre
##czona
niektó
Ze
wyja
##nością
ruch
muzy
minut
Muszę
##ina
##yta
połą
##szczy
##cić
proble
podstawie
wraz
##anów
su
tygo
##owało
##nicy
##ill
##tura
prywat
osią
nią
Ser
##narod
stw
przedsiębior
podat
zostało
zwie
bli
dzisiaj
kwiet
niemie
Europej
podob
28
##mać
poważ
okaz
moja
dlaczego
Cześć
początku
num
opera
wygląda
państw
##prowa
wszyscy
moim
Moż
określ
##nił
Wsp
aż
skład
##czeństwa
cały
chor
Będzie
pła
swój
##son
pomó
dziś
około
sprzeda
Chodź
##tym
lipca
cel
Poli
Sej
wyj
noc
##be
Kat
Mat
nadzie
##len
##obec
sierp
Chyba
służ
##ują
##jedno
##pozy
26
zapro
Bu
##jącej
wej
part
Oczywiście
poro
istnie
##kowe
##ądz
swoich
2010
Był
czu
##piero
klien
##tki
##jewódz
poseł
męż
potem
klub
pok
czerwca
Pierw
##sem
kor
##jął
##spek
##liście
##tek
funkcjon
nowe
trzeba
swoim
Sa
centrum
##ciec
##pos
wzro
swojej
##unku
Zak
##niesie
##woju
##uj
dyre
##tera
następnie
urząd
dużo
uwagę
Mamy
czyn
Or
##man
Iz
nadz
obej
Spraw
##end
pomocy
##cyjnego
se
##rzeć
zasa
prawdzi
kilku
większ
szczę
##ądź
##anym
Naprawdę
doświad
cięż
##pat
##dop
nauk
##czes
poza
znaczy
informacje
zde
##bę
daw
Komisji
wers
Pre
##ortu
użytk
ml
pier
##cka
ponow
##ckiej
systemu
pięk
mów
##bywat
para
maja
##czaj
##stra
##anii
##lub
##woni
zb
us
##czki
US
2012
świet
twój
zau
##nak
Ży
zostać
kompu
najbardziej
##per
miesią
będziemy
takiego
ograni
mili
##ńskiej
mart
And
opi
szybko
##wala
##dzial
Fi
##trzym
##owymi
stycznia
elem
Nigdy
zostanie
##leż
chyba
##kar
chwili
##jącą
##cego
znalaz
##cyd
będziesz
##sów
Zna
oce
##alo
##łuchaj
##ału
##odob
Spo
mojego
Nat
wykorzyst
kości
##iększ
##daje
projektu
##szcza
##czyn
##orząd
iż
##rót
##westy
##ger
znaleźć
Sta
zmiany
##szenie
musisz
##dziesz
ws
##prezen
nazy
wyłą
##oła
##ic
księ
zbyt
internet
młod
poprzez
Amery
opis
##ton
##gów
pomóc
Me
hot
wojny
prawo
Woj
The
syn
##iały
##rab
##ądze
Car
##gar
##fik
świecie
Praw
jednego
Se
##cześnie
mom
##owały
##alnych
nauczy
włos
mojej
2014
##rac
powy
byli
aktuali
tere
##alny
koniec
dzieje
##land
##wą
##stro
ofi
dwie
Inter
zobaczyć
##tą
ur
obsłu
różnych
wam
grudnia
##żył
##nic
##owiada
bad
nasze
osiąg
października
przyję
##ałe
##onów
stanowi
40
2013
Dy
sez
Myślę
środowis
robisz
tys
konkur
pe
##strzy
uli
postan
techni
sąd
##chn
jakiś
mieszk
##owanej
##anim
##iałem
000
budże
##liwe
##niądze
klasy
dane
typu
zmian
uczest
##poli
##ujesz
##ke
##chi
odpowiedzi
pytania
ban
ang
reze
Przed
współpra
lepiej
świata
##mę
2011
oni
##wz
##czka
##szech
##brać
##rii
##anow
##ienia
ści
Mogę
##uper
ga
##owanego
możliwości
stat
nadal
##dne
##hi
dia
naszej
kwietnia
##zek
wprowadz
##stal
gór
##undu
##mawiać
##cyjny
postępowania
stud
Chcesz
Am
uzysk
prakty
##rat
##ław
So
##cież
Że
wię
łat
##iera
ła
kim
kontak
czar
zgodnie
firmy
##ces
komis
wiedzieć
##szuki
efek
##ciąż
okresie
##arcie
##10
##twórz
tyle
dokład
ciągu
##noś
instytu
##łe
administ
dobre
dniu
tą
reprezen
często
grał
Rady
marca
euro
Jezu
##les
apli
45
Musimy
stąd
Dlatego
bezpoś
pracu
Joh
zdrow
formu
śmierci
listopada
jakieś
Marszał
##org
pewno
naszych
##ria
Niem
la
##oz
Mój
pomoc
##łowie
zre
##aniz
##chu
posie
##tural
##owań
ucie
sygn
##dows
Daj
wiadom
zasad
Hotel
sierpnia
ru
zaba
pieniądze
##cjach
trakcie
zamk
książ
dokum
naszego
drugi
##asne
##ologii
##ens
lud
##bur
##nal
Cóż
##lach
##giej
Kt
dowie
bada
swojego
muszę
Twój
wojewódz
Ber
taka
Pon
gro
przedmiot
napis
ide
spow
##nął
rozm
nor
zni
powierz
##ubi
okrę
kształ
Zjedno
Wa
##dopodob
pracę
##akie
##óry
razie
kos
Możesz
numer
względu
wę
Szko
zapis
##kle
Windows
inwesty
##porząd
pomiędzy
Ry
Ha
mężczy
szkoły
sytuacji
przetłuma
mieszkań
##encie
duch
32
Zro
wypos
wpływ
##óg
##gia
Be
sprawy
programu
Och
wojsk
wyna
dobra
iść
##ato
##wiat
face
##czyna
moją
##owanym
the
##jąć
##bierz
Ga
przezna
are
##owałem
##stań
prezy
środków
lep
Si
##aki
##ciała
##śród
jedną
Pu
Ste
nami
##cił
##wne
pierwsze
##kuje
nieza
zarówno
##nos
korzy
wynika
usług
jedynie
region
##va
per
zatru
##ckich
każdy
##cyjnej
rodziny
Jeszcze
wobec
##ff
kuch
##tel
moc
##cjali
kwo
sobą
##cenie
##szenia
Ju
dar
robić
##jon
Ostat
pal
Szcze
podpis
##szło
nag
brz
terenie
Su
oznacza
##stwie
aktyw
##kowych
##rot
Wyso
koszt
rozpoczę
Gru
skrzy
położ
##ret
Niech
według
##ownika
##arcia
wew
nowo
nadzieję
film
dysku
##rodze
##ciele
##ostęp
cór
Wal
hand
Spra
##widu
Go
transp
komputer
##kości
Fa
ile
pój
##nikiem
##wiel
2009
##jach
wyra
aktualizacji
odpowiedzial
##qu
kosz
żoł
Bry
potra
jakości
##arł
##owu
Zoba
Kró
##koj
natom
##bs
natomiast
Czemu
rejest
##rad
##wsze
skar
przemy
obecnie
Ku
##śla
##ałaś
##sek
am
wystar
##anta
Potrze
strze
lut
rozwi
zab
pró
Następ
Państwa
obraz
zaś
##stawia
##iało
posta
Pat
oddział
##tuje
możliwość
dost
wąt
szczeg
##lew
Nawet
##syj
wiecz
stanu
Właśnie
Każ
##owaniem
##rysty
##odów
rodzin
wspom
ne
##ciół
mogła
##ctwo
##pę
Har
wynosi
ode
##rzyć
##twa
ogól
or
samorząd
odpowiedni
Jednak
całkowi
##wany
panu
tłuma
klu
dziedzi
zew
końcu
stał
jednostki
##tego
Czas
ponownie
lutego
zespo
Wit
przeciwko
grami
zdjęcia
prawie
##czął
##alu
##niejsze
międzynarod
dal
##port
##spo
kre
grupy
drugiej
##IE
obowiąz
profes
##sił
krzy
##ciaż
Kości
wykony
##ciem
##tam
kro
##kł
pien
Kraj
Dodane
Th
med
medy
tzw
drogi
Au
##dów
##łę
##odaw
dziękuję
dzien
szu
jakim
Szy
Odtwórz
##ater
zwięk
luzu
Ge
przestrze
##wają
##aru
rynku
##teres
2008
win
##ota
lecz
odci
Skar
##głos
nocy
##ten
cen
wymaga
kr
Pew
Ona
obywat
Polska
##zji
##buję
maszy
popu
pozwala
##każ
zwo
Rozumie
źród
charakter
dziecko
Rob
##kier
##wersy
zaję
przyp
szero
pozna
Powiedz
kogoś
atak
##anki
Koch
działań
istot
umożli
##sam
##wił
He
##pl
innymi
Musisz
uwagi
tek
Jesteśmy
musimy
##kona
##ho
Pie
##ation
El
wysokości
krót
au
każdym
##godnie
Przez
północ
samochod
eg
produk
##szła
działalności
słowa
##fii
Aust
sym
stwier
prezen
##byśmy
##dzieli
kad
Star
##nione
innego
Pamię
##wersyte
wymie
artyku
##świet
lokal
jednej
##pol
materiał
oczywiście
drz
Tra
przyjaciół
##ote
60
zastos
mogli
##ciela
##ell
świę
twoja
końca
bezpośredni
nowych
##emu
il
budy
##aków
##ńska
so
Ang
ps
##lny
dokon
rodzaju
##rych
Ca
##ówczas
##nam
##pera
Stra
narod
Wszystkie
mln
Ponad
historii
zanim
wyniku
Jan
zał
trans
Wszyscy
głu
uko
grze
druży
dop
drugie
mówić
wyż
##omie
komunika
każdej
trzech
##cej
Jer
##ley
##szyć
##arów
Nad
##ytor
##AT
żołnie
Ed
miesięcy
południ
siost
nowego
##rotnie
angiel
##fie
stru
średni
naszym
wyją
##tyj
##tur
##szka
broni
techn
ludz
35
jaką
telewiz
##giem
wartości
pozosta
##all
dosk
linii
Wil
##alna
zainteres
Jakie
Trzy
poni
##roń
zmieni
##owiąz
mieście
Gre
wykorzy
pokoju
##żd
##szel
amery
powinien
produktów
konty
##nach
mal
fran
tygodni
##ER
pierwszym
pobli
taj
##ryb
spowod
ego
ha
##kowo
gmi
##pia
##ciej
przeprowadz
##rój
ew
##atyw
##und
##id
bezpieczeństwa
uzn
Coś
nasz
Pana
Świę
##dach
ot
każdego
it
##zację
okolicy
##isku
przede
Warszawie
##ura
katego
Centrum
##pierw
##jcie
realizacji
organiz
ojciec
biu
problemy
urzę
poma
nap
zwycię
ziemi
uprze
chole
Tam
suk
ochrony
wyro
poroz
dowód
##omaty
##ine
##alnego
2007
zaczę
imię
##ariu
form
##czek
##fra
##nątrz
otworzyć
##pić
miasto
wypadku
uch
niep
przeka
##wyczaj
##łuż
wzią
oczy
##aks
produkcji
Aby
potwier
##czywist
rozwią
św
klim
wody
##jekt
powinni
##orą
##czność
##ckim
##iary
mistrz
możliwe
##fikacji
##AR
##alnej
##okój
rację
##kowy
##asy
Ne
nimi
pierwszej
dr
##lii
rozwoju
nowy
Bę
##czkę
natural
##utro
wysp
##inę
amerykań
specjal
##óle
człowieka
##cemy
prosi
##rip
##rator
ge
dotyczy
##wienia
##formu
##wen
##działam
ukry
##wied
Podczas
ważne
Sie
##gan
zagro
Sen
##zj
anali
##wzgl
##nd
wśród
zdecyd
##tać
Ru
##ądu
nikt
nazwi
Rad
##sław
##omina
sieci
Krzy
##ejon
biał
pop
Znaj
Sły
powyż
głównie
##powie
##owaną
pacj
senator
polski
##zyj
48
##bia
##kowa
##oda
Sł
##enta
##nerg
tow
musiał
##20
stara
siedzi
For
190
myślę
rolni
ład
##ńskim
osobi
##wała
opro
wydaje
##ip
gwia
##nergii
##lega
##entral
##czym
Zawsze
##wien
RP
2019
Polskiej
##ktury
Głów
##aku
żadnych
powro
pomysł
Pla
##ńczył
Kor
jedna
Ponadto
trady
##kadem
Myśli
##gnie
##ktora
##dent
Pet
właściw
##ścić
46
oprac
mieli
##roj
##ńskie
##rami
wówczas
##śni
szkole
##szko
związane
Boga
adres
życiu
##ić
badania
##IN
80
żywo
##trza
postanowie
propozy
Zat
Ws
Aktu
John
rozumiem
Poz
Stu
##łó
Twoje
Sch
##ph
upraw
przewodniczący
##noszą
##szczegól
opu
odm
godzin
pozwoli
Bóg
odkry
telefon
preze
##ung
chwilę
##ST
sub
stanowisko
ocze
Cy
##mii
edu
rozwiązania
wymag
Strona
typ
##gna
##nica
ochron
mm
Trze
dopiero
towarzy
pyta
uruchom
zbud
##stąpił
and
Wo
dość
##emi
nied
Char
tobie
dostar
##las
her
##zeum
##takt
Oh
fot
47
samego
##głosi
Ter
imie
terytor
##kwi
rz
pomocą
Di
oprogram
##dopodobnie
##ram
wywo
##szczenia
pił
bądź
wygra
##cyjnym
zapom
Szanow
powinna
##AN
niektórych
##ite
##chodni
##ńskich
##anem
Kur
##otów
##zdy
Dru
XV
psych
##ległości
otwar
##ate
zrobił
##tro
mis
ster
zapewnia
##ren
##równ
okres
##skać
uczestni
##zań
##niesi
włą
sport
##nieść
##kawe
sprawę
obu
posiad
nar
brak
##aliz
sprzę
Ponie
##fry
drzwi
poje
##kowej
pracowników
##ójrz
Mor
Ministerstwo
mogł
##fini
ogóle
##stety
szans
gości
##osen
opar
sch
##ll
Chry
zakła
trw
kapit
grup
2006
ministra
bry
głę
bym
##ością
jakby
popra
odpowiedź
europej
drodze
odwie
roś
##ela
##ble
dokładnie
wciąż
wszel
indy
mocy
Con
dem
Nikt
##cjami
##chodu
roli
prem
##owski
##alnym
las
kontroli
Produ
zmienia
##god
Według
##ędzi
##ft
70
fizy
dwu
##ąż
Pewnie
następujące
francu
spad
prot
Ho
twoim
Księ
##zz
Cho
##óki
##gis
oferuje
##zdu
Moja
##ościa
dź
zła
##nt
taką
podró
Dok
dyskus
całą
Ri
sprawdzić
Lub
przedstawia
Ministra
##ino
mech
Wygląda
byłem
proces
Bud
stronę
wyposaż
Dom
śmie
elektry
##omoc
##dzam
##daj
##leko
Chi
pewien
com
zarządz
biz
organizacji
zawar
szczegół
##asa
całym
rzeczywist
zob
##owców
Biu
##jaw
##ght
Chodzi
##lt
aplikacji
##serw
język
##dzwoni
mówię
let
Paw
Os
trud
##chodniej
##kość
##zeń
##king
człowiek
##dzeniu
Gene
##łon
##śmie
inte
##owani
punkt
San
miejscowości
##pospoli
##gazy
pieniędzy
warunki
##ya
##fia
Du
sła
##ublik
III
poszczegól
eta
##rzą
rozporząd
zabezpie
darmo
##mer
wpis
plików
##wały
ag
intere
##unię
##bry
ojca
##wil
słuch
Jasne
realiz
##pisz
czegoś
##najmniej
##naczej
##ech
przepisów
poru
stand
Wol
działalność
przestęp
opinii
##esti
##ateli
kierunku
##ou
##nicj
##denty
##wach
specjali
Skąd
Szu
twojej
Czę
poziomie
choć
zespół
rzu
history
90
cztery
##pita
##cielem
zakład
inny
##zują
##azien
Oj
obo
takiej
gwar
wprowa
światowej
problemów
Ponieważ
zainstal
USA
##krai
gdyby
Instytu
Tur
czemu
##ama
##maj
##try
pil
sama
zastęp
firm
##bliż
nadzor
powiedziała
wniosek
be
kiedyś
##ując
Ofer
##wam
2005
##nar
##imo
##rzenia
##styczne
polskich
turysty
korzyst
Sze
Zie
##mar
chociaż
przyczy
powoł
##gaż
tempera
ciała
##cznymi
Uniwersyte
konstru
wyg
tysięcy
##los
##niejszych
moich
##kształ
mini
autor
liczba
popro
utrzy
zdań
##bl
złoż
Powin
ryzy
zy
gat
Ile
przyjęcie
##łodzie
przyw
##enu
myślisz
##organiz
##lację
konkre
Vi
##wana
narzę
zwróci
##źni
##water
powiem
należ
żebyś
ostate
##tami
mieszkańców
##nowa
śle
Pół
Zrobi
przyby
Lon
Uważ
Zobacz
pobliżu
##działu
jakiego
XX
wybra
Cię
szczególnie
arch
uzna
oto
uwzgl
chcą
rozszerzenia
01
Im
stre
Obie
mówisz
wro
##lec
##win
##lne
Rozumiem
Rejon
Gu
Rzeczy
at
Obec
Więcej
żyje
zrozumie
wyraz
zespołu
ruchu
błąd
##ris
##orzenia
##czora
Her
miały
sa
Lud
wid
##ome
skończy
Możemy
##gach
ran
##rie
nis
wyświet
sateli
##unda
Hol
Europejskiej
potrafi
##óz
przyszł
bezpłat
energii
sytuacja
##wart
odd
umowy
##cel
##mach
prowa
tur
duże
Marszałku
decyzji
Kolej
Hen
Świet
##goda
ww
##czoraj
##rócz
widzę
ziem
Bie
pozostał
wewnętrz
całej
##więc
##her
Kim
najwyż
prace
##skar
##imna
500
skute
otrzymał
##tyk
##stawy
Miał
##upeł
##czekaj
najmniej
##nki
mię
##kłady
Dost
sposob
pełni
mon
##ienie
New
##stry
##lacja
##pospolitej
drze
skon
36
##feren
rezerwa
##łaszcza
dziw
różne
impre
środki
energ
chciałbym
zobaczy
spokój
##sti
reli
Kol
Moje
2000
uwie
szkół
##miast
##nawi
koncer
chciała
##działeś
sprawo
Cam
##are
Dzień
UE
Jako
##nięcia
oka
Państwo
##anach
zdrowia
strona
XI
##szkod
umy
napra
Ktoś
porozmawiać
##kcja
##tkowo
##aniec
##moc
odpowiada
sprób
uda
Ds
Super
puł
podkre
powierzchni
Tutaj
Dzi
##orzenie
##iach
większości
krwi
kontynu
mikro
Chciałbym
Tym
polega
termi
##owiem
przetłumaczonych
##prawidł
##nale
wiemy
wyzna
##frastru
Fil
wstrzy
miało
##twem
wyłącznie
dzisiej
główna
Wska
##ósł
dyrektor
zawie
eksper
poł
##krót
administra
magazy
Sto
komisji
mówił
twier
##źnie
33
bru
twoją
##stąpie
więzie
Środ
pora
Słuchaj
aw
żadnego
pięć
##red
godziny
wygląd
istnieje
najważ
nieu
wydat
##lacje
wsi
zależ
##dzony
05
handl
byłoby
umożliwia
Przestań
łazien
##bierze
zagrani
##unki
większość
uprzej
współpracy
Chole
król
osie
doj
chroni
kontakt
##orzeniu
ogrom
##RO
##mis
Mon
anty
##jeżd
Nor
##owskiego
##iną
względ
Rzeczypospolitej
##tasz
##ściu
zdanie
syna
kap
Śród
płat
Pokaż
skier
zbior
Pr
Państw
blisko
Można
rozgry
Sejm
##rek
Szanowny
##ień
##grze
Lotni
rozpat
dochod
Piot
doro
##atów
bieżą
znowu
ostatnie
##kowego
stary
##trze
Ciekawe
odzy
##czeniem
dać
zja
niebezpie
ośrod
żyw
Biał
postaci
##entem
tytuł
##bsol
członków
popular
morder
sprzedaży
ap
2004
poprawki
##bię
stanowią
czyt
indywidu
Unii
wspan
uważa
34
##old
##uty
##ownie
##ey
##nice
Com
roze
##omiast
wytw
jaka
189
##rag
chcemy
składa
##dro
Qu
Europy
kwali
hotelu
pł
częścią
czuje
uczy
##sić
kontra
pozycji
##sył
gdyż
odrzu
##wolu
samochód
uder
##spół
##nictwa
Natomiast
drew
wych
szczęśli
wido
wizy
kart
##zując
##aksym
łóż
poch
Mów
Jaki
##krótce
##anna
Zarz
zabić
Szyb
##zja
##ham
przewi
cer
##knij
Zjednoczonych
##cząć
##czeni
ubezpie
##cyjna
Prokuratura
liczby
znajdują
dotyczących
obję
##prowadzić
Pe
##two
mail
udało
##ss
inaczej
tworz
##szcie
##ługo
niezależ
całkowicie
##syw
##szczenie
miałem
zmniej
##owaliśmy
##okół
##nięcie
##nami
wykona
usły
##loka
rządu
Jej
innej
wykorzysty
Myślisz
produktu
Mary
zasady
port
zauwa
pary
Spójrz
szef
zaczyna
##fe
Rol
##ślić
##partament
##wers
Między
coraz
twojego
miej
Przykro
kobiety
prezyden
jas
ple
Jó
##fy
rosyj
punktu
PO
wez
##car
##mieście
posłów
trafi
przyzn
całego
Lin
chi
##gno
##tyka
ustawa
Zaba
Informa
kłam
Będę
broń
należą
pomi
##bor
##dzień
##puszcz
##guje
zdol
podróż
Wysoka
wynag
##łoń
klimaty
wątp
bran
Józe
pkt
klucz
bezpośrednio
następujących
##lit
hotel
zakończona
powinno
Uży
szac
##ance
wier
wybuch
##eks
##edera
##lizacji
Part
komple
Brak
Tom
jutro
##dzien
bit
zadania
##rząt
macie
konkret
obsługi
##waniu
##czeństwo
##sum
##arzenia
automaty
przedmiotem
muszą
pierwszego
##zasad
zim
Ban
cm
jednocześnie
et
wypowie
ustawie
##ower
##owniki
publicznych
naszą
##LL
##gat
gdzieś
pręd
##upełnie
##czania
Gospodar
służby
##zwyczaj
Idź
##żę
budynku
Przej
zorganiz
Per
##rzenie
wraca
##czając
uczni
śmierć
znacznie
2003
Albo
staw
##unków
insta
momencie
##zum
##ografi
##czo
38
panią
Sprawied
##dziale
300
##rus
##czyła
polskiego
trakt
Każdy
##rześci
##50
zatrzy
Aut
##anka
##inię
pochodzi
Rejonowa
zdr
kandy
##niony
badań
##otę
dotych
dotychczas
satelitar
##konomi
orze
##słuch
potrzeby
zez
języku
Sejmu
uz
Polskiego
powietrza
pozytyw
Jana
##itek
Mart
resta
##kin
obok
##gać
widzenia
##kam
Ot
##owość
szan
Była
##ństwie
zmu
Tro
Europie
##mit
Ciebie
odpowiednie
pojawi
powinniśmy
##tyki
mistrzost
zwłaszcza
niewiel
koment
spę
##łach
uni
rol
##etek
twór
niech
##omet
Śródmieście
##fon
##bieg
##jącymi
dziecka
samol
##spon
##ażenie
zajmu
##wencji
elektroni
procedu
##jmy
##wych
##wiam
##atora
dok
szere
doskon
Zgodnie
Mich
myśle
##ściej
pewnie
##stana
##alności
metrów
try
Żad
bas
piosen
odw
##gam
przekon
trwa
gwaran
##zym
Mc
##dziła
inicj
tor
##nka
oku
pokry
Jedno
mówią
czasem
układ
nieruchomość
Post
##ong
sezonie
Jack
##dak
Wło
walki
areszt
##imi
źle
37
domy
prowadzą
wysł
##gisla
idzie
##AS
Gro
mało
##cof
##cjalnie
mil
Ministrze
Czego
konsu
celem
Cholera
##neś
akcji
utra
daje
powszech
ostatnich
przyjem
usługi
zajm
Skarbu
##órze
PL
##wanych
##niósł
małże
##grani
podję
##wu
##mos
wra
budowy
##łosz
##ytet
zadań
##pii
całe
obra
najpierw
spotkania
papie
strate
cud
tajem
##liny
pokój
##olu
dolar
zamknię
Poza
kategorii
##gor
udzie
##wis
ska
żebym
Następnie
wzię
Man
wersji
szuka
kolejne
pracował
rady
ulicy
rozwiązanie
Twoja
##ęż
rozmawia
##omin
##oria
Stani
##okie
ki
polskiej
##duje
##logi
##lad
Prawo
##com
##wiązek
##czości
środowiska
Zas
wypo
przyzna
##samowi
##stycznych
Tele
tymi
członkiem
klik
utrzym
uzu
##pier
iz
Podob
komór
Niektó
En
##won
##iększanie
##rano
ustaw
##cyjną
spróbować
dołą
Jam
usu
Ministerstwa
Pomo
widzi
##wki
konsek
kobiet
odej
wina
Kul
##okra
nowej
dziesią
##tyczne
Północ
##sława
prysz
Henry
##fr
##alną
szczy
##wając
Ex
##log
sił
Muzeum
Komisja
##szać
##mierza
zabrać
pomie
czeka
Mod
zmianie
tj
rolę
##AC
spotkanie
##publi
budow
##szymi
##cznik
interes
##zeniem
osoba
pewne
1945
1939
treści
System
04
formula
##cin
Ist
seku
dot
świą
zadzwoni
opublik
stosunku
toale
prowadzonych
wrócić
ewentu
mówiąc
##turze
kolei
Col
wiadomości
góry
zaraz
niezwy
poznać
znajd
##cisk
miłości
gov
##ologia
spa
##wskiego
Francji
wszczę
Mal
##będ
milionów
natych
wzrost
Ben
##arka
Bri
budyn
Wien
natychmiast
chciałem
Kam
nowym
atra
##żeń
Obecnie
##roc
pory
trzeci
02
##bacz
kochanie
podejm
dostaw
Bryt
odwo
obli
sprawied
ciało
nową
wyniki
##ress
znajom
upad
matka
##szałem
dolarów
powod
##ON
fundu
##wicz
##onymi
##anowi
09
Micha
posła
kop
##jazd
##panii
##lina
Finans
zga
##zwo
nastąpi
mas
TV
##rop
Hisz
Zachód
obszarze
dziecia
Warszawa
Tran
rano
Nale
zestaw
Bel
##tkiem
młodzie
##brania
##not
##czono
odz
rzeczywiście
kwestii
##bit
##onitor
##wienie
jednostek
##owiad
sklep
pocz
powt
dostępne
niebie
miłość
Najwyż
##koju
zasłu
pochodzą
jakiej
krę
edy
przepraszam
##rybun
przepisy
##rodni
drog
zapła
poten
##lił
##mina
jakich
Pary
zdobył
Ministrów
##ripti
##ea
Niemie
parlam
Południ
Akadem
##III
##ld
wczoraj
##ołów
rat
Naz
serca
okazji
##tować
Kontakt
wiadomość
##ker
PK
##wór
formie
otrzyma
##uję
Powiększanie
los
znak
##grał
uprzejmie
Zabi
zastrze
##ade
wyboru
interesu
Właści
##grom
188
produkt
niezbęd
tworzy
zupełnie
charaktery
problemu
pojawia
zanie
Ludzie
##me
##ownicy
1010
##gr
wstrzym
Wystar
załat
##deo
Zaraz
oskar
##wit
tar
dzielni
nowoczes
Bru
zapo
rozszerzenie
##óły
Wtedy
Ind
skoj
fakty
Świetnie
bisku
budżetu
Nau
##cis
##cale
języka
wyob
mecz
08
Sal
Ki
przech
mimo
uzasad
mały
powiedz
zatem
ręce
##kacja
##ning
prawdopodobnie
##lie
funkcję
programów
44
znam
##kojnie
##bel
##nów
sm
##danie
##inform
##nień
teren
now
samej
##leń
07
##wym
##czem
szpita
ślub
poszczególnych
zamów
wchodzi
##erni
rozpoczął
Gór
oczeki
##yśl
standard
##turę
boh
##ling
urządzenia
Wskaz
Spe
##EN
postępowań
##zę
##czucie
##netu
ucz
spółki
##nęła
jad
Witam
najlepszego
studi
poż
zewnętrz
mieszka
zwierzę
pomyśl
Will
systemie
Dalej
architek
Jor
Oce
rej
lubi
forma
##łaty
##angaż
##che
Ce
Cena
Gi
Zbli
##ginal
Myślałem
39
powinny
##gła
kocha
brytyj
wydaw
##jęt
2002
wios
rozwój
lokali
Czar
niesp
przeby
poży
##kogo
wierzy
super
wią
##ps
praca
dostać
umieszcz
dostos
pokaz
Społe
kredy
##rzej
nosi
dup
##rzał
żona
przetw
##dar
Ag
ju
biur
nauki
wsparcia
Posłuchaj
##woj
##ple
niczego
punktów
niepeł
wojen
Nowy
Czekaj
Rodzi
Mus
widok
##lor
##owałam
inwestycji
kultury
strasz
budżet
genera
odległości
2001
##wiaty
zabój
poniżej
##owca
kontrol
zostaną
listy
opieki
nagro
maksym
zdję
litera
całości
##bum
Org
##chodzie
kod
##finans
nazwę
bal
najlepsze
##róbu
##aliśmy
ceny
Rozwoju
kolejnych
##ponu
żołnierzy
ką
Świat
Powinie
stać
wokół
konf
Mad
##IA
##dwie
powrotem
brat
zauf
Ap
wym
odniesie
wycof
##prz
mechani
sztuki
Czu
pozn
tłu
##owałeś
nazywa
Zdrow
kobieta
sej
42
##ons
zawart
firma
byś
Rząd
Afry
użycia
##zeniu
siły
06
bom
nasza
naro
przesł
##pij
cier
tysią
raczej
##tali
kolor
Ke
gimna
##ytać
##riptiz
zdrowot
połowie
przynajmniej
##onii
##grywanie
##erson
placów
##biut
obowiązu
##koła
wojnie
zakup
##bów
oficer
##nospraw
uwzglę
głosu
słownik
ciem
klientów
##anymi
sali
podróży
przedstawie
wiedział
głowy
ds
twarz
pokon
lekar
##UR
##dłem
Uro
Zosta
##zmu
##zad
##OW
##gij
Oni
##zycji
próby
pracować
stanowiska
##dyj
mama
przyszłości
Towarzy
Kod
chrześci
widzieć
samochodu
Med
Czyli
powróci
wielki
Rejest
oba
dek
##mian
Narodowej
interpe
szczególności
znik
##wiać
kup
##rodzenia
śpie
##ędy
Tego
Ślą
stylu
##IS
kościoła
pojęcia
##antów
##ierza
wybór
wyszuki
informu
kolejny
fakt
Gdań
podzie
##atem
##gad
struktu
##lot
##owiec
zaku
funkcji
##gazm
dziewczyna
Jos
absol
termin
##pią
zaangaż
ustal
##czno
sukce
autob
skom
języków
##OR
szpit
ciep
die
wspaniał
względem
biznes
##choty
gorą
Kocham
Związ
spr
zakwater
prag
Bur
zewnątrz
skąd
sal
##niach
ciągle
##stwem
Ani
Plat
koszty
codzien
owo
##fikacja
Zdrowia
At
##formy
##bat
wybr
model
zależy
##ozo
Fundu
##czyst
Hu
przecież
Mos
porówn
Tar
węg
Wę
metod
studia
zmarł
em
prom
nieco
zao
pierwszych
Up
pomaga
Wystarczy
##iów
Tru
uzyskać
pamiętam
kurwa
##pisy
zakresu
##olog
##żeniu
##rwy
41
Jeden
bibli
Należy
tytułu
drugim
Striptiz
bowiem
czymś
imieniu
przest
Oto
general
##strum
##jechał
wsparcie
zatrudni
##ialnego
##maw
reak
chę
znaczenie
ziel
##RR
małe
Met
##ern
zali
cywil
Bogu
kosztów
43
bur
Ukrai
stoli
Dwa
wątpliwości
towar
Hi
pochod
Wroc
powstrzy
pytań
identy
##kl
DLL
korzysta
##kowania
##stawa
Dodaj
prawdę
##piec
niewy
ory
pośredni
OK
wiedzą
Taniec
dwuk
en
##kładu
wszczęcia
naru
podło
infrastru
palcami
powstał
55
analizy
Zbliżenia
##dzię
stacji
pewna
znaczą
jesteście
Widzisz
Stan
##dzone
far
żon
słowo
rem
obja
Niemcy
niesamowi
potrzebuje
wspiera
proś
##ńcz
niepo
parę
zwykle
Don
Trzeba
##met
Zabawa
facet
teor
straci
reprezent
##tacja
zamiesz
dod
móz
wyści
##kować
dziesię
polityki
kwestia
##sły
##racam
Lepiej
##grzy
ekonomi
inten
##kop
##ogle
##jechać
opłat
osobę
##raź
grupa
króla
sur
wyróż
186
łatwo
##zny
Odgrywanie
ostro
##twie
zgła
produkty
##ille
Mamo
Dr
not
##zzle
##int
Rom
czterech
##nor
fotogra
projektów
##lepiej
zbi
Rober
spod
turniej
wziąć
Republi
##miany
Zamknij
ekran
żyć
wniosku
monitor
przegląd
##ingu
konstytu
rzą
pierwsza
rozmawiać
Projekt
powiedziałem
XIX
gminy
zmienić
widziałem
##wego
##atysty
oferty
kierowni
odmowie
decyzję
zmiana
##toni
wynik
serce
niepełnospraw
kandydat
Trybun
województwa
razu
##chać
włosów
##praca
Cla
187
##ówki
##oży
##cjalne
##ctwem
##yj
szczęście
długi
klubu
duży
udostęp
##wor
Wor
Izra
Dodat
##pień
Większ
##lety
spoj
popeł
diab
słów
Are
##use
znów
##zach
ręcznie
Miejs
##liwa
##szczeń
rodzina
czuję
kuchen
Oferujemy
1998
##onach
Prem
Spół
mogły
mąż
##nera
krew
Progra
organizacyjne
zi
dotar
swego
wstęp
Park
zamiast
##vis
prz
Frank
Stre
##zda
wejść
wydaj
Najlep
Jezus
krajów
kwa
Krajowej
lew
##szony
Pier
sir
zarzu
podatku
zwierząt
roślin
03
daleko
god
rezy
##vo
sprzeciw
sami
##niesz
meczu
Um
Mer
##NA
zabra
transport
obejmuje
##czymy
##zależ
##sia
kawał
##kowane
wia
zobacz
65
zobowiąz
##cko
Większość
##sztor
Pierwszy
##żeniem
##sion
daj
##spi
opowie
##ciąga
Gry
środku
gwiazd
pob
test
Gran
skle
##żynie
##raj
##iam
Preze
##nionych
##vel
Is
Program
wycie
pierwszą
##nieć
##szek
Geor
Począ
pojazd
wil
wartość
sędzi
mowa
przemysł
1999
serii
##onor
Dzis
podoba
post
##mują
Nazy
samolo
właściwie
##km
przewo
zle
##niejszy
niektóre
Cas
cieka
PR
usunię
energety
Fir
postanowieniem
fabry
Dow
świadom
oświad
krajach
##12
central
##lika
Got
##stycznej
tłumaczenia
scen
##żek
wiedzy
sądzę
skoro
Byłem
Wielkiej
Hist
##olet
Google
wychodzi
inform
dziewczyny
##owanymi
##wano
rejestru
##óra
finansowych
brze
##cony
zaledwie
poświęc
stopniu
##szli
zapropon
władzy
poinform
##sługi
promo
Potem
##cro
kompet
##arzyć
Witaj
sprzed
zostali
miesiące
wypeł
poszuki
##gromad
materiałów
Międzynarod
braku
żydow
nazwy
75
własne
wyciąg
##iasto
##kan
Został
Publi
Dan
doszło
pras
Konstytu
urodzi
Przejdź
współprac
##róg
obron
##owiska
Bro
analiz
Gdyby
publicznej
##lig
katoli
ref
##ward
drogę
oceny
Mimo
zdjęcie
##arzeń
dol
Weź
Edu
dopóki
wyjątk
świ
określa
Wojsk
wspólnego
##sil
uczniów
pozba
internetowej
potrzebu
Art
wystarczy
pierwo
Orgazm
instalacji
dzwoni
##czniki
prysznic
Lotnisko
kana
ofia
postanowi
##partamenty
Aleks
##spekty
nieprawidł
zatrudnie
cu
warunków
Odpowie
ces
znalazł
Adam
##kimi
ostrze
udziel
Aktualnie
szuk
Dro
##komu
tabli
posłu
Przecież
obserw
podwój
szkol
obchodzi
Data
jasne
pojedyn
##retar
nadzorowanych
przeży
ilości
instrum
##eksu
tworzeniu
transportu
seksu
potrzebne
Robi
Wybacz
Kana
instytucji
##retarz
przykłady
##wczych
porozumie
chcieli
efektyw
##ścił
Pozn
rękę
zaczął
wystąpie
zrobię
##zerw
profil
Plan
szansę
teat
waka
##nast
spodzie
kupić
zjawi
pracuje
dobrym
chodź
##hy
##ryt
klienta
Sprawiedliwości
sprawia
zarząd
##kowym
świadczeń
ćwi
##kujemy
##iadomo
sześć
doktor
prezydent
wielo
słod
##lokaliz
frag
nienawi
upra
Kil
Narodowego
##gas
Mówię
wysokiej
doprowadzi
odbi
rom
##lip
##nieniu
##akiem
obywatel
rower
##gania
wiary
Czerw
partner
Kry
nazwisko
telewizor
dodać
Było
eduka
Sc
##liza
##lus
##niał
Zał
prezydenta
##nikami
trój
świadczenia
zasob
podległe
Chri
##onia
skoń
oferujemy
egz
1944
cele
##cion
piąt
##eksy
Cor
##dają
kiedykolwiek
##rotu
poziomu
##ven
##tuj
dowol
żadnej
Dobry
Mil
Okrę
cena
świetnie
głębo
Central
hisz
1997
konto
Wz
brzmi
Szczeg
##niego
##wszy
cookie
czasów
##wski
matki
Puch
##OS
ono
rodziców
wyjść
##dniu
zawierający
użytkowników
seks
spoży
lubię
byłam
Davi
Por
##IC
sh
Szan
##entar
##woń
##bil
Bob
norm
Prób
przedsiębiorcy
propon
##fin
Administ
##rednie
byłeś
##au
największego
sprawozd
##lob
##cał
rapor
drugiego
procesu
informacja
inicjaty
General
##ian
dniach
Sko
całkiem
##zajem
##ond
##częściej
##99
inni
Ostatni
tanie
informuję
Prac
##szły
dosta
zer
##tery
powyżej
stworzy
##fię
przykładów
kas
##bro
nikogo
posiedzeniu
##IT
wymia
zwrócić
150
kształt
niew
Oś
pokoje
przykro
akcep
Aleksand
##skiem
bohater
Potrzeb
##kładzie
IV
technologii
##ńską
rozwiązań
##mm
Jedy
obni
twoich
okresu
##pię
obywateli
tydzień
dam
Halo
przestrzeni
Chrystu
fin
nazwa
Ali
sprzęt
zrealiz
dach
mówiłem
##PS
##wiata
##okrotnie
Głos
dał
##gne
Chciałem
grać
ros
Dem
##strza
##owne
utworz
ułat
album
rozporządzenia
##atali
urat
##gami
znać
Mia
Mistrz
zlokaliz
Niestety
Poseł
neg
##konać
##lać
##bili
wybud
##30
Ol
Inne
uzupeł
wyjaśnie
##ejdź
komputerze
dziesiątki
papier
ostatecznie
##ejestr
Znajdź
długości
Jednocześnie
Tato
kościół
##iego
nagr
Dokład
1996
##urt
is
SA
podobnie
Parlam
##ted
##owcy
Zga
marszał
##borator
jezi
redak
administracji
zostaje
Max
wszystkiego
Bla
atmos
di
##ies
podlega
##ownictwa
chemi
liście
Duch
Uniwersytetu
##wid
speł
susz
Waż
Izbo
Kościoła
obszar
kocham
Współ
##lamin
mężczyzn
Rów
wpad
Zostaw
but
zajął
##unek
Nasza
wystąpi
Wydaje
Toma
Stanów
podmi
Patrz
martw
##rednia
##bas
koszy
wybor
Armii
pielę
maj
Marszałek
gr
Ameryki
##pt
loka
##atak
##zo
##dziłem
Ana
Zjednoczone
Ziemi
##gnia
wice
logi
64
Strze
powiąz
najlepiej
Prezy
filmu
ner
klasztor
Pozost
nauczycieli
zamierza
awans
rozwija
##tory
czujesz
##osław
##wolni
rozbud
Wskazana
niemal
host
poważnie
Zar
Ek
Finansów
##ńcu
droga
##ensjon
##szty
400
gu
zapytać
Potrzebuję
punk
Kos
##mien
##racja
##kcje
##niadanie
przypom
##kwida
##amin
Właściwie
występuje
powodów
człowiekiem
dat
warto
Kościół
##kową
odtw
##styczny
Senat
##niona
zapobie
gor
##wacji
umiejęt
##stron
##wajcar
emery
##torów
współczes
prezent
Pas
oddziały
dokument
Dar
sumie
Zaj
otwiera
Jas
dziedzinie
##ras
maszyn
##niami
##niane
Alex
Wym
Jim
przekształ
najbliż
samorządu
otwier
##cone
pewnością
ZS
Miło
symbo
tygodniu
filozo
Chor
szereg
br
Ich
świąty
##ID
cent
itp
Londy
##ktorze
zarządzania
Obywat
Niemiec
##esa
unik
##reszcie
Będziemy
same
żół
Bal
##rabia
pogo
powiesz
stopni
myślałem
##ness
powyższym
##łap
oparciu
Mis
reklam
##czekać
odpowiednio
##ziono
łącznie
przejść
##15
Niez
Chodźmy
Słowa
kupi
Szanowni
Tim
Będziesz
pomimo
posiedzenia
pomoże
religij
armii
zdaniem
53
Rich
##EC
##źle
##ćmi
##działaś
Bos
naby
bram
Spot
faj
##tycznych
trudno
zakres
zatrzym
##US
podd
zgłosi
Ph
dyskusji
##ręb
śla
##ES
inwest
oryginal
mąd
1990
wyka
##syst
wkrótce
Klub
Mał
elementy
blo
Jezusa
poważaniem
doświadczenia
aktor
##wicza
Pozna
dll
wybiera
kończy
zabaw
52
stała
wysokość
hiszpa
słyszę
Powiedział
Szkoła
##nap
olej
Fin
Polaków
służb
hi
##szył
##ket
operacji
##arch
##broj
dypl
urządzeń
samochodów
Glos
##lok
zat
##gosła
ptak
##onem
##wan
Rosji
##tację
##cal
##bierzesz
Pomyśl
##baty
weź
gar
dłuż
##czel
emo
Lw
Chciała
##cuję
karie
##tt
ilość
budowę
wybrać
##czer
##czucia
rodzinie
oficjal
celów
Face
rekom
złam
najlepszych
słowniki
powierzch
##dzimy
polskie
Host
arg
czynności
has
prowadzić
##dol
##cką
##gran
Bor
Zrób
##spie
Związku
równo
liczbę
biura
głosowania
Zło
##żem
brata
zaplan
##dziesią
##dali
składni
dużą
zade
dodatkowe
postawi
Nasze
zależności
czoł
##opat
##illa
rzad
Gar
##szto
##rowi
potrzebuję
poby
reszt
zazna
kore
defini
wielkie
Cał
##11
danej
th
zasadzie
związek
res
musie
nowa
Sprze
zje
cholery
koncep
Sek
Znalaz
##żony
run
wyjaś
spotkać
sprawach
##usza
połu
określe
radę
##cisz
##szedłem
unika
wprowadzenie
##erów
zagra
Akademii
Chwi
Zad
Ab
cała
Port
głowę
ryn
konieczności
##regu
Jar
archi
Nasz
George
##ET
Przemy
Glosbe
przerw
##rodę
Brytanii
nur
Fo
##ake
ex
przyszedł
##kowski
Mas
odpad
wewnątrz
##larz
##niejsza
##czyli
użyć
##jan
Dzisiaj
polskim
##nin
Pogoda
ostatnio
przekazy
ukaz
magi
władz
wskaź
książki
zadanie
Ła
##awans
zły
##wizji
doświadczenie
gre
##dgo
dowiedzieć
zmy
kawy
Póź
##tne
zagad
złap
wojska
##nis
Michael
zwolni
pę
zaprojekt
zakończeniu
obiekt
##leni
Nadal
Zapom
Zwy
zdra
##osa
##hol
zasię
tab
##torem
##kanie
poga
pamięci
darm
choroby
wszech
Tre
##yd
autobus
184
premier
pokazując
##24
Pri
##tuję
zarejestr
##tok
wymy
##ógł
##żliwe
##niejszym
gaz
powietrz
ukoń
ujaw
wieczorem
Języ
znaczenia
wydarzenia
przetłumaczone
Em
wstrzymał
Fre
Urzę
elementów
##godne
##mów
##sen
Kop
Stany
##raża
itd
zabił
wró
uzyskał
Lek
##nich
##ościach
jakość
Bad
##unt
Szwe
Macie
##gli
policji
podstawowych
koś
wolności
dum
kot
pakie
słoń
oprogramowanie
##adę
##wczes
opieku
gospodarki
rezu
satelitarne
Dol
przebud
społecznej
najlepszy
łazienka
Ksią
Miałem
listę
##AM
##omóż
pociąg
##wasz
Prawa
##krę
cment
karty
proste
1991
instru
robota
mocno
Nowym
dziennik
przyjaciel
Rzy
##żyła
##eld
zrobiłeś
##łom
##ematy
partii
historia
powstania
rand
oprogramowania
Dop
##bin
osobą
dostępnego
##jów
##stanowi
##tna
##zer
Stowarzy
##rali
krze
##rąz
udziału
dwukrotnie
lot
słownika
del
##szysz
Oba
##oście
##wiej
bło
##mienia
##rezen
Pozw
warunkach
##60
dokony
wierzę
Nauk
uszko
muzyki
##cymi
##miu
49
przysłu
##cząc
diabła
Biuro
##liwy
##ierania
##itetu
późno
systemów
dźwię
kost
gier
Słuch
oprócz
dłużej
naprawić
samodziel
punkty
Regu
jazdy
prowadzenia
kryty
##czać
zakończy
ogrze
najnow
Też
tera
##czająco
##ferencji
Istnie
Dziś
nauczyciel
uruchomienia
##miana
Dokładnie
zastana
##mety
West
moment
##żyser
wieczór
oszczę
Pozwól
wspólnie
poło
Takie
ZSRR
rozbi
granicy
rozpozna
stoi
strzel
##80
Łą
##cyjno
położony
złe
##fal
wiadomo
drugą
opinię
projekcie
rzeczywistości
wielkości
Chrystusa
wyrzu
Dyre
odnoś
Czech
##linie
Łu
trzyma
##alogu
##czają
##AL
znany
##wamy
czasami
obser
##posażenie
##ąb
Emi
Sąd
przeniesi
wypadek
gaze
samolot
normal
ogląda
Dam
obiektu
##szta
kimś
żebyśmy
pięciu
##laj
zajmuje
skarb
społeczności
Pierwsze
próbie
Sztu
##czysz
Człowie
siedem
smu
Sprawdź
Krzyszto
##Współ
Bibli
##gre
przekro
wzrostu
głównym
wybo
realizację
##ówić
wrócił
panowie
Nr
Kan
sytuację
dostanie
gen
##rwać
odnosi
Informacje
Jorku
##Współpraca
boj
służą
##towy
py
##szne
##dzać
pośle
Obywatel
##hu
##pienia
##jeżdża
zbli
samot
spacer
rozszerzeniem
poniż
gmin
unie
powinieneś
##iatu
Sim
rozgryw
finansowe
ofiar
ow
pri
##skę
Wiele
##sch
informację
doskona
ostatnim
sprzedaż
zapewnić
##łopo
Skoro
##32
##wonię
prawnych
##czech
##orąc
robię
stopnia
uwierzyć
##scypli
Zatem
przypomina
##17
przychodzi
zrobiłem
##para
sre
patrz
ojcem
budynek
##tuł
1992
##ałów
Ham
Miasto
Twoim
staje
historię
##ire
##tujesz
##uf
Zakład
start
atmosfer
funkcjonariu
tył
obrony
##szędzie
ciężko
rozp
koło
Urząd
Księży
##inar
Snap
Niemczech
stad
EN
##duk
dużej
Samo
Kla
##nowi
wiat
Maria
trzecie
spis
zwrot
niepod
54
działanie
aplika
czek
eksplo
przeczy
##wielbia
Kapit
prędkości
##angeli
##Pomóż
dra
gard
cyfr
##źć
eli
prawomoc
zdańWspółpraca
zdańWspółpracaPomóż
fał
##oto
tato
przechodzi
Dor
własnych
Grupa
opty
Num
widział
Jaka
czwart
##osob
jakąś
prywatna
##skimi
##burg
odniesieniu
podmiotów
Ji
##lon
##rup
uf
grun
liczne
zakwaterowanie
kontek
##ciach
szacunku
1989
charakterze
żywności
dzielnicy
##ądy
mógłby
Pomocy
ministrze
##ryj
Mógł
zaatak
185
##szeć
Ameryka
plat
większe
wyt
##szem
poświę
rezerw
przeszka
1994
ocz
trudne
##ryp
terytorium
substan
inżynie
180
Prawda
tani
kaz
zobaczenia
##bol
etapie
zrozum
idź
##możliwe
##źmi
konsul
kompleks
Trzymaj
##żone
sied
##dłuż
Air
Boż
##lator
pokazać
miałam
finansowania
##shot
Oprócz
córka
zaprezen
pójść
wniosków
radi
Piotr
##mac
planu
musiała
leży
chciałam
koncent
lodów
perspekty
Pięk
99
Przyj
Kali
Organi
##owuje
Zw
##OT
wniosk
innowa
Kazi
##cjonu
wypra
VAT
błęd
##pania
##głę
##str
zwyczaj
rodzice
konfli
City
sekund
możecie
wzmoc
władze
spółek
mieliśmy
mówimy
pała
mld
##ląd
##ziom
##isa
##cznika
którymi
prezes
zazwyczaj
##uth
edukacji
krą
Pój
##czyk
małych
##raw
światła
MS
zacząć
Opera
##ważne
Han
##alni
mer
dostępu
Ir
##ari
przebie
miesiąc
godz
kli
dofinans
##tka
czasach
likwida
męża
górę
PS
Oka
##emp
czyst
auto
powinienem
51
Sport
Król
kompozy
Biz
Dział
ciąży
##OM
klas
lin
##pada
alko
wyników
obowiązek
##tny
rzeki
prawdziwe
głosów
Dos
Arty
One
tygodnie
Pamiętasz
##gg
##woje
##anę
##syła
wykry
przyjęcia
telefonu
przedstawicieli
kasy
##towe
projekty
Stud
##ep
1995
pacjentów
Las
drużyny
cokolwiek
kwoty
własną
akt
##owskiej
mała
##KA
##wol
zgod
godzinę
wykaz
dół
najczęściej
Dzieci
przechowy
tań
państwu
Myślałam
wyba
Japon
osied
Snapshot
##arzenie
##gal
##limpij
Marek
funkcje
##chodzę
Rok
myśleć
ludności
##klu
Opis
dziwne
Kole
niem
restaura
Klim
##chodź
##szki
ca
formy
szal
miejscach
##jeżdż
Rek
dostępny
stworz
argum
Wysp
sezonu
zech
Komu
Bezpie
ogłosi
umów
Danie
drob
zrozumieć
raport
zmianę
##kowanie
sądu
wyz
skaz
Konie
sukces
konsum
##ctwie
##ciar
powoduje
##RA
Powiem
drogą
Długo
widać
Mike
kryzy
Cent
piersi
robią
Ti
59
upoważ
posiedzenie
obiektów
doskonał
Widzę
##iałam
zachodni
kłopo
##landii
tematy
##eth
Powinni
##łac
##dzili
##leniem
Króle
##fo
56
##vin
##ys
##szone
przeję
dyrektora
soli
Często
wskazuje
wystawi
pełnił
szpitala
przewidu
roboty
PC
##BI
osiem
wziął
Ud
terytorialnego
##róbuj
cenę
bezpłatny
##prost
rób
rodzinę
##dowod
pozostałych
Spokojnie
przypadkach
Trochę
Taa
##obój
##rzyja
##wizyj
Uniwersytecie
rezerwacji
##niosła
zostawi
przedstawiciel
japo
Kobie
lekarza
hotele
##tują
tekst
Niektóre
##ośród
##prowadził
seria
dużych
nast
gotowy
1993
Później
osobist
##piera
##arzu
mian
udziałem
jakiegoś
ląd
##MS
wp
##eter
##OL
znasz
##żsam
sprawiedliwości
policj
odcinku
znalezie
##dniej
ludźmi
zmar
ukończył
Tor
Być
##aniale
usp
rynek
##han
asyst
mapę
zabyt
cech
mogłem
##lish
wd
mody
Wybierz
organ
##woli
Opi
element
Log
Stwier
mamo
Augu
##tern
otworzy
tle
##rzch
żaden
wyraźnie
Przyp
Możliwe
narko
dobrą
zamiar
zamy
ubie
bieg
przeprowa
##koń
regular
oszu
Min
##olat
powiedziałeś
Wspól
dokumentów
laborator
Muzy
Zało
leczenia
środka
rzeź
młodych
wiej
druga
promie
Stef
interpre
##kli
sąsie
lepsze
decy
założy
ataku
branży
woli
fron
2020
57
##łania
chrześcija
powstała
więzienia
niezwykle
##IP
metody
Szwajcar
dotk
##anitar
zasobów
Lit
Fer
pozwolić
As
##ranych
Paweł
bierze
agen
bezpieczeństwo
akadem
wersja
Del
##EL
##kologi
wieś
##iem
wprowadza
żony
ustawą
##wałem
Warszawy
legisla
##atunek
##szyb
błędy
Ministerstwie
Can
##zygn
ludziom
##rwie
mand
##25
##gip
serwi
radzie
##eo
Nowo
##inął
Typ
panem
Funda
procent
##uri
wiedziałem
Szk
zamieszk
patrzy
duża
Usługi
połączenia
niepraw
wami
##rowie
uczelni
zamord
Hot
dróg
##nen
rozmowy
zastąpi
##utnie
moderni
Meksy
58
##16
wnioski
Charlie
poda
##nó
Ver
##og
##giel
robimy
umiera
wideo
żoną
profesjon
Idziemy
funkcjonowania
##mierz
uj
Cią
##nglish
chcecie
sekretar
wczes
##rody
własnej
##ensjonat
Słucham
Mikoła
Ochrony
Szczegóły
Kore
rod
jedynym
Prof
Red
pozostaje
Kultury
ogłos
##onim
##enny
dobrego
rozkaz
von
bazy
dziećmi
rozstrzy
Pis
zabiera
Internet
Czuję
##dzięk
europejskich
1940
##lek
Wyposażenie
styl
Puzzle
dorosł
##łącz
Darm
odbior
##rzeb
Il
Mił
##ranoc
##OD
hum
regionie
głupi
firmę
podejrz
ST
Kl
Ve
Taj
Żeby
tata
nieod
##IK
##val
Bydgo
umiejętności
##żni
nego
dniem
rozry
chłopak
85
choler
suszarka
##ish
##oły
SP
batali
##licz
zgłosz
stosowania
czerwcu
##ric
warsza
##ierę
##ławi
szlach
zwol
infrastruktury
twarzy
Zakła
##anty
artykułu
1918
##ciła
##gał
kilk
zasadni
użytkownika
ilu
##zjum
##stycznego
dyspo
##cuje
##ństwem
##ruj
##ola
kadencji
skali
zeszł
podrę
występu
miarę
##lera
pobytu
odpo
##strybu
przywi
gada
bog
trybie
Funduszu
pad
pasaż
bla
ówczes
wystarczająco
Stanisław
plany
skrzyd
##cyfi
początek
##atybi
Najpierw
Ogól
Inspek
prawomocnie
odbywa
różni
królew
krótko
pola
publicznego
Licz
wg
##lis
Er
##owicz
##pływ
Cel
Plik
Pl
1943
okrop
przes
Józefa
##ise
Kolor
Pytanie
przeszedł
częst
powsta
następnym
##pres
głowie
##walu
Zadz
##tków
Pawła
Mag
##19
wykonania
oświat
Pobie
głoś
dora
własność
istotne
##rory
zaawans
społecznych
turnieju
##łody
##brzy
Znam
##dząc
musieli
końc
##gorz
automatycznie
Biura
Żydów
podkreślić
polsko
Wew
##tni
rozmia
negatyw
dźwięk
##pan
używać
##kowskiego
Home
służy
skorzy
dzieckiem
Oliw
##śniu
inspek
1941
gatunków
źródeł
##lerii
wolno
prywatne
postrze
dostrze
##wiasz
##amie
Róż
Powiedziałem
sce
Nazwa
zę
Kontro
Lou
wyborach
##leb
zająć
pułku
##opis
##branie
jakoś
zginę
techniczne
niestety
Dostęp
##tr
Wraca
wrześniu
kwotę
##woka
##ologiczne
##dale
aust
##ądza
zada
##rost
rewolu
EUR
Bądź
zachę
biskup
Czasami
Znale
Pracy
detek
##czką
Kochanie
wykonywania
pozycję
widzisz
województwie
bab
festi
##ott
##czał
Festi
##obil
##ED
czynienia
Pierwsza
##redniej
budzi
miejscem
Rada
Mosk
radio
##szczone
konieczne
wystąpił
styczniu
##OP
zatrzymać
ciśnie
Peter
1920
Wych
tyłu
##tacje
dziewię
Rejestrze
##arki
wykład
wejście
dodatkowo
włosy
Brz
##lone
światło
gi
formularz
Los
członkowie
samych
rozumiesz
##ump
pia
##wione
Paul
korzystać
##bij
James
porównaniu
rzym
morza
Wyk
lekarz
##nne
wery
Wys
głównych
##nieniem
doktora
##40
opo
##jemu
ton
ryb
##stemy
wynaj
##owin
kanały
Anna
geografi
wdro
##tyfika
zrobiła
Prawdopodobnie
##regul
Grupy
pt
##eb
osobowych
##13
##fu
swob
zamierz
Departam
##odow
you
konkuren
gę
##cona
wszelkie
World
##dzonych
telefoni
Środowiska
zrobisz
atrak
Policji
##otrzeb
wiek
Szybko
David
Cały
początkowo
##ksu
siedzibą
jakaś
pojazdów
zu
Nowe
Zach
skompli
##gór
##kują
person
zajęcia
Agen
##kąd
fanta
Yo
wynagrodzenia
odnośnie
niewie
prowadził
pusty
Grze
##adzie
drewni
poczu
kata
##waga
ostatniej
##bach
##cznij
Włady
Chciałabym
szefa
samą
##żki
porów
##szałam
##ięcia
zwal
Micro
##att
dynami
##uszaj
##cyjnie
CD
Wciąż
##bina
grudniu
zabija
wybrze
nazwie
##pular
protest
##tąd
wypowiedzi
##owiązań
zrobimy
złego
95
wielką
Pal
decyzja
##ction
odnale
piękna
straż
poprawek
przedstawienie
Europa
nazwą
600
zacznie
zgłos
prawem
1919
żonę
##aryj
Francu
##kasz
##łóż
pojem
kilomet
##niono
wcale
##went
##akcep
staną
pewnego
##bić
występują
pewnym
mieszkania
##ett
Sara
jechać
##niesienie
##18
##och
Ucie
wielkim
ustawę
robo
##cina
##czyłem
1942
Towarzystwa
synem
##stka
dysk
120
##szeni
Oliwka
maju
czwar
Świad
Andrzej
podzięk
##nięty
maszyny
Gam
nagle
67
chło
##IST
Cal
budowl
kamie
utrzymy
pliki
##berg
##meryt
Teat
odzna
##tion
chociażby
recep
odpowiedzialności
dowódz
Józef
prawna
status
zmierza
##gają
##wało
brzmie
Federa
Robert
kurs
telewizji
otwierania
wrę
czyni
kg
##czonego
połączenie
Przygot
ście
##ziem
przyszłość
##van
Dodatkowo
##odzenia
podwyż
Zanim
##szości
czytania
as
cywi
Stanu
##cle
##22
przyjść
chorob
grę
##szuk
des
##gier
niczym
nos
##liki
kontrakt
ocen
##cać
wysył
wyjaśnia
zaprze
kontrolę
Instytutu
Cieszę
##ped
Chociaż
Mel
dużym
sing
obcią
zagranicznych
byliśmy
##rob
kliknij
Play
Ważne
Sama
Nowa
spać
tworzą
producent
podjął
Roy
czekać
przew
1000
uję
##etki
##uracji
mężczyzna
##nictwo
usunąć
Ram
zasko
walczyć
jaj
##ówka
drzew
pochodzenia
zami
zrezygn
Zdjęcia
udowod
##nocy
ścież
week
##14
urzędni
przetwarz
uderzy
##patrz
Legisla
właściwości
móc
tuż
Zo
zdjęć
Mówiłem
źródła
uważam
##ytory
##ległość
umysł
Chłop
kosmety
przedstawić
##nemu
modu
parking
##oking
wielkiego
zapewnienia
##misji
##wersytet
##łaści
senatora
##zje
odda
kuchni
powrócił
wyjątkiem
##ceum
Pokoju
##owska
kamer
pokazuje
opiera
południe
Dia
naw
zmę
członek
zabud
Radzie
dobrej
angielski
oby
parku
pracodaw
własnego
Thom
wybrany
węd
Firma
##kien
zbrodni
organów
pielęgnia
tymczas
żar
nasi
##puść
Zatrzy
Zespół
klimatyzacja
Syn
słab
##owice
zatwier
##dzieliśmy
Sil
##niła
nagrody
dobro
społeczeństwa
merytory
suger
##nięte
Dokąd
##anek
wprowadzenia
trzym
Pau
piechoty
spotkaniu
lipcu
Film
firmie
recen
szukać
ukrai
restauracji
trzymać
intelig
miło
Serwis
będziecie
Ew
partne
konferen
##ierż
zatrudnienia
parafii
##biutował
Zaczekaj
największych
Gold
Wyb
##ologicznych
tożsam
znane
spóź
roczni
formal
danego
zapozna
śledz
Anglii
##jo
Uważaj
Maj
prosto
składzie
Nowego
pozby
##erami
dokumenty
Wyż
statysty
Val
##uba
dorad
##wiony
mogło
marcu
##ięć
stali
spowodowane
grafi
##ódź
##stępujemy
##ls
otrzymać
szkolenia
odbył
wyklu
lotnicze
telewizyj
wrażenie
zba
##ciągu
Edukacji
Hand
##nęło
zaka
Ojciec
obejmu
Komitetu
Barcel
##łowa
##sztą
kwestie
spokoj
stowarzy
##dyna
66
##que
prezesa
Wojewódz
rodziną
narzędzia
mechaniz
Widziałem
Świata
kierun
Kurwa
domyśl
stały
Juli
##czyły
progno
##niać
##Po
obszaru
##puści
Również
##dzona
##necie
imi
##liwych
##ila
odczy
ciąg
Chin
punkcie
Ak
październiku
pozw
##ganie
Dane
##lop
odejść
interpelację
własnym
dodatkowych
Dopiero
Peł
##vy
grupie
powiat
kłopoty
##arzyło
najstar
Franci
upew
swej
Wis
narciar
Duż
dotyczący
programy
zbiera
tekstu
Joe
Trybunału
PKP
dyspon
Mają
każda
##cieć
##kłada
Techn
kampanii
ukra
zachowania
##alność
emeryt
pust
sem
##rzył
Wkrótce
sens
znie
zauważyć
ks
potrzeba
##łości
szkołę
budynków
plaży
##owny
wład
tamtej
nawią
Słu
przysię
toaleta
Zm
Popro
wejścia
Liczba
##niania
##cyzyj
ol
Dobranoc
większą
komentarz
znajdziesz
sercu
wzdłuż
##cher
##ient
bank
linie
kapli
bazie
wydatków
Vin
nagrodę
##mon
najgor
klasie
plane
najlepszym
niemożliwe
statek
mary
ryzyko
##gować
córki
1975
wchodzą
Ostate
emi
##muni
bos
uka
Apartament
SS
Poprze
szl
sprawą
##ash
kontekście
przedsięwz
pud
słucha
trwał
wyższe
siostra
potrzebujesz
unij
wdzię
otwarte
gli
pogrze
##amp
umowę
listopadzie
##run
##waniem
piękne
przyjęciem
dyscypli
niemiecki
rach
Poczekaj
##kcję
##ady
miesię
tygodnia
##kuj
muzeum
regionu
Idę
##mię
Pobierz
Kilka
oł
ubo
##loty
przewod
##łoni
##ield
dwoma
poprosić
brąz
##dom
Twojego
zwrac
mieszkanie
Wśród
Bir
znajdzie
ab
wreszcie
##vice
szta
Zy
wszędzie
##dzono
Daw
PLN
zwraca
opinie
studiów
kolum
##ney
momentu
dostał
##ros
Ilu
##arda
regulacji
ziemię
ofiary
##sznie
użyciu
Przewodniczą
##jewod
##entacji
okoliczności
późn
konstrukcji
##AD
wydał
##ciwie
cóż
wiecie
##osty
Ruch
powód
nadzoru
ogrzewanie
##nosząc
wir
pogadać
polu
odpor
podziel
określonych
otrzymy
Hel
Numer
##23
układu
sposobu
intensyw
Wyd
przedsiębiorstwa
jeź
chciałby
działać
##stanie
##ury
Zgadza
##die
przyjm
wnioskodaw
1946
lit
korzyści
producen
szkoła
letni
młodzieży
##gon
Tri
##noty
Wojcie
sprawoz
dziewczynę
##czar
programie
Posła
##mana
Try
##tujemy
Stat
pośrednictwem
wasze
Obrony
##lkopol
Prawie
Nieprawidł
napisał
prowadzenie
doskonale
##way
wykła
niewin
jedyny
problemem
wschodniej
74
Jes
osobiście
hip
Xó
##centów
Xóõ
zgody
kolory
Miała
Mur
filmów
strategi
##styczna
skarbie
##iadł
węgla
ses
Pair
##AP
podobne
prowin
##stycznym
wygrał
Gwia
ogląd
oczywi
najwy
etap
##onali
pracownik
Mac
odszkod
pienię
obozu
dziad
delika
##rol
Tade
panów
Służ
##nóstwo
propozycji
komfor
ubrania
uleg
postanowienia
tworzenia
stronach
przewodni
fragm
Przyja
handlu
pełne
uregul
zawarte
zachodniej
##stus
##pierosy
Mnie
przekra
kredyt
przepisami
tat
Cer
##nder
wykonana
Luk
##wiają
##oku
kultural
Świętego
odzysk
zaakcep
moral
##rzem
przyjaciółmi
szpitalu
zostawić
##zję
okrą
wykonu
byłby
leczni
##otu
krok
##ruje
##dzają
Cat
przywód
Dress
stopień
##set
##chodzimy
wykształ
modelu
drin
179
##entach
córkę
ulubi
zajmie
Bre
przyjęty
Zarządu
naci
inną
słow
Tem
kung
uwzględnie
poprawka
koor
Rozm
fałszy
idziesz
sporo
Programu
pamiętać
modli
reprezentacji
lotu
##puter
Razem
Dal
69
konkurs
mówiła
życiem
przewidzi
Sza
wydania
Ger
Kuch
grzy
spotkań
Oko
##75
sierpniu
efekt
inicjatywy
##zów
##waża
objął
##czko
san
IN
Jul
własny
##cili
##niemy
opowiada
dwor
##nęły
##70
zakaz
związany
Elekt
72
##iny
##okraty
Taki
nogi
przewodniczącego
##słać
ekspres
eksperym
##ure
##yn
##mat
dram
prawdy
##szłam
przyjąć
Poś
glob
głównego
Łodzi
wą
określone
wystarcza
##leka
uzależ
Gal
adwoka
fla
##czanie
wodę
koncert
żał
##koje
##dziela
1968
portu
Poro
skóry
Włos
północy
posel
kwietniu
łóżka
Były
##czyło
zbo
wyjaśnić
William
naukowych
Bran
przepro
lotniczych
##versi
zastosowanie
specjalne
żelaz
kara
szybciej
Dowie
brut
##gres
Chciałam
wschód
stal
Europejskiego
##czonym
##akty
lokalnych
kwota
Wh
rozwiązać
##szczyć
główny
Białoru
uzyskania
czcion
komputera
##blem
183
płatności
##kurat
##ug
Ele
kawa
woda
Wewnętrz
Podobnie
gwał
##oko
##skach
pobrać
Hiszpanii
dziewczyn
minuty
Austral
##róć
jakimś
Powinniśmy
##angu
bogat
Jane
Serio
statku
proponu
zapas
73
##wka
kosmi
##cky
##cimy
powiecie
Spa
##obraz
##siu
posił
domów
ostroż
Zamie
zawartość
przyjął
dzieła
boga
profesor
zagrożenia
numery
Vic
nada
Paryżu
Bil
dyspozycji
89
bomb
XVIII
Maszy
reformy
cookies
miliar
##brator
IP
przesłuch
Br
praktycznie
ochronie
Senatorze
spek
62
Część
mając
najszyb
zwiększenie
decyzje
korzystania
odręb
katastro
zdobyć
stanowisku
żąd
kopii
tajemni
dotąd
epi
faktycznie
jedzenie
dystrybu
podjąć
konferencji
dyrekty
Medy
such
leków
1938
Instytut
Taka
##norod
Londynie
górze
minimal
Pola
rozpoczęła
uwzględni
płaskim
Byłam
zadzwonić
Ład
Blu
##pion
Poznaniu
terrory
##ił
skutek
zaczęła
##żyłem
matką
rejonie
##77
##styczną
odpowiedzieć
narzędzie
Trans
relacji
Umie
wielokrotnie
wysił
Panowie
zarządu
wysokie
nieleg
wspomni
##ostra
Puł
##cku
potencj
poprawkę
dą
##nastu
harm
##puszcza
CH
Cha
walce
mieści
paramet
wykonane
##lement
##czników
##ardy
##odem
##rzyd
pozwól
Mistrzost
komunikacji
postać
przedstawiciele
tech
##burgu
Ludwi
króle
Pensjonat
##atorem
szkołach
mózgu
##stant
##tyz
Przynajmniej
##nior
pojawił
Jednakże
chciałabym
Camel
##CH
Suite
rezult
hy
gdybym
zachód
##nąłem
Stwierdzam
Pił
Clar
ekranem
dochodzi
członkow
##kój
Stanach
idą
sezon
Skarb
Soli
ból
Grand
najp
godzinie
Biznes
honor
uszkod
Koniec
he
cuk
IS
Okej
zaprezent
##pety
##mawi
płyty
Początkowo
osiągnąć
##gdzie
##tań
Działa
Tat
##chody
Prokuratury
##wców
##jąco
wojna
##mij
Arg
warszt
##niesienia
##rzyj
pracowni
Policja
baz
Apli
usy
Wibrator
##kamy
inna
##wisz
Podstaw
250
międzynarodowych
przedsiębiorców
##itet
Lubli
##będzie
##rasta
głównej
Znasz
wysoko
uśmie
wymo
##andii
sensu
biuro
1980
AS
procesie
albu
udzielenie
##EM
wymagania
małą
##owałaś
kobietą
rys
błogosła
używa
800
przyłą
należał
przodu
spotyk
##wskiej
##own
##otek
deszcz
Sty
##źnia
Australia
powi
##órek
Sym
##omy
##ime
potęż
spada
opóź
##tarz
nieo
71
ręka
aspek
##bri
##lnych
Wróci
##remu
obsługuje
##formuł
wschodni
##ciami
Rus
siê
Wielka
zakończył
##sied
tury
##sona
Zazwyczaj
rą
przyjaciela
Czyż
uniwersyte
Dziewczy
pieprz
zegar
Chrystus
urzędu
zdecydowanie
przyjdzie
artykuł
ochronę
wszedł
materiały
chronić
63
##soft
wzajem
##zeku
98
##chem
##fil
##ford
##elle
natury
oddziel
Mieszk
książę
ograniczenia
gotowa
integra
88
Nieprawidłowe
Wiemy
lista
Fry
wydatki
wiru
metal
mani
English
egzamin
nauczania
kultur
##tnych
misji
Ośrod
media
Stanisława
ela
Opinie
projektem
rekomen
lutym
##kły
List
mniejszości
niewłaści
spokoju
powtó
podstawowe
##pp
klasyfikacji
leżą
Senatu
Mama
Bas
urządzenie
Mont
niezn
##urę
gospodarczej
Przeczy
komuni
szkod
##wej
Wydziału
swoimi
wyglądasz
następuje
obrad
porzu
opan
jedyną
życzenie
##szczeniu
własności
czele
Transp
zwiększa
Bon
przewodnicząca
##PR
sprzedaw
Stary
przedsiębiorstw
##róbuję
uwag
Poważ
wanna
karierę
groma
nazwiska
rodza
##asady
Nied
76
niezbędne
brakuje
Racja
##ędzia
łączą
spośród
##unkiem
##lia
kated
zwiększ
##zywać
##wiła
osiągnięcia
##21
Logowanie
Pyt
temperatury
nieprze
##zon
obowiązków
##iadaj
##ational
1988
1960
Apartamenty
grupę
##prowadź
przewiduje
Popraw
##ky
przetar
ponadto
słone
marki
##dż
wyraż
łańcu
młody
##orytet
Stos
Nadz
sprzętu
##bert
krajowej
##bera
##INIST
sądzisz
Jutro
Flor
##cześniej
Ur
altern
Hostel
Now
gość
Christ
prawne
amator
wyjścia
Brytyj
faceta
##inte
podmioty
obowiązku
istnieją
1948
politycznych
wydarzeń
78
Zapew
publiczne
zdrowotnej
zbliż
##jnik
uroczyst
komend
dowódcy
powietrze
uciec
You
wyczer
##walifik
ręczniki
Wes
##26
ham
##szona
każdą
Miasta
##niejszą
##ślij
zanieczy
założenia
wykorzystać
łączy
przek
rozka
##alog
pójdę
wykorzystuje
mężczyz
tk
przedmi
reżyser
Przystępujemy
włó
Pomimo
Otwiera
XVI
Gale
Fla
##legan
więzieniu
lekarzy
wolny
Sądu
rozstrzyg
gad
współpracę
mowy
jesie
naturalne
będąc
##ako
główne
odbud
lider
##rócić
dostępnych
codziennie
przygotowania
Die
Szukaj
przypadków
kuchnia
##niałem
##bienia
byłaś
pancer
przemysłu
bibliote
przestępstwa
biorąc
68
zaopat
Sku
ocenie
prawdziwy
grub
idę
Bill
##czonej
Powinieneś
systemy
władzę
Bet
##rwał
powinnam
myślą
##par
przyjacielem
prosty
Krzysztof
##gs
założ
##aloguj
niemieckiej
dosy
stworzyć
Street
Wschód
##ławiu
Polskie
##maty
czytel
ogród
wszystkimi
straty
zakupi
odpowiedzialność
##szałeś
##ella
wszelkich
hoteli
wiatr
Lubię
zgodę
Intern
głup
FBI
Start
zysk
dotacji
Niektórzy
monta
Pun
##ik
brał
wskazać
witry
Nar
Chcemy
materiału
Okay
mógłbym
niezależnie
Cham
##rawied
poszedł
skró
zrób
zamach
Zde
transak
wiedzę
##eryj
obecnej
terminie
dziewczyną
mnóstwo
Czym
legen
##zacją
Kie
bol
sformuł
Jerzy
bó
zadaniem
wnę
Norwe
Lar
##łać
Zbi
Toe
Jedna
najważniejszych
tysiące
leś
wytwór
##dzania
konsekwen
przesył
żart
śmiertel
Administracji
częściowo
wypro
##żnej
eki
złotych
olimpij
pośl
##mując
Gdybym
wyspy
samobój
##dencji
Wez
Polskich
posiadają
Bene
Hit
Bada
Raz
##szczą
Rę
sześciu
Archi
uzd
##dam
lepszy
##eczka
rozpatry
otrzymała
zabu
ministerstwo
pacjent
61
wód
producentów
gabi
Zmie
##niczych
Wysok
##ariusz
głod
##ast
fun
prosić
federa
1947
Res
Hy
Tłuma
79
AB
zadebiutował
łatwiej
##siębior
##janie
cierp
##ins
Zaloguj
użytkownik
##ansu
##ee
obowiązki
filmie
Universi
Prosi
sposobem
Ofi
wes
##ged
wrócę
1981
niemieckich
kary
Prezesa
przestań
przygotowy
napraw
##sper
zara
cia
analny
egzeku
Buda
Agencji
Praca
zarea
hostele
osobom
rosną
Zg
Słyszałem
lotniska
Far
##ńców
widziałam
uwzględ
##state
piłkar
##olf
klat
tanich
znalazła
zapoznać
samolotu
śniadanie
filmy
rozmaw
##grywa
powstrzymać
mechanizm
serwe
podział
posł
zuży
##ujące
studentów
próbował
##nęli
skrzyw
Istnieje
##styki
##torze
szczegóły
gotów
##udio
księcia
regul
Mater
Bart
sensie
tacy
wprost
Najlepsze
Królew
##szer
Jesteście
cześć
kłop
##sę
Wyj
smak
fol
wsty
##chodów
staroży
Żar
##eles
błędzie
##żar
Choć
osad
##szania
zapewni
##ville
towarów
organy
ważny
zapach
gub
Człon
mapy
zdefini
Ray
##cono
##wood
##luje
robił
zezwo
##raźniej
Bli
##dowol
powiedziałam
nakład
matematy
Ciągle
przygo
większej
lewej
##niała
Sand
dosyć
##dor
pion
zaszczy
dyskusję
##nnych
odbiera
chwil
mapie
medal
##AK
wykorzystania
granicą
powinnaś
##anci
##antem
##alen
najważniejsze
szansa
niesamowite
##chów
##wacja
ofertę
sprowadz
dopuszcz
planuje
skorzystać
połowy
kąpie
schron
narze
rel
Ant
używane
zato
systemem
zachowanie
odde
zakon
##stki
##przewod
##leniu
premiera
niedaw
czą
Poziom
Black
Michał
szó
druku
zakoch
potrzebujemy
Kel
Papierosy
##ieranie
dawno
przeznaczone
ustanowi
##karz
moty
##kowany
zamku
Szkoły
szefem
Egip
##ropoli
Chan
otwarcia
Potrzebu
wad
jąd
##erem
Znow
##pusu
##tas
przyjech
odbyła
##owisko
zgromad
Sir
statu
##dzki
##wiecie
##żeni
oficjalnie
piśmie
zabie
Oli
internetu
ostatniego
ogni
Uwaga
wzor
kabl
##mem
##pto
##dentyfik
1982
Zwycię
naczy
Rzu
Wiecie
1985
China
Znowu
podstawowej
Odp
Ac
Jednym
narzędzi
konieczność
licen
obecności
samorz
ciągł
poniedział
##lij
naukę
##szyła
usłyszeć
Będą
struktury
ubiegł
##daleko
Podoba
96
##godni
Lecz
sieć
wakacje
pewnych
krzyż
opłaty
##dago
psychi
##wiar
prosimy
wpływu
siostry
oglądać
balkon
bok
##rea
ekologi
Zabierz
pozostałe
ów
utrzymać
sporz
precyzyj
zechce
Piotra
społeczne
zaczyn
##tes
rozpoczyna
##znania
Celem
Raj
Tymczas
##ode
komplet
średnia
##oth
napo
1987
cyt
##wica
arab
gnie
##rzut
net
Kogo
##nny
##ciłem
szczęścia
Fu
Ky
tatu
Europe
pewny
##cus
wojewod
##ban
niepełnosprawnych
sędziów
zawi
##ero
##endy
poraż
obiad
USD
specjalnie
negocja
dokonać
bizne
równie
zbroj
##27
Gospodarczej
##mun
trener
postul
DNA
##dziłam
Hor
informacyjno
kal
głęb
##sf
ocenia
gej
##techni
słyszałem
wywoł
##iałeś
szeroko
powiatu
umrzeć
leg
##siąść
uczestników
Microsoft
prawej
1984
meta
swych
opuści
VI
##ica
##lent
83
##ższe
przeja
pokoj
próbuje
94
##macnia
##zego
zasadach
zasil
magazynie
##wizja
She
rodzaje
Izby
##wczego
wynagrodze
poście
obsza
trening
zwykł
kolację
nagra
podstawy
Użytk
86
Techni
##śnij
znalezienie
##likwid
odpowiedzialny
czasy
Tę
##gowych
##łożyć
##owicach
pragnie
Kier
człowieku
Pły
Przedsiębior
szale
srebr
realizowane
##ess
##wiga
lodówka
##czynku
zgadza
herbaty
tęsk
wyposażenie
krótkim
następnego
sektora
medycy
soj
znaleziono
##our
rozmiar
wyposażone
niespodzi
gale
idziemy
Portu
##ere
pamiętasz
1986
zda
stosowane
przyjaciele
sekun
1956
##komp
Ozna
rakie
istnienia
##low
##vie
##orth
Japonii
poszu
skór
policję
Nagro
wyszukiwar
##MA
##cena
Brazy
##nicze
Proje
nakaz
pełną
średniej
Sol
Amer
procedury
wprowadzi
##irtu
##000
##pora
napa
##nost
każde
##łuje
nieba
##kiewicz
wize
płyt
zachować
reform
wybuchu
obrazu
wóz
piw
Infrastru
pij
nastąpiło
##eno
Męż
data
##unkowo
dobrych
wprowadzić
Najwięk
przyspie
śnie
Kiedyś
obszarów
Drugi
motyw
mak
Świą
ministerstwa
##żesz
uchwały
##lnej
symboli
liczy
wymiany
King
braci
##wiając
kwalifika
International
Bank
chodziło
pojawić
nauczyć
burmi
##nomoc
siód
morze
utru
##tymi
mapa
Nieważne
metra
Marii
likwidacji
##get
krzyw
##rzysz
160
bezpieczne
##amtąd
internetowych
Hal
##liwie
##gowego
##rządz
##grafi
magazyn
przycisk
Ostatnia
czasopis
kwiaty
swobod
zniszcz
spokojnie
Order
Para
zastosowania
weekend
Wielu
84
przemo
sypia
silnik
Poważnie
##wskim
myślałam
##ńca
Republiki
oświet
wieści
##enem
przypadek
kolejności
plikiem
masa
##FO
Bożego
##ZY
przestać
Zre
Urzędu
wytrzym
różnorod
zdarzyć
Wojska
##sąd
Zn
dostępności
##wielbiam
komer
##szliśmy
wyrazami
##atorów
##owsze
Przewodniczący
1937
wyszedł
ryzyka
rozpatrzenia
##denta
1921
Av
senatorów
długie
narodowej
##żyli
##ith
##siad
lubisz
##mali
przyczyn
obiekty
wracać
okręt
stałe
zostaw
United
##VD
kształcenia
wydoby
##decznie
stolicy
77
dziesięć
pokoi
konsekwencji
uprawnienia
kół
proced
##zowie
##nościach
##dziesiąt
##gue
oficerów
##łomie
tradycji
##ati
Ukra
##ones
Richard
resztę
Pora
##nowie
kościele
##daż
Ach
dawna
zabawy
słuchać
##gły
Wyniki
##wód
stabil
powrót
##brał
Komputer
Profes
178
czarny
Gaze
czcionki
źródło
spor
Pomóż
priorytet
##ceń
git
północnej
pięci
zakłada
zwierzęta
Pil
spali
odwa
aktywności
wielka
wiod
hodow
MINIST
użytku
aku
wpływa
Skon
któremu
paliwa
Sar
miałeś
Natu
##iz
publikacji
##siądź
##basad
Rozpo
dowodów
linia
1983
##book
temperatura
##omor
wypoży
przewidy
Południowej
podjęcie
##28
odzyskać
Af
pety
1936
dowodzi
##EG
chłod
załą
forum
##amięt
Jen
napęd
##groma
Harry
arcy
usytu
##zuj
dwudzie
sprawozdania
rozli
Mapa
początk
Polityki
Dil
##don
Ah
Fot
##erii
byśmy
##czniku
średniowie
uh
obecność
środowisko
spal
Marka
służyć
##stę
Booking
finansów
##miało
uchy
określonego
Dziękujemy
wydaniem
obejm
##fel
jeść
Wyglądasz
##kają
Stąd
Zostań
ostatnia
chiru
SK
uspo
łatwe
basen
##psu
policja
zlikwid
elegan
dostępna
Ide
##ester
##piesz
Mark
psa
##nieś
elektro
medycznych
wyjście
smo
oper
Zgromad
##rię
Wielki
Szczegól
##czyków
stworzenie
##czce
##ościami
owi
kompetencji
##ceni
biurze
##czycy
rolnictwa
##orę
funkcjonu
##tz
##hel
Antoni
##wodaw
regulamin
Lor
Vol
##szają
prawnej
pragnę
Matki
pobyt
Ostatecznie
uszkodzony
Nowoczes
chmu
malar
##nel
jasno
##łgar
długość
zabezpieczenia
Warto
wszechś
##mujemy
1930
konser
wydost
##anowicie
##zujemy
dostate
dole
Zagrani
sztuk
krajowych
rolników
Eli
1972
nieprzy
zginął
Angeles
ciężarów
Włoch
tram
ponowne
Wcale
##czoną
##wic
##oświad
Wraz
Nazywam
pogody
bły
moi
IT
Andro
Wysoki
lun
serwis
##kla
Mężczy
Indi
##gowa
stworzył
##iska
szczęśliwy
Ziel
htt
kali
mieszkal
przesłanie
promieni
Zwie
##ujących
Mówisz
##ciera
##puścić
##cjom
powstały
##ujący
##ement
śmiercią
stworzenia
usługowy
akurat
Tyle
płu
informaty
1950
zdolności
propozycję
Partii
pacjenta
zmienił
pią
traktu
leci
spotyka
1970
##leczkę
wor
##enci
##bać
##figu
znajdziemy
##gnę
##elimin
gminie
##więcej
umarł
Internetu
##anda
Obiekt
##ament
Północnej
##ciński
Rod
Konty
niemieckiego
naczel
wirtu
licznych
##ac
apartam
wyspie
ustawodaw
przejście
##EK
kobietę
##usch
pasuje
wypoczyn
Tomasz
powstanie
ogień
ogłosz
Wene
szwe
służbę
##cyjnymi
kolejnym
właściwego
milion
zapisy
chwilą
wysoki
takimi
ug
Powinna
1928
##owal
ligi
umrze
tri
różnica
sklepu
kariery
muzyka
fas
wście
Pamiętam
wspaniałe
gotowi
Dra
Cokolwiek
magne
zdrowie
odczu
Lot
wolne
##oo
##witz
obrę
##lay
akty
byłaby
##osze
budowa
książek
swe
##seud
Rolnictwa
Tony
Wod
##niają
Dawaj
##jsko
rozdziel
szar
Marcin
patrzeć
Uniwersytet
nadzwyczaj
odnot
##isko
##niejszej
Rzym
użyte
niektórzy
egzem
##ux
nikomu
##owskim
wyraź
##prawy
Społecznej
##strzem
Żadnych
tron
##29
wygran
Grani
internetowe
Og
wyprze
##ase
Dobre
pozwolę
##lony
południowej
##kacje
szt
wystaw
Koment
gościa
www
wojnę
1973
przygotować
zabytków
##ałbym
Ken
rąk
130
sygnał
opak
Wrocławiu
alkoh
qu
edycji
1949
##pełnia
klubie
##zowane
prędkość
##tacie
pist
otrzymaliśmy
93
Dw
gwarancji
##pus
synu
Rosyj
Związek
Pomoc
uczucia
dym
kraje
Steve
rocznie
chłopaki
Hall
##ksy
Każda
biegu
jednozna
zamian
Francja
##iaru
jednoraz
##ślad
Miałam
amerykański
banku
lotnisko
##ologie
wymagane
laboratorium
eksploata
##ath
prywatności
damy
szer
posiadał
roszczeń
om
przeciwie
kwad
koni
dokąd
wicem
chorych
specyfi
masy
mistrzostw
ducha
pracownicy
przegra
Układ
##cław
odszedł
wiedziałam
##mus
limit
największym
okazało
świątyni
wywiad
Potrzebujemy
##tal
Gratu
węz
Pomor
1976
nawiąz
market
Pamiętaj
##tarza
zem
##Sc
sprawozdaw
Sin
Zadaj
trudności
aresztowany
przemie
##minu
##kiet
Bydgoszczy
oddy
##wum
piątek
pełnym
##gur
dyplom
Druga
##dge
##sekretarz
Popatrz
obszarach
Przestęp
koleś
##wań
Uh
mające
twierdzi
miesiąca
zadać
##óre
poważne
zamówienia
Wrocław
wku
lotów
mecze
##atywne
mieszkani
absolutnie
XVII
##ologię
odbyło
podwod
ważna
kwalifikacja
dotycząca
boli
Jimmy
rozwoj
konkursu
propa
Platforma
Kara
##gady
Jac
Gr
rzeczą
##logu
graczy
##fera
zapowie
oddziałów
##nent
ON
ciast
drewna
gatunek
poj
pójdzie
##ących
##etery
##łka
wodą
Uważam
##dera
południu
planów
Mana
przeprowadzi
poże
Problem
##łodzi
imienia
Przykład
oca
##odar
biały
substancji
1954
księży
##mail
##pki
powieści
Es
rezerwy
zbad
okno
##głoś
wolność
łodzi
fund
opowiad
specjalnych
Bezpieczeństwa
mechanizmu
odwoł
##owszechni
wyelimin
butel
dzia
##ander
##śleć
zajmował
cieszy
##camy
powiadom
PRO
poniższych
samolotów
biurko
97
krwa
polityka
hor
##ądzie
łu
poprzednie
tereny
Pracu
książkę
##suń
Rozumiesz
przywo
1978
##bytk
trasy
rękach
śwież
samorządów
Model
Colle
Chris
Pen
leki
zare
Wydaw
Aktualności
bater
##omii
epo
toku
życi
Daniel
##larii
##pienie
1979
Lee
kompeten
Ukrainy
walk
siłę
Francis
##lnie
utworzyć
##ann
##nianie
ety
##gin
wynagrodzeń
powrocie
dorosłych
Adama
Jose
tren
okupa
Cza
wyru
zwycięstwo
starszych
Podaj
częstot
kłó
Nienawi
Cu
pogląd
walkę
trz
House
##dzkiego
planie
wykorzystywane
powtarz
cof
Test
cieszę
##tytuł
narkoty
ogro
demon
pisze
Wobec
Konkur
budowie
Pob
Andrze
##ice
trafił
Cięż
##zerwuj
strzał
wyborów
wewnętrznych
bezprzewod
zadowol
znanych
##orzej
diece
##57
zdarza
głupie
stare
niszczy
stosuje
wynikiem
Otw
lokalizacji
##oper
wyjaśnienia
Funk
wysoką
Leon
podziękować
pościel
##tnego
okazję
pielęgniar
##ominam
równ
parlamentar
wytwarz
1922
Kre
##razić
październik
przyst
##prawdopodob
przebieg
##enach
wysłuch
##ralne
ziemia
producenta
##lisz
##elem
rundzie
abyśmy
skończyć
samochodzie
rozwij
##praszamy
##pił
tryb
łas
rozpoczęto
##lary
Mot
1974
##muję
dowody
koszyka
ślady
most
niedaleko
Club
zwiększenia
##wszem
Rach
sup
jedzenia
Lista
Tw
wskazują
##roz
przyznać
raka
wasz
podejrze
przewa
polska
Wydziale
Widziałeś
Tob
rozpocząć
Zarząd
m2
deko
##lama
##niczej
buty
więźni
podłą
koryt
PiS
dowódca
martwić
##ube
Straży
kosmetyków
ofert
wyprac
trzeciej
pań
Obo
ogrod
Byłeś
nagrania
##rey
##spira
kamien
klasa
##ralnych
Open
chłopcy
igrzy
dopas
##ocie
kilometrów
uniknąć
Yor
Chica
wręcz
##dują
uratować
1924
Bożej
##pów
pomieszczenia
druk
Klien
przeniósł
bied
uzbroj
posze
pies
największe
odzie
nieźle
młodzież
Występ
północno
osi
płci
87
FC
wiedziała
Gospodarki
kuzy
boku
spółka
umowa
komórki
##integr
elementem
międzynarodowe
mobil
strefy
ręki
Ostatnio
potencjal
##ves
sele
imprezy
Amber
jedyna
powiedziałaś
rywali
Tan
baw
mogłam
Brzmi
Kance
nagród
przywró
##ałę
aktywny
obrazy
gdybyś
przekazać
obro
powiad
miliony
upoważnienia
Szkoda
paliw
Pójdę
##wani
taras
właścicielem
##BA
profesora
niedo
wykonanie
Net
##66
dalszą
cechy
##czeństwie
##inarium
Opie
oddziału
wdraż
podpisał
Hele
ściąg
##perium
bliżej
ewolu
mikrofal
okrętów
bitwie
zmart
miesiącu
zgroma
##oduje
ota
##gene
##pitu
1934
praktyce
ub
przynios
Jad
konta
##niejszego
ozd
dala
Hey
przep
##niowe
urodził
cyklu
fry
poprzednich
UN
wersję
poprawy
teorii
##różnic
większy
##zywał
kupu
Instal
spie
zarządza
##ware
przecię
rozważ
weźmie
wytłuma
Ucze
ciężar
Gali
pokładzie
postaw
zeszłym
Forum
sol
##col
znana
odtwarza
przepisu
##biny
##taktować
##arzem
dż
Klu
klient
swą
kwart
uciek
##spir
##dynek
zamek
poszło
wystąpienia
gnia
##nnego
##45
Martin
międzynarodowej
Kal
pami
zdoł
świetle
##ree
odmówi
1933
##prawdopodobniej
mistrzostwach
zapłacić
##spodar
terenu
Pry
dzisiejszego
matkę
uprawnień
powięk
zabawne
tworzenie
szanse
Of
##nisz
##hr
zniszczyć
DVD
##nięta
wyle
stamtąd
Dildo
zwolen
czekaj
Instant
##zur
##ymy
komuś
zagrożenie
##bii
Chicago
uczucie
##łami
dźwięku
wysłać
Kir
niewiele
bratem
Nowej
wt
##cker
południowo
Graj
##wem
leczenie
Źród
Ces
Polskę
zajęć
Austra
wyposażony
wygrać
Otóż
wcześnie
stół
gwiazdy
uwolni
Ameryce
uwadze
mediów
ubezpieczenia
jakiejś
##dzanie
meteo
##asu
powiedzenia
zespołów
Południowa
##stych
uważasz
##icho
Życie
wskazany
omawi
##anaście
wkład
przyrody
FA
idi
wykorzystanie
funduszy
loty
krajobraz
konkurencji
oczach
czer
##owod
gal
bro
wpływem
zamówienie
skan
##rick
odpadów
NIE
##otera
##ida
węgier
##szkę
##rich
##OK
zjeść
Przeczytaj
zago
Austrii
##czak
Zastana
##eck
oświaty
Powinienem
Seks
Zmiana
170
danym
##tnej
Kot
gazu
piosenki
póki
zwracam
służył
##toli
Państwowej
pseud
##uschwitz
gów
##skanie
wiąz
Danny
wspólne
##krotnie
nerw
całość
Mieliśmy
znalazłem
##mace
powszechnie
pozostaw
małym
posłowie
##osta
nieszczę
Trudno
oszczęd
uczestniczył
działają
martwi
##skiemu
Księżyca
sprawi
położona
opcji
jakichś
zbudowany
audy
mel
Faj
zaofer
piękny
porozmawia
gatunku
Turysty
wierzyć
##kłe
pog
zazd
dostępność
rozmów
pokład
podać
Zapro
##zali
##niętych
potwierdza
mro
sanitar
##dium
1917
ły
występował
Auschwitz
##szeniu
##warant
małej
certyfika
gimnazjum
wywia
Sky
uk
alarm
głosy
Katarzy
koron
##żbie
rany
1969
University
sejf
gran
Niemców
Feli
##ychać
1935
zawierają
wydanie
przypis
zwło
utrzymania
podnieść
oddać
Sun
tłuszcz
linię
opisy
##mą
##sień
klę
sześci
Izrael
granicę
Wart
zachod
Est
Statysty
Wsparcie
Mak
prywatnych
Atlan
Azji
Aplikacja
Dis
wyku
Odkry
wprowadzono
Zi
średnio
Regulamin
większych
sejm
wschod
Pucharu
Phi
Australii
##czość
##65
austria
Dwie
wenty
##nięciu
najszybciej
pewną
apara
reszta
1957
Produkt
zwycięz
1977
Północna
##torek
karierze
##owniku
Pad
drzewa
Śmier
zapewnienie
##ts
skutki
odkąd
##ściach
zawiad
potrafię
zespołem
##cam
rządów
gospodarstwa
##bis
mięk
Dzwoni
Sm
lę
Gdańsku
elektryczny
Smo
1929
prawdą
powietrzu
##niorów
Stron
szczyt
kompatybi
olbrzy
bak
jednoli
zawodowych
chorób
stale
zakładów
##ding
emisji
zabytk
##óp
poto
##owskich
mistrza
liczyć
mieszkańcy
powierzchnię
Skończy
Ostatnie
wli
##gowy
kolejną
wykonać
pożar
##IM
skrzyż
uruchomi
winy
##ziony
##SP
##lizować
##orty
##owując
posp
WE
odróż
Santa
Prezes
##przy
ogół
Wielkopol
Krakow
trwania
córką
##ankę
Włochy
Rozwiąz
Pliki
Apost
Ron
wysłał
Czasem
doprowadzić
apartamenty
AR
##nikach
##niłem
mięśni
właściwy
główną
zidentyfik
##płat
wywal
sądów
Apart
atmosfery
HD
Załat
żyją
francuski
identyfika
Zab
lidze
pamięć
cudzo
technicznych
zgłasz
obrotu
Straż
pojęcie
zarobi
##ema
##anina
Toru
Wielkiego
Klimat
Wiedziałem
Doktor
garder
##wałam
tan
trzecim
przyjęta
chcia
uniemożli
##48
objawia
ruszaj
##przestrze
Zdecyd
mono
zakupu
świadomość
##letni
agent
##obrze
ut
##zech
pułk
rozsąd
##habili
użytkowania
##TA
Spi
kształcie
rekord
Pru
znaleźli
Elżbie
##wad
Spróbuj
odpowiedniego
Trój
Wers
Kontroli
inteligent
Dziedzi
PZ
##bela
podejście
powyższe
zapale
##owce
Tour
opat
oferta
##ologicznej
##lektu
dekla
##oph
perspektywy
bezpośrednie
Zyg
1914
Historia
serialu
zadowo
indywidualnych
praktyki
szcz
świadec
określenie
Ev
wskaźnik
zróżnic
muzykę
Meksyku
drużyna
##ition
##stawaj
pokona
sobota
środowisku
stracił
Darmowy
##ślił
##wca
zrówn
##35
wielkich
programem
Wasza
##wiania
zapewne
mikrofon
Powiedziała
wojskowych
82
bilety
PA
koła
Saint
##nopol
rozporządzenie
okolicach
Sha
##owia
cholera
##niowych
strategii
Zmarł
apartament
organizacje
zainteresowania
prośbą
zawodach
doda
czynność
Czytaj
dokumentu
Jakieś
opuścić
podda
serwera
Charles
Rock
pojazdu
kolejnego
##lność
##czących
zdolność
Jord
granicach
##gnosty
instytucje
pisma
spójrz
najlepszą
miastach
imp
przybył
facetem
##dzkiej
##jek
sklepie
liceum
Poni
angielskim
Smi
artykułów
zarob
okręgu
Der
Austria
zresztą
Poroz
Nick
##CO
odpowiednich
##ag
Królestwa
Zbignie
##dio
110
przekonać
zrobiłaś
##ranie
bitwy
Tymczasem
##stał
programami
popiera
##zuję
obrębie
infrastruktu
ben
##łoży
##kiew
brać
zrobili
skra
Den
Komisjo
podanie
porno
##zujące
1964
turystycznych
Bał
wynosiła
stosunkowo
Prawdzi
rent
##sic
udo
Afryki
##wanej
imprez
moze
zespole
Chwila
wyjechał
175
Około
otwarcie
Blo
gówno
stro
##64
członka
##90
##enerw
##wałeś
##cation
serdecznie
mających
##rzona
pozbyć
Mało
zniszczy
szpie
gotowe
podziału
##dziem
bil
największy
1927
niemieckie
##gasse
##iusz
Otwórz
podp
godzina
małżeństwa
Ski
Fe
kuchenka
Spółka
##kło
opad
##ds
inwestycje
przemocy
rozum
wicepre
gorzej
##kował
wyśle
ogromne
##niż
następny
Afryka
mundu
##dzka
pali
Dyrektor
uczę
rzędu
Przysię
##lizm
1967
potrzebna
małego
1971
bronią
Załóż
funkcjonariuszy
##wyt
##ZE
złożyć
złą
Stara
nastolat
lewo
pojawiły
odnoszą
##gnor
różnego
hom
Komitet
odebrać
transfer
Absol
poszczególne
wspaniały
mianowany
Zrobię
Lam
kance
przepły
uchwał
generała
geograficzna
tytułem
Pale
Rumu
lekarzem
Van
robicie
Przestępczości
177
Inwesty
dotrzeć
oczu
socjal
Tłumaczenie
hu
gracz
##popular
rami
##jad
##szyng
miastem
dusz
pobierania
wyjazd
oboje
##sis
autostra
Sprawiedliwość
dalsze
zwracał
zadz
przygotowanie
##fej
KR
##zacje
##termin
jeziora
##liknij
ost
##ńsko
obecny
Przechodzimy
prokurator
past
##stein
dzieli
May
Arch
podjęcia
minu
##wiercie
Mach
##tic
miejscowość
Który
Fron
redu
dochodów
ranki
poślubi
luksu
słuchaj
##bisku
##wny
Azja
1925
kwia
##stawienie
odcin
jednakże
koszul
##alnia
bile
Długość
równowa
Nieźle
with
ewaku
porozumienia
związków
##lizmu
wizeru
get
Oddział
wyzwo
placu
zrobiłam
##xi
niekon
kwestię
zainteresowanie
następne
kapł
związana
sprowadzi
trzydzie
##ława
Ps
##stian
cha
odpowiad
##ówek
przeana
majątku
##pul
pul
wyst
Mini
utworów
konkursie
Wnios
##nnej
wspomin
140
##conych
przeniesiony
##czymi
Jerzego
##szłaś
wzy
widzimy
większa
Rozmawia
Szczę
##mum
prowincji
Kost
niepodległości
drzwia
ulega
##omu
uwzględnia
Wysokość
Lil
obroń
##gowe
##bił
wydany
Ojca
zainstalowany
przeciwieństwie
##eor
##cielu
zakończenia
Miałeś
urlop
Zrozum
Dub
ewangeli
##edy
wyścigu
zwrotu
dyrektorem
nowot
Infrastruktury
szczegółów
POL
sędzie
##ięcie
przyjęła
modlit
Znaleź
Raczej
przynosi
Napisz
fal
##andard
Bog
Młodzie
##turą
korek
Konstan
dziennie
Ustawa
Komisję
przełomie
##ownych
umar
szanowni
grozi
Rodziny
##owna
NAS
ostatnią
##racamy
Badania
kandydatów
Kalifor
Eg
chodzić
les
wybit
drużyn
zdjęciu
##razy
sterowniki
zatytuł
Parlamentu
żadne
Głu
przydziel
Narodowy
##day
##SK
Zim
czuj
centra
Legislacyjne
##olender
pełnomoc
czuć
##lizacja
organizacja
budżetowej
ślą
##akt
żelazko
##styka
Berlinie
adre
niedługo
Bay
procesów
wydajność
Zale
koł
pozytywnie
zgodne
serwer
Trybunał
##minacji
Phil
##języ
utrzymanie
700
posłuchaj
ali
Zobaczymy
oczywiste
moglibyśmy
poczucie
planet
prawosław
Ska
Thomas
##cyjności
politykę
utwór
##brew
##wator
małżeństwo
Hill
dostawy
mówiłam
##wanego
Matka
student
garni
wyglądać
##goryt
kolekcji
##ult
dokumentacji
załatwić
przypomnieć
naprze
niebezpieczne
Wyt
##stycznie
##ozoli
poniedziałek
stref
wstąpił
saty
Poprawka
1965
Dre
opuścił
jedyne
Śniadanie
1953
zajęła
##wcy
AK
odna
loj
Mari
##dl
stóp
##ns
staty
robotę
wielkiej
podstawowa
skutków
Poja
Jean
##eah
wzniesi
tablica
##utra
sos
Wład
##FA
organu
dzieło
##wiona
przystąpi
stwierdził
fragment
Sur
Możecie
##atach
formacie
##ords
##żnych
wybierzesz
płyta
dowo
nadaje
brzegu
Gil
apost
resort
dziennego
##chool
Język
łam
poczekać
wymagań
##ston
##dzeń
Piechoty
terenów
napisane
założył
bel
ustalenia
skryp
wyrok
jaski
Izraela
har
chętnie
komunikatu
##łożony
##stej
zdania
Rozmaw
##prowadza
zawartych
mniejsze
produkcję
naka
zamierzam
##eta
funda
##rowa
jednostka
Green
przedstawiamy
Eu
1952
przedłu
material
Oznacza
News
przyczyną
prasowania
##soli
sprzeciwu
sfer
sąsiad
AC
1926
populacji
##var
kontaktowe
##sługa
miliona
kontynuować
##acji
złota
1923
remon
prawnego
##muj
1958
gwałt
propozycje
otwarty
polityczne
Jerozoli
wspaniale
##rabin
Nation
##udi
uruchomić
Solidar
marynar
##dt
Mogą
Wcześniej
domyślny
terenach
ewi
wspomina
##broje
##ML
Warunki
Sądzę
Producent
miłos
świetny
Wilhel
potom
Uczest
bet
1932
abyś
But
zbiór
Polacy
##fen
##tale
przystan
##tus
chłopaka
konia
dwoje
położone
remont
Brze
urodziny
Napis
zezn
powoli
Bogiem
dalszych
Powodzenia
##landia
Les
przetrw
Młod
lite
lekko
biskupa
##paść
żył
Wejdź
aplikacją
łóżku
Katego
Berlin
Brow
wyszukiwania
Liber
mogłoby
wysyła
wiąże
Śle
Andrzeja
##czane
Jon
załogi
Fryd
cenie
odku
Wschodniej
przyjemność
Alb
##gowej
Udało
rzadko
chciałeś
wspoma
brzuch
##zjach
posłuch
Doktorze
Tommy
sądzie
morderstwo
robotni
nocleg
##dzał
Wewnętrznych
pełna
Mogła
szczerze
martwy
pogrzeb
##33
ściany
##hite
Victor
częściej
Waszyng
##biorę
Poru
##czku
przestrzeń
powiązań
kalen
##ude
zareagować
wzbu
Najbardziej
##katoli
synów
połowę
konstytucji
##wij
##noszę
wagi
##dagogi
pracą
postanowił
wykonuje
##ive
przesu
formę
propozycja
##żon
##tycznego
##zuł
Wypowie
sekcji
Porozmawia
Wykon
służbie
ekstra
treść
trenin
Lokali
##typ
błę
Royal
Wczoraj
połączeń
rozwa
##atki
uczyć
rozmowę
podziem
Głównym
##waliśmy
Stowarzyszenie
blu
największą
przydat
najwyższej
Wojciech
warunkiem
1951
##BC
##gię
##szonych
Dzien
kompatybilny
##ов
terminu
odży
kluczowe
strz
bój
##glu
Liz
Prowadzi
Gwiazd
mężem
Włoszech
##dła
Ostro
Polityka
finansowego
##ita
poprosi
show
kryzys
doktorze
miesiącach
Słoń
środek
skrę
uwaga
niby
zajęty
Sejmie
zbie
##rodzenie
1955
zakupy
przyje
1966
powstaw
pojawiają
podzi
Czer
##ript
Zagranicznych
daty
##komis
błędów
Departament
##hen
wybierz
ognia
##szewi
rozrywki
Porów
Ira
##dziło
placówki
zawodów
agencji
fu
menu
NIK
##ceniu
Boh
##PL
przerwy
pułap
Kliknij
1931
Kro
święta
Cała
ściśle
##owywać
Pała
##lnictwa
Kr
polską
referen
zaczęły
strasznie
##sków
Zadzwoń
Główny
##godny
##nikom
Twojej
porw
upły
korespon
##stami
##WA
dowódcą
Doku
osa
poparcie
powołany
Ly
ekspertów
Arab
##xy
Kolejne
handlowych
źródłem
pojawiła
zrze
Bat
tabeli
##terze
wieży
mógłbyś
Chwileczkę
zasięgu
wychowa
dotyczącej
zepsu
potrzebują
niemieckim
kochasz
Dywizji
##ancie
macierzy
ochrona
Znaczy
zintegr
defi
rodzajów
oddal
intera
starego
Zapomnij
Dużo
głęboko
głębok
Ted
społecznego
Premier
wzmacnia
napi
słońca
raj
167
Stowarzyszenia
Ash
siedzieć
starych
Urodził
##age
Prezydent
ambasad
Węgier
##pka
odzwiercie
kawałek
Chu
##field
działał
budzik
##bija
najwięcej
##right
kontaktu
powstało
spój
potrzebował
bła
Ducha
skupia
zakończenie
KP
##ownikiem
gle
##towane
nawie
Cast
samorządy
wyrobów
Ewangeli
finale
cycki
protoko
techniki
##wojen
opozycji
Sant
Usp
nomina
wynoszą
Aż
##lak
wiedzieli
budynki
obszary
##kowana
270
Konstytucyjnego
##Wy
ogłosił
pomógł
Lwowie
kolego
miły
Także
Spółki
Domi
funkcjonuje
##ig
bawi
Ran
dziewięć
siedmiu
kątem
Typowy
Małgorz
plu
##sc
Prog
potrzebny
##mann
stadion
mogłaby
1962
znaczeniu
##szkol
##wczej
Obiecuję
Bibliote
Hotele
##rał
Rodzina
Parku
##cial
##dziły
hał
oczekiwania
##SS
żołnierz
Kup
słychać
uzysku
szybkie
ture
żadnym
komórek
##ship
##ologicznego
##stali
##ingo
właściwe
Wspaniale
podkreśla
warzy
gó
lapto
pewność
Kazimierz
Gor
politycznej
Edward
widziałeś
kolejowej
konsultacji
wyszła
kump
włam
oddech
##świę
##34
##cinie
Enter
##uszki
Plus
najprawdopodobniej
##sfak
##zero
Gol
Uwielbiam
##dujemy
miałby
##orami
Ludowej
finansowej
grunt
car
Budape
Nauczy
minę
Człowiek
religii
okna
##parat
taksów
##skutek
##ołem
##łki
mówiłeś
Kawa
##press
##vers
interesy
turystów
ewentualnie
wyproduk
nab
Niezależ
kompi
VII
naukowe
parlament
##ingi
Przedstawi
Kated
pilot
puzzle
wybran
tyłek
##towych
##onomi
1959
znalazły
złożył
faktu
##korzyst
##nieni
zobaczymy
##pem
##cio
mierze
uroczy
##trzymy
misja
limi
##ieł
złapać
park
obowiązuje
rejon
prawdziwa
finał
Języki
alu
zamknąć
zachow
generał
spektak
młoda
pozwalają
##har
kapitan
uwię
okrętu
##roda
kadry
Raport
liczbie
Pokój
Johna
##odat
artystów
##pole
samochody
zawo
tłumaczenie
pasażer
##ngu
##68
High
92
zdecydował
##kinsy
przyszłym
zapomnieć
uszcze
konfigu
Moi
##CI
agre
spojrzeć
zabrał
znajdę
Ubezpie
kradzie
##stanowie
Top
używany
wykre
Studi
darmowe
##usa
lam
##gracji
opusz
obowiązujących
pobiera
##ważnie
niedzie
ozn
wracam
1961
uniwers
sporządz
wodzie
Rysz
Cre
##cyna
Zaczyn
ponosi
wyjdzie
##uli
umorzeniu
grz
All
Mit
sypialni
Nas
leż
Bła
autorem
waszych
samochodem
zmieniło
marszałek
wybranych
śmieszne
##roty
odbędzie
przyczyny
fazie
159
##czące
##dzeniem
##pend
con
energię
pałacu
drinka
zwrócił
prawdziwym
Pięć
przyb
vi
##cisnąć
Została
bene
##żonych
intelektu
piwo
wyobrazić
zwró
##zia
##gują
from
odro
Głównego
81
Aleksandra
zawodników
Specjal
przychodzą
stawia
obozie
kawę
emeryturę
Podej
Lea
obecnych
Kapitanie
Fl
przystos
zaczęli
odcinek
Autor
MP
##ick
arche
syp
sędziego
##ofi
Sił
Rzecz
poster
gmina
spędzi
Przypom
krótki
Wracaj
przejści
##rację
##bami
zakończyć
silny
##38
skojarzyć
internetowa
Mogł
1963
##ск
czarne
dyrektywy
lipiec
lepszego
zagrał
niebieski
McC
##onię
badanie
##szal
Mikołaja
##arium
wyroku
Jakiś
Casino
##fikowany
romanty
zbliża
chory
Sprawy
spons
Billy
Najwyższego
wyposa
##opol
znajdą
Komunika
pełnej
siat
regi
znamy
swym
##źnik
zabije
korzystanie
Android
Obsz
##mini
otwart
##szłość
wilgot
Artyku
odmien
rejestracji
Karola
upadku
##zmem
fotografii
Bit
##skryp
Mając
##lna
zagospodar
Owszem
zakłó
Polak
powrotu
państwowych
##WD
Karol
##szeń
ważnym
zdą
stacja
ret
##tona
uruch
##stur
cieszyć
Gabr
Cud
rośnie
propor
zainstalowana
tajemnicy
choćby
przeprowadzenia
Radio
Zau
białe
umysłu
Władysław
pocał
osła
zamówi
domowe
Zel
Tagi
Nauki
Amy
##69
pilota
ukończeniu
rejestr
wuj
określić
##men
uzupełnia
promocji
Miejsca
dany
##styn
prosił
pamięt
##tnam
##MP
niepoko
sak
skojarzenie
pierdol
##ugh
kierunek
Kaz
przepisach
biorą
kościel
zaspo
efekty
Stw
walczył
zdobyła
wolnego
chłopiec
Hum
Europejska
##dźmy
zaczęło
Znalazłem
rokiem
##tacją
silnika
konsult
Gwar
Polską
der
##55
Poje
##struktury
morderstwa
Scott
dzwon
debiut
##ame
Krakowa
przemian
odnieść
kursu
Web
##stym
moto
Szwajcarii
Podsekretarz
atrakcji
##kania
wyląd
##dziliśmy
karnego
angielskiego
księżni
pasz
##dziesię
Rat
##ced
##dzicie
produkcja
odnaleźć
Szukam
Turcji
##orzysta
##tańsze
##zel
##gium
sceny
Lan
Sec
szafa
ods
##arząd
albumu
wzór
idealne
bezpiecznie
Cro
studen
##nili
##nerw
metropoli
pracach
wojskowej
##tain
szla
autorów
##ralnej
##nijcie
##beli
Fred
##niak
niewoli
Zatru
Ależ
sąsiedz
##wska
interesów
Nagrody
miłe
size
schod
##szeniem
sprawozdanie
rolnych
sięga
ciężkie
##niło
Powiedziałam
właściciela
pudeł
nowelizacji
Kodeksu
##grafii
Moskwie
królem
##ind
##heim
garderoba
Szanowna
Jake
ukazał
Zabiera
uwierzy
Energ
Miesz
Widziałam
artylerii
Kodeks
blok
Ilość
serwisu
fabryki
3D
Pozostałe
teorety
##pą
Cztery
dostatecznych
Wydział
db
dachu
kwar
##lti
##anguage
urządz
akademi
##ejestruj
wytry
zjedno
##żne
spędzić
Średnia
indziej
przebywał
planowane
Mora
Camp
##czam
zwiększyć
sportowych
porządek
ogólnej
Dun
Połą
stopniowo
##dziłeś
##logia
dosł
Wyszuki
dała
znakomi
niedawno
luksus
##chaj
tworząc
iP
wyraża
##Pokaż
##świe
rozkład
farmace
podobny
CN
##ile
wybory
atom
opiekę
rozmowa
groź
moimi
pracują
klikniesz
drogowego
Wat
##orii
odwiedzić
forte
określenia
żołnierze
arcybisku
baj
##organi
kontrolą
amerykańskich
przedstawił
ras
##cesoria
PD
Bole
##żka
godzinach
pułkow
Rzymie
działo
spędził
węgl
Pokoje
ważną
rozwiązaniem
domem
##odawca
ptaków
Zasłu
Wow
wtorek
nieprawidłowe
Che
##twę
Szwecji
Powiat
katalog
##sign
##rowadzi
zainstalowanymi
Obawiam
ciekawe
##czające
zarezerw
gubern
##IG
##rowni
wnosi
wyjątkowo
walka
Lis
gospodarstw
bracie
##zej
używają
dokonał
Rozmiar
Szczególnie
##owskie
weszła
piekar
średnie
zauważ
rezerwacja
##ulu
naprzeciw
napad
nadaw
wojennych
##jąłem
zakłady
więźniów
bakter
ryby
wymagają
gorąco
poprawić
piel
##omat
Miejsc
elektrycznej
sesji
##aniom
bieżąco
##cek
przysł
##LE
przeraża
##67
przejścia
Tadeusz
raportu
tzn
Szkole
##lnym
osobie
Odpowiada
jakbym
bólu
krawę
##noszenia
pobierzesz
jaja
Najwy
Uko
sędzia
znaleźliśmy
obyd
##pel
najm
pamięta
bycia
##lamy
algoryt
kapitał
ProgID
##lanie
rozpozn
sum
##CA
##otą
##ujecie
zwi
Holandii
Ekonomi
Pak
Hiszpania
biznesu
##pany
##dzamy
Sier
Smith
skalę
Ava
##kiewicza
następnych
najlepsza
Potra
abs
91
Sztuki
dysp
wyświetleniem
autorstwa
Kate
szczegółowe
Ren
rozgrywek
bezpieczny
##dap
Nasi
interesuje
zezna
przedstawione
witam
Uważa
nadu
##dny
Pocz
AT
funduszu
zej
reakcji
niezawod
##ov
udał
Powinnaś
##ryst
Witamy
Holly
Sus
mózg
wyróżnia
zdaje
##rgi
new
herb
wspomnienia
zaszczyt
przykry
byc
karę
Uspokój
Kru
uznał
Pierwszym
łóżko
krótkie
wpisy
karabin
Politechni
##37
ktokolwiek
analizę
Sob
Poland
odzwiercied
##gło
ław
grupą
Instalujemy
pak
specjalnego
Żaden
##tyku
stracić
odwiedza
trzeciego
##rch
##ezon
sportu
wieloma
dwój
śród
SMS
głosowanie
relacje
168
Dość
opodat
Jakby
ważnych
skutecznie
szczęśliwa
stabi
przytu
114
ped
dziew
określony
##alnymi
##ican
gospod
##wii
ograniczenie
setki
ludzkie
inf
Najważ
Jezi
pierście
coro
okru
Obraz
dotyczącą
##nok
weryfikacji
przyrodni
stule
prośbę
ćwier
skorzyst
przewodniczącym
Ya
Dot
plus
byłego
pomieszczeń
piętra
##tum
##dło
kolejnej
##rest
dofinansowania
sojusz
scenie
waszej
regularnie
School
Brytania
dotarł
zgi
Kolejny
##taktuj
zamknięte
tr
cicho
##nąłeś
##owat
##ieniu
duszy
ocena
przeprowadzić
własnością
Samochód
mikrofalowa
##strzą
świadomości
Rzesz
##kus
##mią
przyjmuje
kru
Byliśmy
York
Stój
tożsamości
detektyw
Nak
Zapy
zan
samoloty
##alizacja
idealny
##ón
stacjon
Formu
interpelacji
##tyczny
mówili
zby
wydarzyło
sekret
Departamencie
Dłu
wizyty
pochowany
Oby
Lat
pismo
wiarę
Kli
Ost
Mały
nadziei
##brane
##tnym
Frydery
zapotrzeb
AD
Żartujesz
kapitana
znajdował
Sub
National
sowie
psychiat
Java
Góry
boję
##rzymy
##rys
Prosimy
przyszła
zarazem
Jednost
bezpośrednich
112
owoc
koordyn
cudzoziem
##zyk
komunikaty
powol
VIII
##ye
przycze
uznać
##niły
spadek
Odpowiedź
przedstawiam
##rzony
Zawod
mistrzostwo
##szymy
Argenty
Warszawskiego
Pia
##zą
klubów
Niedługo
Następny
Wielkie
##owicza
sposoby
reguły
śmi
##ity
ukoch
##zywania
dynast
pełnią
rzeczywistym
##gest
należała
Ocena
docel
##nować
Paryża
##biu
wag
funkcjonowanie
namie
towarzyszą
##bal
##liwym
kompon
odsł
pracuję
##pać
##box
##warka
pielgrzy
Poker
muze
##NO
CO
bycie
festiwalu
Lokalizacja
uczu
przeszk
Facebook
##lany
Dowiedz
cmentarzu
konstruk
MINISTER
hydro
##wice
obs
dziu
głowa
sposobów
##bla
Tay
ciepła
Abra
dywiz
zobaczysz
##trafi
##nio
##47
##pliwie
Island
##kad
klini
oszczędności
deleg
ojczy
wystawy
spotkał
Wsi
1915
Departamentu
mur
##rać
Promo
ranny
puch
Rem
Moim
pokonał
Bron
opuszcz
Zasady
Zamy
połączeniu
paraf
##lud
##bru
Instytucie
zlokalizować
##stek
obud
Sprawa
czeko
##logii
wierzą
kamery
Znajduje
mogłeś
sportowe
Chinach
ulic
udowodnić
partyz
finału
dają
przerwę
Obywatelska
egzempl
Apartment
Twier
stanął
##moż
XIV
stosowanie
zagwarant
instytucję
wyświetlić
##zycja
##czasie
mianowicie
Seba
Reklama
zapra
obrazów
Zarejestruj
refunda
zrzu
stwar
Powiedziałeś
ulub
Mali
Vo
utworzenia
NS
Wer
zaakcept
pru
Kuchciński
dzieł
Chiny
budżecie
zdenerw
zasięg
Opowie
ciele
ojcu
okazał
podejrzeć
White
klimatu
Sing
punktem
koali
emocjon
poprzedniego
wnętrza
##wicy
nauczyciela
niewolni
##dziny
Lip
zawodowej
##mont
przepu
terapii
kontrow
pisem
Bol
##ull
Sklep
podręczników
zarabia
##aria
hej
##ball
dydak
Części
Przeciw
##ture
rekomenda
obaw
zauważy
obejmują
##wodu
##wencja
##sud
językiem
##ażenia
gimnazjach
Inny
Kazimierza
Pin
Ustaw
goście
Zamk
Przynios
##stawienia
wypełnia
##gm
Zbroj
hasło
##dnio
Świ
##cas
##via
##dźwie
Jakub
alkoholu
uwzględnieniem
##owcem
Johnny
pozarząd
##KS
##tycznej
dostaniesz
##pela
Tobą
właścicieli
stawki
Odnosząc
kolorze
podzielić
Wysł
motocy
##niczy
Wojen
jakiekolwiek
prąd
350
zor
zgubi
wymienionych
komisja
szukasz
Ul
cesarza
Amster
naszymi
##36
##zowany
Energii
podporząd
125
Musiałem
czyste
zablok
##TER
Steph
potencjał
nazw
Pole
Sem
przedstawiciela
##Ii
toaletowy
poinformować
tablet
Panu
wroga
Pła
##ceniam
odnowi
File
czytać
Zarządz
Kij
##otki
Studio
Japo
##zeni
postępowaniu
##burga
zajmują
##atyczne
##siness
organizację
koncepcji
rzetel
zaufania
Wersja
etni
##szono
specjalny
rehabili
##orcie
wyjaśni
zabij
utwory
Fili
Znak
rosyjski
zostawił
przykładem
transakcji
obiektyw
##nko
prawnym
Just
znalazłeś
zatrudnia
długim
pasażerów
##arstwa
niezna
edukacyjnych
man
wyszukiwarki
Palesty
otrzymuje
oparte
AG
##bad
Tata
dyst
cerem
Zamiast
gara
##letnie
żadna
Agencja
pokonać
Książki
usiąść
##ardi
Mężczyzna
pocią
##cjoni
Telefon
przemyśle
restauracja
książka
Tek
##lane
Peters
Parlamentar
##okrot
##prowadzenie
Bułgar
Łat
złym
trójką
artykuły
nadzór
##dziach
ślad
odległość
##nięciem
##orach
technicznej
bzdu
lunch
rezygna
Fundacji
stopy
studiował
normy
PM
##dney
TVP
bolszewi
zdarzenia
##edia
prawdziwą
Gib
blon
tematu
##kujących
##dzielni
dowod
delfin
Księżyc
zakończyła
upewnić
##dzieliście
##oreb
dasz
czajnik
##ben
kondy
Rose
przekracza
Mah
szybki
prognozy
##nać
##rael
minutę
##atera
##kul
##chasz
konkretnej
rycer
przypadki
spowodować
Let
poran
##ming
komi
próbę
specjalistów
Ośrodek
nabo
wymieni
organizowanych
mle
wspar
Zwycięz
##bara
Sano
##39
założyć
symp
Carl
##lnego
Potrzebujesz
wynikające
Mol
śli
przeszkadza
##lica
##ther
Słowacji
Center
Naczel
wrzu
##omić
wyższych
Służby
##44
##żach
Chodźcie
głową
Brook
fe
następnej
nóż
autora
chłopca
##hor
Mieszka
osiągnął
Son
musicie
okazuje
zbrod
podkomis
zespoły
##put
Louis
zamierzasz
##etry
##ografii
zrani
Mówiłam
ośrodków
Kemp
finansowanie
Wios
pożąd
czwartek
wróciła
polegające
Senator
cont
##cają
Ai
##TS
pracownika
podróżu
##ownego
charakteru
mężczyzną
dumny
rządowej
rozpowszechni
Rządem
Tal
Wpisy
granice
nigdzie
Fundusz
Zadzwonię
pomara
##amil
##rować
domowych
##ydra
Produkty
zamien
osobowe
trybu
dalszym
##oc
Rządu
planety
Usiądź
umieścić
doświadczeń
##owemu
Des
silne
Group
Has
##ington
lesie
angielsku
kanał
niezde
maszyna
nud
lubią
granic
będących
Programie
##ierze
nowi
##In
##stanę
podstawą
Sądzie
Glob
Rec
##rości
pozycja
wyposażenia
##nieśli
szpital
obiet
##zią
związki
wizytę
##szo
zabroni
gatunki
Dale
klasztoru
##wiec
prezesem
Puść
##rybut
##aniesz
interfej
amuni
stanowić
##sm
drzewo
GPS
Barcelona
wokali
kartę
Przysięgam
Big
##tując
##bus
dziecię
wzrosła
##bienie
Kanada
Maszyna
efektywności
Powy
Biel
wysokim
zakładu
##kowanych
Szef
składniki
maksymalnie
eksperyment
numerem
podkreśl
międzyczasie
How
##wieni
stałych
ryba
posiadł
Francisco
ogólne
mistrzem
##aktyw
##ceniem
pewnej
Dajcie
Przyby
orien
Pop
jedena
wolę
przedszko
zarządzanie
dysponuje
tamtym
##rzęd
wodnych
Gli
##arth
Zespo
Platformy
udzieli
wetery
przenieść
##alić
Wypeł
kochać
Resta
koleż
uchodź
pełno
out
Prace
##caj
starsze
##aniała
jakbyś
zma
##bet
##żona
podgląd
##skad
racjon
Ryan
bieżącym
rewolucji
ucieczki
opinia
##ltim
meble
##niczego
##tyn
zabawa
wymiar
0000
Zacznij
Rachel
przetwarzania
szefie
ONZ
Wyob
Lubi
wysoka
obrób
stwierdzić
Oceania
History
sprzedać
NAT
Wysokiej
##blok
##kor
zgadzam
powiedzieli
czerwony
##racho
szery
Miejsce
opła
Katowicach
zaproszenie
##cien
##jazdu
podobnych
Moni
nurkowania
Kolejna
##lacją
abym
utworzy
Posiada
##NY
wzięła
Moj
patron
Henryk
kapelu
Que
straszne
Sarah
zastępca
ćwiczenia
niewielkie
ża
##sky
##dźcie
kategorię
skry
##oy
podaje
Kobieta
czynników
mamą
muzuł
Generalnego
Rozwi
urzęd
kombina
trafia
dzieciak
technologie
Gimna
Facet
uzyskała
przejął
różnymi
Strate
Białorusi
##oseksu
rock
rzek
##lną
900
Kle
Cment
przystoj
##anką
Cra
narodu
##ration
presti
zani
diagnosty
numeru
ćwierć
##owaliście
##ings
wytrzymał
wnętrz
##IL
##óże
wygry
##ose
Py
wyw
##cencji
przeznaczony
Font
stosować
piętrze
##pet
Krzyżem
pierwotnie
Średni
Słyszałeś
mecena
dalszej
Utw
##ezji
uciekł
Pozwoli
Kolum
rekru
Ojcze
lasu
spowoduje
rozwo
uroczystości
drużynie
przełoż
pełen
kierował
Medi
##IZ
najwyższym
konkretnych
##beth
bracia
tworzyć
mieszkał
łaci
literatury
oferują
utworzenie
próba
##ardo
szerokości
dojść
XIII
zrównoważ
Ari
Twit
pasa
spacerem
kalend
##kaliśmy
##jami
kadłu
##nościami
dozwo
ochotę
Nienawidzę
chwila
##arstwo
prokuratora
##zujący
Klubu
miaste
##ialnej
Michała
widz
wbrew
stole
##noślą
Kłam
Informacji
Sław
ustalić
##ciągnij
sierż
świadczenie
ulep
zlec
rzeczywistość
wysokich
poszła
##óbr
PG
##jechała
##85
powodem
opublikowany
Mech
Rud
Byli
rozu
holender
pokarm
zachwy
kiep
Obej
##CZ
##ronie
amerykańskiej
Karkon
##enie
Ukrainie
konsekwencje
ewentualne
Flash
##cieliśmy
Zaczyna
przeciwnika
symbol
##zować
son
tło
jedzie
Jakość
kontrola
Baw
ocenę
##ini
don
Mówił
KM
skryptu
Fit
Się
trasie
##nat
Ster
nadmier
Zapytaj
165
pozytywne
nagry
decydu
denerw
col
Transport
tune
świetne
Całkowi
##ńsku
podróże
nacisk
Sum
osobiste
Nan
mieszkaniu
naturalnych
utraty
kamienia
gwarant
owa
Kontynu
##zujących
##komunika
krąż
komfort
OS
dedy
##iss
##ńczycy
wskutek
rozprzestrze
zabierze
statków
efekcie
##lają
##liwego
Zdoby
przysługę
Vegas
napę
odgry
Rosja
oboz
filozofii
tenden
wydane
odbyły
Stefan
##UN
zmody
zagadnienia
sytuacjach
Maksym
polityk
siłą
##iałe
widokiem
kwat
strefie
Chcą
uśmiech
Online
Zatrzymaj
znaków
##wanym
zapomnij
pozostać
żywi
Andy
Próbuję
nagł
wielkość
dowolnym
##31
zasada
kontakty
jab
##nau
zasi
gospodarczego
Jeff
##ącej
pral
bezpłatne
skupi
Gdybyś
##wczym
##49
racji
medali
Yeah
##kał
NF
##rowol
##leje
napisać
##warunk
##ACJ
kontrolować
Telewizja
hit
Power
składników
##ległych
asystent
wasza
Julie
Źródło
wymu
szeroki
Most
##nimy
##szach
##rzchni
Szybciej
Eri
##rowadz
dojazd
##boga
zwany
##cznę
lokalne
zmniejszenie
kasę
kwiat
Iza
email
doma
stanowiły
dojrz
Harracho
porusza
dworze
skończył
wyglądają
gospodarczych
##ialnych
Piłsud
ogólnie
##czyka
dociera
##bour
ścianie
gwiaz
słońce
firmą
niebo
##rzeniu
ludzkiego
piłkę
świadka
wybaczyć
płyn
siostrę
##boli
zgad
prototy
##ychmiast
Wej
stają
teksty
jakichkolwiek
zaist
widoczne
dupa
szkody
współpracu
członkowskich
proro
współpraca
przesunię
##cs
pozysk
ID
##strem
połowa
rana
Anny
klej
śmieci
kolejna
upro
wymienione
##gią
##ródziem
delega
Słyszysz
meczów
ind
##łonie
Doty
spółdziel
działacz
wypłac
metodą
częstotliwości
Kap
utratę
armia
ludzkiej
##masz
kopalni
##aron
Natychmiast
objaw
##kiedy
##żąd
zaoszczę
kapitanie
##cząłem
##lady
obserwa
samodzielnie
##esu
Narz
Lucy
450
Cle
##sli
nastro
Galeria
lotniczy
##stego
audio
pres
Best
best
wynikających
załad
kwadrat
pójdziesz
obronie
RO
Inte
##ologiczny
zmarła
wychodzą
Jedną
Wiadom
##gera
Niemniej
obsa
zgłosić
FAQ
rozpro
istoty
aktywność
ministrem
##brany
przedmiotów
strzelił
##ownia
łącznej
Henryka
wyobraż
Pomyślałem
##gnaj
spowodowało
składu
TS
zobowiązań
technik
Charakt
kawiar
Jagiel
Rzeczywiście
##łek
prześlad
##niad
przebiega
##ryn
##lace
wzg
marketing
##kcjon
Korpusu
wirus
pięknie
szczegółowych
witryny
Jackson
seryj
Proponu
Grzegorz
Proces
skierowany
znajomych
przekazał
fizycznych
decyd
urodzin
##blu
fotografi
Nu
zobaczę
sław
prawdziwego
piosenkę
##omb
funtów
##CD
narodowych
wah
Musicie
wycieczki
powyższego
autobu
Prezydenta
skontaktować
pusz
medycyny
Przepisy
Standard
##laria
Dave
elektronicznej
wnioskiem
powo
Przygo
przegran
##kujesz
proponuje
bloka
Szczerze
rejestrze
zwolniony
Korei
##42
Grecji
Zauf
dofinansowanie
##dzieścia
##szac
probo
South
Tryskanie
przyjacielu
Walter
Laur
Banku
ośmiu
ludzkości
niezbędnych
Punkt
odpowiedniej
Champion
##licy
rozegrał
zmniejsza
Alf
##anny
kum
głosi
dziesięciu
Podobno
oże
stowarzyszenia
Jerry
Obsługa
nę
różnice
warst
rzekł
Św
rośliny
zawodu
prote
Adres
Syna
wydana
dużego
przebywa
najniż
Mate
modlitwy
piłki
uspraw
##dzin
##gowym
imprezę
zabranie
ryt
Matt
##ight
Krzyż
próż
pałac
##tujące
Paris
zimno
dominu
Decyz
konkretne
ministrowi
przeze
adresem
rządzą
nastąpił
##Tube
dochody
##słem
Bobby
Ści
realizacja
analizie
taś
Domu
obecnym
Ciężko
Stru
podstawowym
pomyślałem
zgłasza
połączone
wywoła
Terytor
poprzedniej
##stość
##stką
organizm
średnich
NK
wypły
przejrzy
nu
##euro
uzyski
Ala
pracowała
osiąga
odcinka
kadr
North
Przede
Mikołaj
kompetencje
##ralny
hrab
##wna
podstawę
##jsc
kategoria
wierzysz
miałbym
przod
jeb
wynajem
Niczego
wampi
złożenia
pomyśleć
obsługę
##con
upamięt
Turcja
uszkodzenia
fra
##cera
wodne
tara
warte
American
Time
uspoko
Media
długa
rodzinne
Oferta
brzmienie
Villa
1200
awar
ośrodek
liczą
Ara
ujęte
##ald
prawdopodob
formatu
wul
Mili
##yne
zmieniła
sygna
sekretarz
wizu
off
morska
dorob
neuro
przeglądarki
Koś
##prawa
przeczytać
warunk
waszym
szczycie
##żnie
##święt
##omer
spi
Virtu
nauka
Europejską
Organizacji
kina
##iatów
##Script
Ukry
Ligi
standardów
bawić
##rzeń
##pital
przełom
modele
doczekać
pytam
nieodpowie
Bły
płó
Show
##ownictwo
gruntów
majątek
wersje
##ialny
wodnej
Mazowie
papieża
##obu
skłon
Londynu
##obieństwo
dotyczącego
legis
Bl
zdzi
##ronić
##czaka
jedziemy
śmiesz
porówny
satysfak
przedstawienia
Otwieram
nieli
sprzyja
##czeb
potrzebę
neut
starszy
pić
błogosławie
Nag
powtarza
##ałach
Tytuł
##wiary
grzbie
wzrasta
Piosen
Mówiłeś
mastur
Fal
1916
dzieciaki
Gard
##iak
##gine
płak
przyjazdu
Leo
gład
##can
##BP
Biały
##owac
osobami
Wynoś
świadków
##oświadczenie
zdob
Chryste
zysku
Kit
książce
oporu
niskie
czuł
diecezji
udziałów
kablowe
porze
Morza
Kongre
Puchar
Eric
##ówkę
##EZ
zmieniać
WW
istnienie
sterowania
miejskich
owoców
treningu
##żna
płacić
podlegają
tras
file
Okręgu
Un
wykonywać
magazynu
Premium
szkolnym
##dzonego
Władysława
drukar
Wesoł
ciał
stanowisk
zanu
sektorze
obrot
##eny
##niec
mężczyźni
Słowo
Jagiello
szlachet
ustanowie
Gratulacje
##walne
sukcesu
niezd
wspier
przeprowadzono
właściwym
##finiowane
##unę
##walić
Stop
Wyp
Kad
Cru
##żowych
floty
van
stę
podleg
Papie
nieobec
odpowiedział
ustalono
##ktach
rozczar
fo
umoc
##wychw
skal
podejmuje
kierowcy
placówek
Filip
tamtego
benzy
ogromny
kazał
AP
pełny
zginęło
##dzkich
##opera
auta
Najwyższej
##cto
wykonany
ren
Agent
Wszech
pomnik
dworca
uświad
pocie
meczach
##riar
##atybilne
morskich
##dzina
kluczowych
zastanowi
Zachodni
skazany
cykl
nieprawidłowości
mikrofonem
zary
kilkanaście
brutto
Łącznie
Dopóki
architektury
Express
wystart
Powst
zjawiska
uzupełnienie
##łożenie
publicznie
##ison
reż
objęte
popularne
Układanki
portalu
SD
cal
żonaty
bagaż
musiałem
##skute
dodatek
seminarium
dziwnego
105
waszego
upadłości
##frykań
Katoli
##gnoza
Pomy
wprowadzone
panowania
ustawi
gali
eksport
siódm
##lla
siła
Niekomp
rea
alternatyw
toreb
##leks
zaburzenia
utworu
sztuka
rodzicami
##atory
##aker
Rzymu
Materiał
skraj
##batę
Radę
wspó
poszukiwania
naturalny
romans
przechodzą
ochroną
uzyska
Uwie
konflikt
##IF
##andia
dziedzictwa
potrafią
Dziedzictwa
##aniny
pojechać
zapytania
rozgrywkach
farmaceuty
umiar
wykorzystaniem
##wów
większym
opublikował
zobowiązania
utworzono
zapewniają
budzenie
pisać
obecne
Samorząd
wiążą
idealnie
Wood
Zachod
pomor
krakow
złożone
powoły
żołąd
wizyta
podsum
spełniające
Land
podatkowych
##tle
większego
##ficj
domowej
barwach
wino
##dziesięciu
tel
##AF
twoi
nowoczesne
podnosi
dyplomaty
ogłoszenia
bała
figu
Obywatelskiej
modernizacji
##iami
nieś
dalszego
##46
Wypowiedź
##BS
##IO
przedmiotowej
przyjaz
Partner
Emily
Isa
Sad
zewnętrznych
inwa
rozwijać
Święty
##pina
ugrup
odes
szkoleni
GM
Was
nomin
ubezpieczeni
opcje
eksploatacji
##hn
uraz
Mes
wh
##lasy
Chorwacja
niezdefiniowane
Tit
zanied
trwają
tortu
rekrea
Pamięci
Wprowadź
pomiar
skrom
lokalnej
rodu
Regi
zwycięstwa
wypoczynkowa
rozma
wydarzenie
partnera
wykoń
wydać
choroba
Prezen
Bang
##siem
Zrobiłem
wkro
##lona
mostu
zapad
##sząc
usunięte
Swo
istniejących
blondyn
Narodów
wyobra
rur
połączyć
##Bo
##okracji
lod
należących
poprawę
ekspo
batalionu
cerami
##czyliśmy
zamont
normalne
Moc
##isi
##panie
Towarzystwo
##oryz
okupacji
DK
przega
##ralij
zasoby
żebyście
pobrania
wstrzą
wątro
wystąpić
lok
detali
Ny
kłopotów
znaczne
IX
dzieciom
##rodzy
cywilnego
##hl
walkach
obecnego
twórczości
mamu
obcych
Handl
##anew
##ńczyków
ślu
przeszła
przegrał
dale
CIA
##czen
wicepreze
Inaczej
dziewczynka
kwalifikacji
DO
złoto
przeczyt
##ełna
Hil
popo
juz
##rzone
Jacka
Niekompatybilne
Gri
wieczyst
Gir
ratu
oczyszcz
##gni
Kupi
##rania
##lizowane
##malne
##61
Angl
1910
chu
udaje
##ownym
pros
Pewnego
Amerykań
pracujesz
Powinnam
##tan
złoty
owoce
Wierzę
zrobienia
rozumieniu
oświadczenie
towarzyszy
BM
Przegląd
bilet
tramwaj
Całe
zatrudnionych
##westion
przesa
Fundacja
doradz
##ried
Marynar
gang
przeszko
przygotowane
Robin
daleka
Korek
skutku
pozwolił
##niałam
pojemności
przygotowany
##rzchnia
##lizuje
podmiotu
NATO
Wieś
jakimi
##fikowane
Krajowego
ofiarą
wydostać
##ciłeś
Bio
technologia
letnią
mleka
zamieszki
##roju
##graf
Maciej
##zza
przem
okręty
Częstoch
Czuje
noś
grom
##szukać
##ilable
młodego
grzech
Rejestracja
Zostawi
anonim
Prix
twar
101
Śląska
najmłod
kolejowych
telefonów
States
##dziesiątych
udać
strumie
rozbudowy
obóz
kroki
równocześnie
##mor
przeciwdział
adap
Poma
##xa
##lawa
Miłość
boi
śledztwo
Lublinie
##byście
##ltacie
Które
Deut
mięsa
Detek
##osłowa
##kując
##ątpliwie
##berta
praktyk
Kiel
language
rozmawialiśmy
Żoł
wywie
inwestorów
testów
1912
pisał
##Wybierz
Cicho
kieszeni
Ameryk
siedzibę
spła
##liwą
przywilej
krzyża
Aleksander
##kałem
##sor
mone
Haw
wer
systematy
rezultacie
chrześcijan
łazienki
##sus
pozycje
będący
załam
##chen
zasługuje
##hoe
College
nara
dziesięci
naraż
swojemu
Nazywa
koncentra
XII
uznania
Wykorzyst
rachu
metoda
kompletnie
tysiąc
kąpieli
kolejowego
wyślemy
##una
Wygląd
dało
##atur
dawnych
##zione
Monach
Byłaś
Wpad
##owiu
ustawienia
kierownik
uciekać
Award
siostrą
wewnętrzne
partnerów
CE
Live
##naście
Monte
dóbr
amerykańskiego
##órka
##usia
wyszło
stanę
##nowo
##baj
poproszę
##nisa
dostaje
powierzchnia
Music
##lock
złożonych
przestępstw
kolejno
##rym
szaf
rannych
##szukaj
Lubel
dziwnie
miałaś
skórę
wykonał
anul
##czamy
Bardziej
zawodowe
Brian
odniósł
instrumentów
gadać
kardyn
##cznikiem
##lind
Eddie
narodowego
opracowania
##lyn
rozpoczęcia
uzgodnie
Monachium
Prakty
##czątk
135
Każd
przynieść
your
##biter
obejrzeć
medycznej
Peru
auk
Zni
##czyński
ofiara
śmigł
zakwaterowania
##ili
akta
##atek
Wyświet
operatora
zbudowano
##arskiego
Osoby
zaje
wydział
plac
zapobiec
oleju
Tr
##anią
pach
Franciszka
##tm
hra
słyszeć
skierowane
##niam
##arzeniu
pozyski
pozostają
dołączyć
Irlandii
pogor
końców
bezpieczna
##arne
##macji
sofa
Czerwonej
naruszenia
Sydney
##bow
slaj
##sten
Sytua
trzecia
chłopców
panno
Budynek
Rewolu
Radom
##wale
Pokaz
ścisł
fre
tkan
kamera
##SI
zastępcą
nawiga
##ontar
powraca
rada
##kształt
subwencji
turystyczne
loterii
ss
kostium
Harrachov
240
Len
jaw
rosyjskiej
mandat
dokumenta
##ÓW
el
sugest
Andrew
##tokrzy
Legion
biała
rzeczywi
komentarze
dokona
Człowieka
Business
uczynić
instrument
Yu
dopre
Tobie
Wię
##ościem
Wyja
chod
Uder
bronić
skoncent
objętych
toksy
nawzajem
dynastii
that
Poniżej
##rócę
1905
najpięk
zaufanie
##kierun
Jaką
okup
operację
konserw
deka
128
silnie
parlamentu
stosowany
sięg
Patrzcie
Grace
##63
fer
##nionym
błędu
orkie
potęp
Istnieją
podium
regionalnych
##wskich
perspektywie
ukończy
sklepów
krem
ograniczeń
Krzysztofa
##szanie
wzboga
zagrać
Kri
trzecich
Wówczas
profilu
Koł
##obby
rachunek
##arszał
zakwalifik
##strukcja
podatek
skrzydła
Skład
międzynarodowym
Bec
netto
taty
wynagrodzenie
NA
snu
ruszać
nosić
Barbara
##dum
##43
apte
kontaktów
##niały
##nięć
uzyskanie
okiem
emerytury
Mógłbyś
rozkłady
ekon
kontynen
objawy
Syl
##WO
mego
Hun
patri
zajmę
zawodowego
Słyszałam
It
##gani
wytrzy
podatków
##miemy
zmien
cukier
kursy
ośrodka
katalogu
przekazane
jakikolwiek
PRL
Edition
uczniowie
europejskiej
Eksp
skomplikowane
Men
rozmie
Pracuję
kwestion
architektoni
Doskona
Niania
##rego
dobrowol
nieud
zaczynają
wydajności
Wyższej
##tokhol
adop
##wiło
użycie
Roman
char
Innymi
stroną
zainteresowany
hasła
fotograf
zgodności
sukcesem
Light
piosenka
wyzwanie
Powo
##kseli
ludność
##rane
##ando
##żemy
Biorąc
miedzi
##waterowanie
wykonywanie
EC
płyną
Zbigniew
##ciliśmy
Mogli
##lei
Chcieli
wioski
zdrowotnych
##GB
lesbij
handlowe
przyjaciółka
##utki
##amia
##sel
numerów
diety
##arskiej
zdobywając
ludzkich
rola
izrael
Dasz
proc
Poproszę
partnerem
zagi
rankingu
##pil
licencji
USB
petycji
##glądy
procesy
Przygotowanie
rozdział
Rzeszy
pakiet
##inga
świadczy
##ah
wydziału
otrzymali
Zadanie
##of
francuskiego
niewi
interwencji
chłopcze
Wstawaj
nawy
stosunek
##zien
Nowoczesna
Oboje
zmianą
stwierdza
Wyślij
##lic
wypłat
dołączył
##dzonym
##liż
##ologicznym
Kelly
##edwo
Afryce
Gdańska
Squ
Stefana
posiadania
śpi
##odzie
szyi
szacu
ukryć
##ide
opieką
zaufać
mediach
startu
fazy
skor
Reze
Hong
dolców
mogłyby
##umf
Sher
##oszy
##tualiz
Ruszaj
osobowości
Claire
Klasy
wymiaru
jo
dyskusja
##dzkim
czekają
Sak
znajdowała
omi
odpowiednim
Tatu
cesarz
Doug
##41
ziar
##waży
profi
decyzją
żegl
przyjemnością
traged
dokonano
potrafisz
formacji
narkotyków
##test
##sult
prosta
286
kwocie
telefony
odważ
Jedziemy
dywizji
społeczeństwo
kierownikiem
zaznaczyć
zadowolony
wsa
##79
Odwie
ulubion
niesko
lotnisku
nakrę
##lada
JavaScript
testy
Roberta
HT
##arta
dobę
obiekcie
Igna
Polskim
ubezpieczeń
OD
bon
działalnością
barze
koloru
Cykl
##należ
wyje
platform
harmono
tch
##dan
wieczoru
znacząco
oznacz
niepotrzeb
Słuchajcie
ośmi
ułatwienia
litery
wcześniejsze
Kancelarii
dodatkową
bibliotek
Niepraw
zdecy
sma
##żowe
God
bloku
budowlanych
##wości
Jarosław
biletów
##jsku
Annie
Opublik
przyjęte
klimat
MA
Oddziału
znajdowały
##znał
pójdziemy
kryteriów
powiedzi
Złap
Poznań
##uber
map
marszałka
lecieć
Szwajcaria
Głosowało
Poka
sukie
plut
Blue
nieustan
AM
Reprezen
##miał
##knąć
problematy
Alice
przebiegu
doprecyz
historycznych
przyznał
ekscy
##ialne
niedzielę
dosłownie
BR
farm
##atury
Waw
Tęsk
gazety
##dopod
wyciągnąć
Czyt
Izba
Państwu
bed
cywilnej
powstań
przewoź
latem
kodu
późniejszym
wybrał
wezwanie
fortepi
Efek
Copy
absolut
Zain
dodatku
Pragnę
Kevin
beneficj
Chcecie
pomysły
Norwegii
wnu
idei
randkę
##gement
zainfek
Franciszek
dystrybucji
wyposażona
Zgadzam
wydłu
kamieni
skre
Armia
Oficer
##tno
wyli
##ktry
bywa
otoczeniu
##pini
Carter
Najwyraźniej
psy
konfliktu
fali
doży
Mógłbym
##waną
majątk
spotkaniach
dowództwem
Prus
Beach
##bem
zajmując
Gdańsk
Eliza
##gel
##lanki
##sztu
Informu
##ołowi
##owcą
dostępem
nisko
Dowód
ważnego
mężczyzny
strzelać
Rozsze
zauważył
##rócił
demokra
mogłabym
podzieli
##ałoby
##rok
rozryw
miejskiej
##czyłam
Przewod
tragi
słowy
PP
##mira
##enek
umieszczono
minimum
wyprawiasz
##62
##szczał
niesprawied
zawodnikiem
przedsięwzięcia
Esp
##cks
barw
haz
przeznaczonych
dekora
liter
Droga
dodaw
Zdjęcie
Komple
bezwzgl
warstw
państwie
##bacja
młodzi
alkohol
##czynek
sprawdza
##xt
Imperium
niespo
##wiamy
##fort
konsumentów
##formuje
wzięli
dokoń
108
Panno
uczel
jednorazowe
wierz
układzie
leku
efektów
Prywat
##niałeś
ir
wojskowy
medyczne
zlecenie
Wezmę
##ałby
##nk
przymus
leczeniu
##load
Indii
przeba
##mas
musiało
Muzyka
ucieka
chwilkę
porę
łódź
##ót
##europej
Żołnie
##ild
Wypełnij
istotny
zawartości
Sportu
Spr
Kyle
zawody
dostałem
skuteczne
oskarż
##nionego
##cisku
##miesz
różnic
Restaura
Zamów
##legle
musiały
Ostrze
##owywanie
##żeć
miła
Paryż
niniejszej
Wąt
kontynent
Szta
Carlos
Dostępne
miłością
powstaje
Uz
##niany
Krót
palców
##wisko
pomóż
słodkie
ener
siedzą
papieru
Sekretarz
##oka
Bibl
oddziale
Niebie
słyszysz
umieszczone
Auto
wspierać
komunal
samobójstwo
szat
optymal
##łabym
linią
Charaktery
Obserw
kapitału
Wel
powiadomienie
zginą
kaden
orbi
wezmę
Pusz
##ush
libera
Zajmę
sprzeci
małżon
##zin
##78
mogliśmy
pogłę
Powierzchnia
usprawied
przegry
wysa
zniszczenia
należało
odtwarzacz
członkami
ZUS
##sienia
115
##nien
pokazy
średnicy
Hon
##ima
mniejszych
tekstów
##án
Orderu
Popular
ciśnienia
zamieszkania
##czyłeś
Robię
top
Kuki
ładnie
Demokraty
##żer
Wietnam
##oci
Susan
marzenia
Tło
Dąb
stoczni
Morg
marmu
sukinsy
spytać
znaki
##pek
niepew
nieprawda
Available
##niosły
skur
czerwone
ciśnienie
usytuowany
odbywają
zjad
Młodzieży
Sztokhol
Psych
nadej
poradzić
modeli
regulacje
kamień
##LA
materia
WY
##ese
Cen
Siadaj
##cisków
Jork
##ution
inwestycyjnych
Krzyża
##oks
jach
koj
Technologii
Zakwaterowanie
przekonany
Zespołu
##attle
##Fi
trwała
##oniego
##uchy
Fabry
posiadanie
posłuchać
wpływy
myślenia
położenie
Change
##terów
gniazd
słodka
##IV
zostaniesz
przeprowadzenie
Godzi
awansował
Festiwalu
zama
potrzebować
Plaza
Początek
front
##tuzja
przeszłość
lotnisk
zamknięty
sprowadza
okien
##omen
##ujek
nastąpiła
złej
1913
wyglądało
chem
##wita
##OWE
realizowanych
gwarantuje
starym
Harris
pomarańcz
autenty
Kas
##Pro
Fanta
dzisiejszym
##utów
##owem
##lanego
wyspa
Byłoby
gościem
dokonania
Szczegół
przyciąg
Biblii
##górza
Brad
Service
##przewodniczą
nikim
gam
Bab
Tędy
dowiedział
##cing
Mechani
UFO
przypuszcz
waszą
zrozumienia
##tkami
Okaz
publicznym
zasadę
każdemu
prowadzona
pobi
Zaczę
Simon
oznak
mona
##ślę
włoski
wprowadził
wagę
otrzymam
1500
pokolenia
stwierdzono
zęby
zbu
kontynuował
zasł
##ink
Nim
bał
typy
pociągu
wiedza
wojną
Budowa
McG
okolicz
oży
Łódź
Zadzwoni
wrogów
##orod
duszę
najem
Walen
niekorzyst
przery
##St
##rość
imieniem
dramaty
dba
zachor
Próbowałem
sypial
tward
Nikogo
otacza
SC
plasti
obawy
paru
powstrzym
dłoni
Gwaran
Dziewczyna
##czaniu
kompanii
##annie
ludu
Pułk
przyjęciu
górnej
Cap
białych
pamiętaj
Elect
dawnej
zarzuty
Clark
##aliście
odchodzi
hydra
##waty
##latz
fotografie
Szczy
Kapitan
##oi
Bierz
##daję
##wianie
wykop
fajnie
pozostanie
wystąpiła
poznał
obszer
Luke
Hans
Wiede
Darmowe
trzymaj
Ryszard
norwe
Zgad
torped
odszkodowanie
idio
##plication
średnią
##iro
##smy
Oprac
Ple
Zbyt
kryzysu
Rodzaj
niewystar
Równo
kosztuje
Gimnazjum
zostają
##skan
przeżyć
telekomunika
wymi
będące
Fizy
fundusz
bedzie
emit
##uszu
posługi
##torzy
wolnym
Janusz
nieprzyja
Brazylii
Coun
występowania
szczególnym
Prin
PKB
przestra
Adri
Angel
uchwal
ogła
interesujące
##pen
zamiaru
##stąpienia
lubel
Georg
gum
##list
obiec
RF
Woł
dawniej
Road
##alii
ramienia
stosunków
Mem
Magi
procedur
przechowywania
##Sh
szkolenie
spółce
ufać
1911
serio
lini
gospodarczą
kompro
wybudowano
Błyska
trwały
Cieszy
set
Wygra
##jecie
##program
Tag
##kowymi
detekty
dowództwo
Kami
mamę
##szałaś
listopad
historyczne
monet
liczb
piłkarz
Taylor
wydru
odrzucenie
zachodnim
##tkę
stypend
wypowiedź
pracowało
skupić
kłopot
prowadzących
Rand
wrócisz
rodzinnych
Pete
##cjum
przybli
Zamierz
wschodnim
Zu
Out
najwyższy
potw
zabiję
LED
śpią
narzu
lokalizacja
prez
wypła
akcje
pogar
repor
##słuchi
francuskiej
francuskim
Marian
śru
ES
psów
pens
posa
lekcji
porównania
Law
siedziby
najbliższych
##ius
##gała
pozwolenie
Dzwoń
wskazy
pełnego
analogi
gospodarcze
ofercie
przedsiębiorstwo
uwarunk
śniad
materii
brzmieniu
##gamy
analiza
depozy
szkodzi
sytuacje
pośpie
##LT
Bern
pozwal
##ący
zgłosił
Zabra
##zupeł
sztabu
Blog
Odpowiadając
pp
##EST
przenosi
Championship
##98
kaj
wyjechać
Sor
uznanie
Wiedniu
AN
studio
herbu
##ala
kandyd
Rusz
piwa
Mr
Sud
Zastrze
rytu
Londyn
Stare
##stronomi
##fał
zrobiliśmy
radykal
August
##herine
Góra
winny
Rozwiązania
sobotę
płuc
województw
Amsterdam
##EX
Internecie
Bed
##RL
Najwyższy
wykonywane
aktów
papież
generalnego
propag
wraż
strach
zamówień
Sos
Chorwacji
postawić
upo
##anami
##liłem
Najświęt
ele
Not
podejmowane
odznaczony
kolo
podkomisji
radości
gener
Powrót
starej
##prawę
międzynarodowego
##zwy
szalony
emu
Ziemia
akumu
Zamek
scenariu
Publicznych
szkolnego
wspólnoty
pedagogi
Przemysł
http
ogranicza
Copyright
robie
sztyw
czytanie
sekretarza
Drew
##wiał
głodny
##ather
Przyję
liczeb
spodziewać
Muse
uważają
doskonałe
##łaby
Love
##ий
##niając
rozpa
Charlot
##ubie
cios
##saw
facto
począwszy
społecznym
konstrukcja
Nap
Zakłady
przeciągu
zder
wystrze
spodnie
##przyć
łoży
##wimy
##biego
dupy
rogu
Inform
zaple
drogach
pomagać
Zare
ostry
Dubli
wykonaniu
##stitu
Bost
mojemu
nagranie
MO
Dnia
zawodnik
zbudowana
Zatrudni
Doł
przeprowadził
##luję
rozpoczęło
Spad
gieł
obaj
Noc
trzę
Vis
wyświetla
filozofi
elektrowni
##lania
uzgodni
uto
uruchami
smart
przeznaczenia
normalnie
batalion
dupę
Znaleźliśmy
##czący
naukowej
nieuży
kupił
Uciekaj
naduży
##DS
Żydzi
przeprowadzone
Wschod
rozpad
otrzymania
brązowy
##chroni
obwod
dostarcza
przemysłowych
dowodził
świadkiem
rozmawiamy
strzela
Wspan
##mił
##inger
Lubisz
misję
Pierwo
terape
osł
##łyśmy
wybrzeża
wymyśli
##ciąć
korpora
##łożone
##rzód
grzechu
##glądać
Musiał
dostarczyć
Konstytucji
żąda
##dzasz
politycznego
wynaję
wygrała
##okoła
publiczny
przypadkiem
urodziła
fizycznej
uzbroje
widziała
##styna
reszty
odpowiednią
geniu
centrala
rzeką
Wspom
Gł
kieruje
egzemplarzy
Posze
##71
państwowe
organizmu
##minal
import
Zakres
podłogowa
OP
śled
WP
przebo
##gali
155
Społecznych
Obok
Hop
znaczyć
krzes
##95
ber
inżynier
spodoba
chron
szeregu
myślał
satelitarnym
Informacja
glinia
##rzyw
ułatwia
kierownika
zaprosi
remis
współczesnych
##omir
1900
bliźnia
Wrze
chleb
Zapła
##ira
Nov
straży
homoseksu
Dek
okazja
naprawy
Druży
fit
Czcion
wykładzina
dziewią
prawny
logo
kemp
Brawo
Rosjan
wydziel
##grantów
Zanie
##dna
Doskonale
##lili
wymienić
Belgii
powołania
uczciw
ogromną
śledztwa
żydowskiej
Jedź
przedstaw
Latem
fach
widzą
ręką
powodzenia
##olfa
szybkiego
Staram
##helawa
zgodził
Auhelawa
gałę
działu
prezentacji
Hanna
##88
szacunkiem
Ej
znajdujących
chronione
rozpoczęły
rozej
##czywa
Wierz
kapitu
Anton
kryterium
brunet
##ument
Manu
wypi
świąte
Ori
świadek
zachodu
synte
zmusi
wyjaśnienie
ubieg
nieroz
Zgromadzenia
estety
##indu
czysty
pale
poprawia
##glugi
Andre
strat
##sey
mięso
sukcesy
napast
Niezależnie
nieważne
zapisów
ignor
##bon
##pkę
Roger
dowodu
Imię
Fort
Działania
formular
utrudnia
talen
poważny
strachu
absolw
ogłoszenie
uczestniczyć
Specjali
IC
##ART
kau
Leś
Postęp
pistolet
żyjesz
##Naj
wiejskich
##eder
krajowego
##tui
informacjami
obserwacji
obfi
##zec
Dosta
##cyt
nazywasz
czystości
Kukiz
prawdopod
##emat
staż
niespodzianka
Wiedziałam
złoś
kierunkiem
##rodą
najnowsze
##chester
krawędzi
Gości
Goście
Zmiany
chciałbyś
królestwa
kub
##iew
uważać
##leran
##hoo
różnią
dwaj
Pozwala
Ire
istotnych
światem
Nigdzie
wydała
wspólnej
##sin
##paster
szkoda
nazwał
biblij
byl
znał
wydawać
##ąg
bohaterem
traf
Unia
anek
Chrześci
administracyjnych
Cof
zniknął
ciepło
##BL
##Ham
Zamykam
doskonałą
Marsh
##oster
morzu
Budownictwa
gl
wolna
gromad
cos
Roku
chodźmy
Kosz
bieżących
kłamie
Założę
przedmioty
EU
interpretacji
Odz
inspi
szaleństwo
językach
podnie
##mianę
##cjonali
uchwy
zwolnienia
##glądaj
deszczu
straj
kaplicy
##step
Archiwum
Waszyngt
zainstalować
fragmenty
drzwiami
plaża
znika
poety
wynalaz
rozpocznie
Pierwszą
Socjali
bęb
złych
nacisnąć
Kempingi
##oryte
pieszo
prywatny
świetna
ćwiczeń
zostanę
złoży
kierowców
wyższa
przyjechał
szczegółowo
dojdzie
##ławia
wyszukiwanie
demokraty
eskad
Liceum
Miami
raporcie
przewie
##gacji
pseudonim
##knie
silniki
##teria
##tną
prasy
##kowska
masturbacja
##cor
Wschodni
miliardów
Zako
##stwu
potrwa
radość
zamknij
gwiazda
##mb
Wyróż
uporząd
ramię
pasy
socjali
zewnętrzne
ogółem
Az
znają
play
Powiadom
olimpijskich
Wojskowego
Obra
przestępstwo
Zobaczmy
##cjaliz
Zł
##pens
France
zapisane
Shaw
uwielbia
dokonuje
##phy
wiernych
Dę
jazda
KB
jech
uczył
definicji
EP
prawidłowo
zapisu
działaniach
##wak
##czeć
##irgi
państwowej
3000
elektryczne
jednoznacznie
uległ
porozumienie
Cli
więź
##Hamster
##sche
zanot
Zastos
##stecz
resortu
xHamster
udogodnie
az
koordyna
przebudowy
krytyk
polityce
inger
Republika
Umowa
komand
uznaje
Federacji
Gala
poprosił
wytrysk
Mała
lekcje
Wreszcie
##grafia
zadziała
papiero
siedziba
datę
Litera
zabezpieczenie
##skokatoli
Wyspy
rodzinnym
zjawisko
zasadami
certy
debaty
##kio
wysyłki
##UJ
wieki
urzędów
względów
##ffer
##osci
##illi
##ałabym
##skami
Tadeusza
##gio
##staje
wzmi
naturalnego
opracowanie
zebra
##tości
ocalić
uwol
Pożar
Davis
Buk
ślep
Źle
##ałuję
przypominam
Zwycięzca
##czniej
##dzkie
oskarżenia
podjęte
Olimpij
przyszłych
nazwać
Danii
autorskich
Jones
##anne
opady
utk
wejściu
celach
##otka
Rzuć
Inspektora
chęć
exe
ustęp
Maryi
Odw
##house
byłych
wojsko
pou
wywalczył
mły
##źń
chrz
dotykaj
stosunki
trenera
##91
nazist
podstawowy
przyjęto
ast
##liła
Pieprz
Niesamowi
Uch
Us
##amknij
Dur
line
artysty
personelu
##ftw
##onij
przeprosić
##walił
Lew
##ałaby
Tomasza
sprę
okłam
Całkiem
gruncie
htm
Widziałaś
ukradł
zasilania
##owską
pomocyz
klau
rusz
drogie
słyszałam
Rozporząd
unijnych
pomocyzamknij
zwane
kolorów
##arszałek
##UM
Zagra
gigan
zdarzeń
wnioskodawcy
Diet
sale
##amentu
zrobione
ukryte
impreza
ślubu
Free
Tel
wygodne
##ße
##rują
ziemią
##rowej
sufi
składek
czyż
##cik
mieszkać
##ken
Honor
Potwier
Sre
pios
lokalnego
zawierać
##urd
inteligencji
zalog
pokazują
##kury
##znanie
wyrazić
Organizacja
osiedla
czysto
kontrole
sala
Czcionka
Zato
##lli
Alan
pośród
Rak
##nicza
przyd
klienci
zaktualiz
trasę
Strzel
Clas
Zbrojnych
SM
Zamień
pochodzących
przeprowadzonej
przyznała
elimina
Skarbie
kolegów
silników
północny
##ms
##strzu
natura
zabawki
traktować
Kanady
##iery
prawną
Która
zmuszony
zaproponował
karmi
gdybyśmy
##ges
realizuje
standardy
##arski
##ografia
zazdros
szacunek
##dle
Konferen
płaci
tenis
##ukle
zobaczył
naukowców
Fr
Slo
Jacek
##stawić
studyj
akcja
Drugie
szpitali
Konstanty
rebeli
##ucha
przypada
wliczone
lasów
standar
##omier
##nod
podejmowania
Wiktor
poziomów
##ctor
programach
Sprawo
##ciski
płytę
##inist
Logi
zgłoszenia
sekundy
danymi
przepływ
Buddy
Świadek
145
https
ugo
##odręb
Wróć
men
##ffi
niepor
##ias
##będą
##owaj
jednoczes
gno
##owną
Legislacyjnego
słysze
szczególne
Artykuł
niezbyt
Starego
świętego
twierdzą
Nieruchom
zastąpić
zabieg
##ence
repu
odpowiadając
Kalifornii
udziela
wystawie
##fikować
donie
##board
Dora
bogaty
ciepł
ubiegłym
##uszcz
Gotowy
zatrudnienie
sąsiedztwie
koncie
Ukończył
szukam
śladów
kontu
opart
szerokość
Kobiety
zapalenie
es
oszac
formalnie
##pton
##grad
niekiedy
zamieszcz
##arl
Karkonosze
wywiadu
lokalny
repres
##cając
łączności
Małopol
##ródł
publiczności
Search
najpopular
reklamy
miłosier
##lah
Zgoda
Sami
rozwiniętych
Indie
Chłopaki
ISO
przenoś
facetów
Angiel
chciałaś
##skak
lato
chwile
##ograf
posz
##ark
urzędników
Mniej
słusz
oświadczenia
Inde
Najnow
##znę
##ars
Szybki
wiarygod
rocznicę
Sytuacja
##RE
##ciłam
##ombie
##czyki
głupia
opadów
Obiec
cerkiew
barok
długot
ochotni
aktywnie
profesj
dysponu
Kategoria
administrator
##urów
##aktycznie
zanieczyszczenia
Wzią
zarę
##ycha
restruktury
serw
boską
##libyśmy
trzema
##szku
gościn
Zarówno
pogoda
uważał
km²
niezwykł
wyrazy
Mę
decyduje
statystyki
gimnazj
##szam
konwen
Wicem
obserwować
Flo
fizyczne
opowieści
PSL
wari
zmianami
sytuacją
szkolny
##bul
nienawiści
przyzwo
pracujemy
podłoga
chwy
późniejszych
doskonały
East
Automaty
wyniosła
pisarz
##macie
Zestaw
przywie
głodu
Samu
przewagę
##nionej
formowania
Get
kilkunastu
zakładni
Airport
bio
Wszel
infek
regionów
##zwycza
sekre
Orze
##duję
rejestra
ogólnego
pret
przeraż
wciąg
##letnich
niedob
web
typów
##pla
wyborze
Wid
niskiej
Kanadzie
rozkazy
wojskowe
okolicznościach
Otrzym
Moz
sprawami
Każdego
kwiatów
Poch
przyjaźni
łatwy
1907
Jason
##pty
rozumieć
Fun
##niłeś
Boy
AL
##staną
prezydentem
##czeki
Koz
reprezentuje
powodować
złożony
Rumunii
zgoda
odnawia
przychodów
egzekucji
proponujemy
ami
Błyskawica
##dysk
zgodzić
regulu
statusu
Swe
Kongres
PW
prawach
teatru
Centralnego
##órzu
##wieniem
content
pomogę
##bec
obsługa
Zwykle
naciśnij
pytasz
wyży
zbęd
refleks
##rwiec
chorobę
Hmm
##gażu
piosenek
afrykań
NKWD
oryginalny
południowy
wywołań
Chę
ratunk
##kcją
Marie
należałoby
możliwych
wyższej
##zysk
##arty
##arnej
białoru
zgłoszeń
przedost
zachodnich
##ffa
Zresztą
Recen
##harm
Olszty
Bazy
miejskie
niedźwie
wielko
kosmos
powiedzmy
Pię
znanym
##KO
ciemności
alfa
League
Piłsudskiego
łódz
##towany
osiągnięcie
Cur
oparty
Mm
brytyjski
południa
Phoe
przekazanie
tędy
naft
personel
pięknym
1906
Linux
COM
negocjacji
##wające
Russ
możliwością
epidem
Badań
dwadzieścia
##anin
Małgorzata
handel
GP
powołanie
##ległe
##łamy
##arnych
chore
emocji
Marty
konieczna
##zienie
Postara
korepety
interaktyw
kutas
##OG
obwi
##nuj
okropne
zostałem
zaprojektowany
eu
departam
wprowadzania
hodowli
##joni
pogod
czyta
indywidualnie
Włodzi
Zdecydowanie
uczynił
różnicy
zmęczony
potę
ścieżki
Rio
mężczyznę
banków
Earth
realizować
lepsza
komed
ruchy
dookoła
zbudować
wyglądam
podjęła
##stości
rundy
pło
znalazło
##RW
##RP
Administra
łańcuch
Bul
okazać
wyjści
podpisany
##fryzacji
spółkę
istnieć
Zwłaszcza
##opie
matce
wyrazi
dzisiejszej
nowoczesnych
zdefiniować
Elizabeth
chcielibyśmy
opozy
##nowy
pody
szczególną
platformy
Wartość
##pur
przyniósł
##nokształ
hiszpański
##braj
wyższy
wiedziałeś
ciężki
naukowy
prostytu
prezbiter
mno
przedłuż
prowadziła
poświęcony
rzeczach
udawać
trzecią
usprawiedli
nazywany
dyscyplinar
##iusza
wolontar
Pit
Pracował
Pierdol
##kiety
głosować
opcję
starań
gwiazdkowy
taniec
info
komor
kanałów
dostanę
podniesi
##dzeni
##ical
can
##karza
WC
militar
1908
zasługi
budować
##gieł
przeciwnym
Ama
##bran
##kówki
skrzywdzić
mos
Nieprawda
klucze
##leya
Larry
wojskowego
Politechniki
sądy
##plom
prędkością
Kontra
bieli
indywidualne
##niłam
Wyspa
prowadzonej
zrezygnował
dyskry
zmartwychw
wystąpienie
##onią
szansy
obliczu
##czkami
rozpoczęciem
Święta
pistole
##nianych
##skop
Mówią
harcer
chaos
Oprogram
nacze
##alony
spółkach
operacja
Wynik
##linę
##sywne
spadł
Ubezpieczeń
##owic
wschodzie
nawo
Igrzy
Wychodzi
Wojennej
Jakuba
Wszystkich
tematem
Cri
denty
##wek
##vent
muzycznych
ocal
przejm
pryszni
Menu
przeznaczona
legislacyjnych
Fle
##oderni
Gwiazdki
Siedzi
##inicj
zaopini
##łożył
##ownej
Mówimy
##obe
Wybor
Spoko
##oney
zamachu
uszy
mandatu
Zachodniej
widzieli
##aju
depres
mamie
##wość
##AZ
układem
nieist
higie
przynależ
słabo
##rzwi
lepszą
pociągów
Odejdź
regulaminu
video
##gada
##zor
Mand
zachodzi
Ludwika
##spektyw
strukturę
Wam
##NE
argument
zapowiedzi
##onami
Brygady
kres
zdej
środowisk
towaru
Narodowym
##rp
Boli
osobistego
Kowal
##archii
Ochrona
Fried
publiczna
kanadyj
wypu
Drogi
lamp
generalnie
profesorem
Chile
##stach
kuchenne
emocje
Śmierć
Var
##onna
##czami
islam
czwarty
informuje
prawnik
Matth
##UT
ekstrem
heli
##pha
##ür
środkami
opłac
skuteczności
przedstawicielami
Bisku
Ker
Sw
Szczecinie
##rowe
klientom
##pry
dotrze
źródł
potwierdzić
Zapisz
funkcja
epoki
czynniki
odpowiadać
policjant
wysokiego
piwnicy
Dodatkowe
mole
pozwolenia
Metal
hurt
otwarta
##syn
Call
Hay
budowlane
##zami
nauczycielem
Termin
narusza
Rób
rela
aś
jutra
##ałą
szerokie
montaż
Żegnaj
Egiptu
##gla
dopu
teoria
widzieliśmy
miną
wymiarze
zacze
reprezentu
składają
Spójrzcie
Książę
##liwej
##śnienie
##łożona
byłyby
Zaufaj
mine
pracodawcy
wykro
poparcia
Jenny
##szyło
międzywojen
opisu
noszą
działających
bazę
pisanie
ocenić
ciemno
##myśl
Marcina
##dn
społeczną
Wynaj
Dziękuje
Czter
ulica
##upy
Debi
Trady
Użytkownik
Błę
zachodzie
K8
Osob
datą
zapobiega
rasy
Pozosta
##ign
Nowości
powody
cich
diagno
wzięło
dawnego
studiach
badaniach
Istot
tożsamość
Świe
Należ
##cyk
Wykona
dziedziny
zajmować
Środkowej
wytwarza
##syjne
wybier
parzenia
chora
przyjeżdża
zeby
legi
##anowskiego
zajęcie
zakwestion
##vig
opisuje
wyczu
##INT
wymiary
archiwum
Paula
##nicę
znalazłam
idealnym
##nit
##cape
##obserw
Odłóż
aktualne
kanoni
Management
319
zezwolenia
Organiz
święto
zwanej
hol
##kins
centralnej
Komentarze
Sztuk
Mediol
##lich
##ślenie
niepow
Michaela
Statystyki
reforma
sfinans
pochy
Party
żela
obrze
przedstawiona
Powinien
link
##73
gracza
lekarze
hal
Team
##pertu
zielony
buddy
##letter
monitorowania
łaski
bieżące
sprawić
możliwa
maryn
biblioteki
ofen
Lady
motory
wnioskodawców
Świąt
fabu
Koło
Dziecko
oświe
Va
odnaj
wydaniu
##stanu
##89
bohatera
lasy
ufa
zakładach
oświatowej
Ręce
Well
Zła
##uta
##isy
##akija
manew
psychiatry
Master
autorskie
PAN
czarno
zwari
finansowanych
##mujesz
ustana
wydanej
odbiorców
Ostrożnie
testu
nogę
##ujcie
##szak
wejdzie
struktur
Zróbmy
Wisły
Deb
rodzinnego
Miałaś
uzasadnienia
##FS
Margar
strukturze
Znów
talent
przejęciu
Klucz
solidar
Ewangelii
ubezpieczenie
Fajnie
##els
wiceprzewodniczą
oparta
wcześniejszych
religijnych
pewności
portf
##latory
katedry
wyodręb
szlak
##tara
Przewodnik
ręko
aparat
##well
zaangażowanie
igrzyskach
##lami
Dowódz
scenę
dzwonił
##ologią
Nam
poku
##ics
Następnym
włók
kwater
°C
biznesowych
marzy
mocz
korzyść
##omia
wychowania
Rany
##NIE
##adą
Regionalnej
zobaczyłem
Lisa
długotermin
Hostele
lak
dodatkowego
wyczy
gliny
##hal
mile
sektor
Sel
wydają
zapisać
napięcia
dwukrot
##formie
##kono
##śpie
stoł
państwach
wpływów
##kano
##jas
wspólny
##lesa
zielone
Woli
rekon
agres
wspaniała
Arth
konces
wschodu
##szała
otrzymują
##UD
tłumaczy
pakietu
Karen
wieków
zaśpie
ziemnia
walut
NFZ
##lana
nazywają
Brukseli
Agnie
##wiane
Rh
chrze
oczekuje
London
Fore
##Met
##EA
wysy
dzisiejszy
kreatyw
specjalnej
##kinie
szczą
losy
##ęt
Indiach
wierzch
traci
budownictwa
płaszczy
Wier
ho
akcję
Przyszedł
kierowca
państwem
CS
##canie
##cane
umiem
Eth
mit
##ette
##ology
DS
PT
Philip
Ped
skojarzeń
powło
entuzja
prądu
meksy
wynosił
##źli
##nocha
zestawie
zakrę
polityczną
handlowego
kandydata
##sach
##aa
##ters
Shi
##vey
pracujących
wykres
1909
zagospodarowania
WS
lotnictwa
odez
Interesu
problemami
ED
dawaj
##dzący
zabiłem
Plac
przeszło
Naszym
wyglądał
oblę
twórców
szczytu
##wiały
##Ma
zastanowić
Zgo
##czyńskiego
Doskon
poglądy
bomby
obroni
rozpatrzenie
gest
miłoś
Historii
kory
Dziennik
220
zwery
przysługuje
piętro
wbud
przejmuj
TR
fundusze
zlecił
Jaros
##cat
artysta
granica
##ING
zastępcy
spoty
##czynaj
Japonia
fanów
rządy
##ędnie
dostała
odpocząć
utrzymuje
Szczęśli
Tych
##ńscy
objęta
fut
Aha
##łodze
##elli
parkin
alumini
zapoczątk
kilkoma
przegłos
przeskan
Cookie
życzenia
##nęliśmy
Mieczy
##osk
Festiwal
rzymskokatoli
##ostrze
Członek
portugal
##UK
##kov
przyniesie
zobowią
##karpa
niedop
news
Atak
zachowuje
zamknięta
##iecznie
przystęp
turystyki
emis
dopłat
marek
##etów
parlamentarnych
PDF
celi
ograniczone
podpisano
lokalizację
rodzinny
wejściem
poprawką
sygnału
podłodze
prowadzący
medycznego
poję
##aniach
Państwowego
trenerem
cyr
przejąć
odstęp
boisz
wyborem
rezerwacje
1904
Oszczę
zamieszkał
Edy
ptaki
Ode
pozostała
obywatele
indyj
odznak
Prę
Chrz
używając
sier
##zumienie
wyścig
##owar
Niewie
podar
Wiecz
programowe
dłuższy
Prognoza
troszkę
spowodował
fizj
##gara
karta
budowli
##urch
opisane
przyjaciółką
pól
##poś
##gom
##ytaj
Radzi
kontynua
##finale
końcem
brunetki
mleko
wypłaty
uważaj
szczególny
wodo
##menty
sądowych
##panię
Urządzenie
##robo
Trzym
stymu
fundament
Anglia
cięcia
rosyjskiego
Skip
przyszły
WiFi
samorządowych
Had
całkowitej
krajem
spotkamy
wyzwania
montażu
duszpaster
urodzenia
rozd
mene
agresyw
##tyczna
##nęłam
Quin
ilością
lokalnym
piękną
##gnij
lecie
twardy
trend
Link
zaoszczędzić
##mond
mg
##ving
statki
Pałac
opodatkowania
niebezpieczeństwo
szkolnictwa
Spotkanie
niemow
##ftware
polecenie
nadchodzą
osobistych
laure
##rowy
okład
wykonaw
##eorologia
Mitch
Podróż
próbuję
##klej
Male
##hou
zobowiązany
bezrob
Natal
zagraniczne
przestał
dowiesz
świętych
niewielki
generacji
awaryj
kolacji
wykonano
Room
##gim
##ełm
wydanych
zadzwonił
cmentarz
przeznaczenie
Przemysłu
##odaj
zacznij
prywatnej
360
doprowadził
##goni
##PA
Szefie
pielgrzym
płacą
warstwy
##wiast
ziemie
elektrycznych
znakiem
Spie
dodatkowa
pojedy
Zrobimy
##rm
kroków
##zją
naturalnie
Johnson
Kh
orzeczenia
Podobne
##72
kw
przyszłego
Granicznej
Wale
Partia
golf
dezy
pozostali
drogowej
Łuka
##ologa
stałego
ciałem
skonstru
energia
##żera
##edle
współczyn
rozdzie
Duży
##TR
zajęta
Czyżby
##wiecień
##arem
zasił
wyga
finansowym
Troj
##atycznych
poczy
##szewskiego
otoczenia
wyłączyć
przełą
cierpi
dzisiejszych
bohaterów
un
109
Ford
##puł
##rowych
ulicach
przyszło
Gazetka
wiedząc
internecie
wykorzystane
włączyć
Soph
wojewódzkich
królowej
##loe
liczbą
##berga
##angel
potwierdzenie
zwłoki
##zerokość
posu
symbolem
amerykańskie
Inżynie
domach
##towej
sprawdz
czterdzie
Julia
rozróż
##ckimi
Cyklony
boles
##onto
102
pomagają
Festival
##86
ciężkich
Ye
##rd
armię
Design
Joey
Gdyni
imponu
geomet
pewni
bara
##taż
recenzje
Bło
##fikację
bezpośredniego
A1
zdarzyło
wieczor
niechę
podwo
samemu
Ludowego
##stom
##Hz
dodaje
bezdom
##zić
Life
Rozwój
prowi
ante
Syrii
adresu
##pson
prywatnego
szukamy
hiera
robót
zaczęto
Obaj
Pancer
odrzucił
Lie
polityczny
łowie
##szczeniem
Arm
nadzieje
##kowaną
Białym
oczami
##gich
Jedyne
tylu
partyj
banki
stałej
DC
spadku
##nota
sukien
odpra
widziałaś
uznany
poszukiwaniu
widzów
Niby
hydrauli
##czkolwiek
tropi
morskiej
wspomnieć
współpracować
eko
cerkwi
jesienią
słusznie
##jechałem
republi
Łot
##rzad
charakteryzuje
mówiłaś
zajęli
##sport
świń
##xer
jestes
partia
dostosowanie
paz
określonym
fundam
##robi
umówi
Pic
wstyd
##laski
negatywne
jaz
##ciąganie
Beat
energetycznej
Flory
##iA
kopi
zdołał
##ccy
AF
wpisz
##bilit
Institu
tancer
zasy
wewnętrznej
##głych
twego
zastosowaniu
głębi
nieszczęśli
nowymi
##inu
tez
niezły
nieograni
Zakładu
ger
##tycznie
##reg
zbiorów
laser
##hem
poczekaj
gorsze
moduł
##niało
zebrać
naprzód
oddał
Potrzebuje
magistra
Sau
nazywać
Przestańcie
instytucja
Norm
hipote
wytwórni
jasna
dę
kłamstwo
Scot
warian
kontakcie
deklar
zarzutów
podwójne
potrakt
formą
powodują
ekonomicznych
Korea
skuteczność
cierpie
Czechosłowa
Portugal
rzucić
zapamię
##szczęśli
Porównaj
generalny
Nadzor
szkła
wstępie
kilo
Toruniu
planem
parametry
Gord
##pom
cierpienia
Magdale
Łódz
Gdzieś
burmistrz
##ror
##ciło
Komp
uzasadnienie
prefer
instal
SE
##Prac
zasu
interwen
gospodarczy
efektem
sztucznych
koszu
##żają
Inwestycji
pojazdy
##bane
otrzymywać
##Szerokość
rozstrze
Jaw
waliz
##atorzy
UK
##ńcy
stery
##luzuj
uległa
opłata
Joseph
założony
realizowany
zagrożeń
Mom
Luksem
wycofać
tronu
CZ
widoczny
klauzu
usz
##rgii
początkujących
nauczyciele
pielęgna
rozciąga
uderzył
##wiałem
Charlotte
##ab
południowym
nowoczesny
Twoją
##lewski
wprowadzeniu
rangi
Antoniego
zmieniają
Brown
wygl
górach
Karl
zastosowań
zaplanowane
posiadłości
##Meteorologia
telefonie
sztukę
wykra
wpadł
pospoli
wykonywaniu
rozwojem
doliny
młode
Udostęp
Powszech
odmawia
niższe
Karta
Upew
babcia
przeanalizuje
uzdr
tworzone
##nokształcą
znosi
chorwa
##key
Idziesz
przeważnie
##uble
ważniejsze
Patri
stworzony
powiadomić
Bren
przemów
dług
największa
transmisji
zabudowy
naród
pamiąt
Komentarz
##oween
istocie
woł
Napole
robot
##ologów
dostawców
integracji
renes
Young
określonej
##stąpienie
założyciel
Woda
dziadek
wyczerp
##arzony
##bani
##stają
zmniejszenia
powodzeniem
umieszczony
Przyzna
scenariusz
Wojciecha
##gadamy
##tkach
zacząłem
##trop
sugeruje
##cyjność
konwer
procedura
związanym
brakowało
dozwolone
ogar
spółdzielni
cywilizacji
znieść
230
deter
Mistrzostwa
prysznicem
Dev
społeczność
jakiejkolwiek
Hali
przeciwny
rzecznika
##jechali
słuchaw
Zwierzę
uś
##ssa
pouf
podjęto
sponsor
Rot
sex
dojrzał
kontraktu
ofiarę
doprowadziły
szkie
Wyści
Karty
jadę
Zakładamy
##OC
dziecku
rynkach
Sena
niewłaściwe
dotychczasowych
angaż
pada
chłopakiem
proponuję
wspina
oprogramowaniem
##kaja
wyspę
hali
##AB
wrócimy
bul
wicemist
SG
przekona
społeczny
tańca
słowami
kąpiel
niedostęp
wewnętrznego
##td
##turach
##cali
chrom
##rzyła
Świętej
##hama
funkcjonują
niewątpliwie
##tował
##dnim
##lizowany
siedmi
##TV
strój
320
salon
drobne
kolana
regula
Zakop
Sześć
mistrzostwa
Kale
Tokio
Mickie
Proponuję
urzą
sztuce
##dziu
figur
Zapraszamy
faktem
SZ
popularność
czasopisma
ekranie
toru
trybun
przejazd
prostok
kilkadziesiąt
Gary
Wpisz
##owszech
Niepod
Reali
Game
Nadzoru
siostrze
współczesnej
duchu
Museum
wyjeżdża
##ostwo
goty
Laborator
Zygmun
##wieniu
kurator
multim
odrob
##dajesz
kroku
##ESCO
doświadczeniem
edytora
Nob
##pach
obiecuję
strefa
GS
##casz
Albert
granicami
kok
składania
Jordan
krwią
Records
Gh
zaczekać
Fol
Inc
Aktyw
##74
##okej
zostań
wyczerpu
baterii
znanego
wyjazdu
prywatnym
Inn
Czechach
zębów
staram
wygrywa
Szero
Świąty
Hollywood
wytłumaczyć
kapita
Dotyczy
##szewski
odkryć
Maggie
następująco
XXI
przechowywane
laty
stosowanych
ogrodzie
zadzwoń
istniała
Zdaniem
pokaż
ukształt
##aninem
Reżyser
egip
rezyden
żałos
fur
pane
dusza
obciążenia
Rozszerzenie
przele
lokalu
ołtar
alim
##vor
przeką
##biór
narkotyki
pojedyncze
wymogów
historią
przekazywane
##ralnie
Prowadz
Rynek
Thor
Ole
użył
generalnej
dźwi
charyt
konwers
pozwolą
sed
zabiłeś
DP
Pradze
namal
otrzymały
korzystają
wyjątkowy
ludziach
Dziwne
Szwecja
czwartej
pocze
##strzał
białka
pokazał
oficjalnej
cykli
##sung
spróbuj
Koszyk
nukle
lepszym
niegrze
przemawia
zniszczone
upadł
komitetu
współpracował
fundacji
Panna
włączony
dwuosob
pobu
filmach
wolnych
posiadać
zaniepo
zgromadzenia
Ax
Meli
fl
odtwarz
Iraku
sprząt
konkretnie
##ondy
rzut
wyspe
aka
doktry
Long
Żół
wspólnych
##onowe
ekspon
Katowice
##cci
##portu
##ex
ożenił
Skła
Kai
stanowiskach
##wających
ulicę
ciężkiej
odebra
tłum
szczeblu
mający
##ecki
Choler
doprowadziło
Dołą
##luzy
jezioro
##cjona
##obile
wydano
Baj
metalu
##cznia
tot
dotyczącymi
Komend
139
Wszelkie
polityków
głośno
##MI
##tyczną
Przyszedłem
usunięcia
##stracji
##dzając
dodatkowy
zabójstwa
pne
##jac
##dziec
##monton
miejscowych
korup
zmniejszyć
publiczną
Twoich
Sala
##mbH
księgach
idealna
styczeń
Demokra
cukru
##ay
VIP
planowania
kalendarz
zruj
wygod
wątpienia
elektronicznie
grzechy
##haus
dzienny
##stania
##kh
dialogu
kosztem
wymiana
skargi
zmieniono
##oskon
Doceniam
metali
odwołania
zero
##akrotnie
historie
pobo
picia
Anti
wirusa
wdrażania
patrioty
##produ
Zawiera
administracyjnego
fos
gospodarce
sprawiedliwość
Sas
Lem
wiodą
spust
##bine
lotniczego
Oddaj
Meksyk
powieść
wyniósł
ję
##nerzy
długą
##KI
##sep
artykule
założona
mnich
okulary
sukcesów
konkretnego
##osc
Zostało
wadze
Apple
triumf
odblok
zabity
spożywczych
##owcami
internetową
tom
pozostałości
brzyd
##if
##lono
niemu
przysz
żyję
odszkodowania
dziewczynki
instrumenty
##gdyś
bezrobot
##ontrol
Edmonton
Gl
Zje
##prawdzie
Kompleks
Pułku
Zwięk
##dysku
Centre
kwartale
genia
118
stwarza
Krysty
sad
##ktura
zostawia
uhonor
##kos
##wili
##narii
kategoriach
##ligen
przetrwać
Małe
##zało
zmysł
używania
##zekw
egzaminu
##lerow
dziennikarz
##łak
##suje
polecenia
##rit
##warda
Abby
GmbH
Sean
MSW
##cieka
barwy
meksykań
##wiły
szkoleń
patrol
sklepy
##lav
poinformował
Cmentarzu
żonie
##Ap
slajdów
##alth
anioł
płycie
suplem
Stone
młodym
wtrą
projektowania
zorient
zaczekaj
organizowane
wchodzić
grill
Beth
winien
zakazu
##arska
przyjemności
etat
pn
wydawało
zastąpił
niezgodne
północnym
znajomości
masę
wędkar
Słod
białym
plecy
Rozwinięcie
pigu
party
ataków
pęcher
##elach
wypełnić
Spóź
ministrów
oficera
wracaj
Wojskowej
##AW
zadaje
zainicj
azj
sprawował
##EB
Tech
wyższego
parametrów
##pusie
zapomina
ero
##prowadzę
wynajęcia
wielkopol
przyjazd
próbki
##HP
149
okolic
kwot
Ral
organizacją
ustroju
Głównej
##inie
katastrof
Lily
sądzi
Konf
poczty
środkowej
Koszt
Stad
przeli
##DZ
Najczęściej
Adria
pasku
skończyła
zechcesz
spro
cenach
##tko
##zew
politycznym
Act
##onek
Karoli
porusz
pochodzące
##76
Zalec
Podsum
prezentuje
Bohater
##stoku
naruszenie
##miertel
ładne
wyjaśnień
##jonu
słyszy
burmistrza
Produkcja
Współpra
ukazała
##stąpić
zakonu
europejskie
Lim
środa
##Kod
Lokal
odbywały
piekarnik
ksiądz
najwyżej
Musie
tatą
##omera
mot
kibi
gardło
Okres
kawałki
planach
serię
Potrafi
bre
##niczą
istotna
napię
Zupełnie
koszmar
mą
Reg
all
##ślenia
Mistrzostw
latar
stanowiło
##czany
##pola
Izbie
powstaniu
Posel
prawdopodobne
Śląsku
zbadanie
Śmie
poprawce
boże
Anne
wdzięczny
wulk
słaby
warzyw
nosa
ropy
podał
Łuży
##órki
narodowości
rozporządzeniu
##magne
Bun
##ekscy
kolega
elasty
Sul
szczery
chłopcem
liczyła
bezrobo
rosyjskich
przedmiotu
wiatru
najnowszych
##kun
powoj
Junior
apel
Przypominam
trudna
perspektyw
##okład
trudnych
powiązane
Poznaj
##rale
doce
czci
niezw
dre
rozszerz
Europejski
wspomniał
Batali
miecz
uczci
liderem
otworzył
najlepszej
kwestią
##dae
##eto
podejścia
Station
Mario
##bierać
wola
szukają
policjantów
zupeł
Barb
Gmina
równowagi
luty
windy
Lind
raty
##czeństwem
Najlepszy
pozostawał
wprowadzony
reprezentant
Kamera
104
gratu
dawać
nowotw
##pin
płk
Uprze
trwać
poczuć
pracodawców
##brana
oddziaływania
Inspekcji
##nuje
zaciąg
tytułów
##inęło
żywność
temperatur
Sprzeciw
Niebezpie
pytał
##nob
znajdujące
##TO
zdecydować
##niana
##ersey
przeprowadza
szeroką
##aniami
zawarcia
Zdej
wypadków
rumu
Wiedeń
odpły
Wyciąg
pienią
zabiła
Baby
koncerty
wysłany
Drzwi
dur
##wymi
Miro
opisał
Widzimy
##niosło
przyszedłeś
kanału
Śpie
nożnej
Trzech
konsekwent
##ffe
Dostałem
Mieszkanie
##doli
edycja
administracyjne
zaprojektowane
##tności
##sada
przeciwnie
bezwzględ
##towa
##andra
zdobi
Indu
tamtych
posłowi
A2
Joanna
##cania
ulubionych
ment
129
gola
płaszcz
Frankf
tary
##aktu
gdziekolwiek
ukar
Grzego
Wszędzie
Prokuraturze
wybrane
Srebr
Caroli
dzielić
wpisów
podpisać
Ltd
zakończone
Ami
wyty
##majcie
Dean
rozmawiał
Deutsch
jaskini
parafia
Zdzi
drogowych
103
komendanta
Powiedzmy
hałas
Rezerwa
Wirtu
zaczniemy
##wający
fortu
srebrny
komentarza
spojrzenie
zrezygnować
leczniczych
##ewel
##rt
##ątk
##ib
repertu
Wrócę
artyle
Zegar
dokumentach
korzystając
Twitter
tradycyjnych
zjazd
Kub
##więci
Skype
Biblia
Chuck
stację
Narzędzie
##IĘ
Lite
##vera
operacyjnym
##gol
##mission
Hart
##widen
publicy
żądanie
##sienie
Wniosek
Posiad
europejskiego
najbliższym
Idzie
opór
UNESCO
Dż
##nna
Mick
popełnia
##uer
##lal
Ziemię
Idźcie
Rick
struktura
Antonio
##ae
obniżenie
częściach
Jakim
##niosę
gleby
Wyszukiwanie
Water
##żowy
Augusta
wyprawy
argumenty
Wydarzenia
ver
dopuszcza
tegoro
odcię
galerii
najstarszych
laptopa
##sami
##liński
##socia
Jud
niewielka
##nim
wybrzeżu
tkanki
Fryderyka
Lake
##rid
Zapyt
##IiIZ
negatywnie
opłatą
##eg
wybacz
spoza
Real
Pud
jednostkę
pytać
kapła
patriar
odczyt
bun
##łudnie
śledzić
usunięcie
obd
autostrady
##stiana
ciekawych
adwokata
wizerunek
znaczące
##łonę
koncertów
rekompens
pode
nadał
##uz
Katarzyna
podejmować
##owatych
wój
Album
##isk
Gad
Mły
oliw
##róbujemy
zawdzię
zachowy
katastrofy
bezprzewodowy
##oter
mni
kształtowania
obwodni
amatorki
zjawisk
##FF
rocznicy
Wilhelm
##czała
wysko
Sądownictwa
Benecko
wygranym
Monitor
##DA
towarzystwa
##czonymi
zaobserw
Codzien
socj
negocj
wdrożenia
jeździć
##czyni
##ostrad
użyciem
##łanie
osiągnęła
przeglądar
akademic
##etro
czytaj
Powyższe
ruchem
Oceny
##zacyjnych
Napi
Berlina
##ubile
mogłabyś
Błagam
Barry
Lata
Conne
Wskaźnik
##wiłem
Pochodzi
stanowił
współpracuje
wiara
atmosferę
##nikowi
Widać
kij
przerwie
humani
##pce
sercem
słyszał
##ńczyk
prawdziwej
alternaty
ukierun
przeniesiono
Kwiaty
wysu
##eklar
wymienia
Pucharze
Teatru
lecia
##amery
Wei
Międzynarodowego
medale
Architek
Old
##ującego
wzajemnie
Przedmiot
Lekarz
pomia
najwybit
Fakt
Tej
powodzi
zainteresowanych
##rzałem
klubem
##pal
##niczym
##ersona
Żadna
starał
trwało
czekamy
##nali
specy
uniwersytet
Ate
redukcji
definiowania
podtrzy
pozbawienia
natar
nieporo
##foni
konsoli
Narodzenie
faceci
Czarny
dostosowania
Marynarki
##IR
PAIiIZ
kultura
Główna
ewentualnym
zrozumiałem
Hard
##wina
słyszałeś
K8INT
położyć
przedtem
kukury
spły
Jackie
uważany
Krę
sekretarzem
zapyta
##rzyż
##ronne
Wprowadzenie
Finlandii
zamraż
Lotnisko10
dziewi
korea
letnie
uderza
rywalizacji
kancelarii
##bek
obrzyd
zainwest
piękno
uwzględnić
krajowe
udzielania
sys
brytyjskiej
##odor
##owala
okej
##galii
##odawcy
##gnu
sper
opon
##ekwat
szach
domin
przyzwycza
Siedem
Whit
Ross
opowiedzieć
Działalność
letnich
lokomo
Zdaje
najwyższą
##ume
dochodzenia
Elżbieta
##dens
gwiazdą
obciąż
osobisty
Via
##ialnym
Zarezerwuj
##ан
opracowy
identyfikatory
staj
trzykrotnie
plemi
Gorą
przepad
zaczynamy
przychy
przyszedłem
opol
##arny
##prawdy
dykt
związanego
żelaza
138
Absolutnie
##arna
169
zagła
Mani
uważnie
radia
Studia
podatkowe
1903
Wicemarszałek
objęcia
Poprzez
Cole
tegoż
właściwych
##kowskiej
patrząc
zdobyli
##stop
Otrzy
wiecznie
siedział
uzyskaniu
Wilson
RS
grupach
##enue
Niezła
##żny
Chem
potencjalnych
hod
wielokrot
segm
Zapewne
Śródziem
wskazana
największej
lal
łeb
##pot
demokracji
cierpią
Hack
Anth
zdu
przedsięwzięć
kluby
##lov
założeń
potencjału
Korzysta
##wnej
Siost
zbiornika
##ors
Joan
letnim
Divis
KL
Zba
Odby
skutk
oficjalne
##kana
##olot
Niemcami
piaszczy
popat
Boskiej
Obud
##niesieniu
techniczny
##ims
rab
##ryg
pomysłów
##nięto
rozwiązany
Królestwo
Wyrzu
Włas
wykrywania
kompilacja
marynarki
sena
##towego
Edukacja
toster
złodziej
brow
Stal
przyznanie
Powiedziałaś
Trakt
dali
ojcze
baza
siedli
Cez
##arte
twarzą
przywiąz
##wiazd
##działo
Josh
społeczna
stwierdzenie
dziwny
Chętnie
5000
umożliwiają
specjalnym
##ryna
##działach
abon
dałem
Company
powtórzyć
nieop
Kupu
przybory
uwolnić
Brał
spotkałem
Jay
ura
trudny
trafić
##gby
prawdziwych
nastąpić
Gub
zrobią
niski
rozmiarów
księgi
niezwło
władza
monety
metry
pojedynku
##din
wskazanie
krajowym
ładna
słodki
szam
BS
Day
zespoł
odmiany
Iran
drugo
wspólną
butów
Pierre
wysiłku
Uwierz
##kłą
kopu
ataki
dokumencie
nagroda
wystra
nieprawdaż
zarobić
hamul
społeczeństwie
Back
Zb
napędz
zbudowane
Roś
##otani
helikop
##pch
głosowało
orzeczni
egzami
##polis
stałym
Singa
uszczel
amunicji
szes
gabinetu
odmówił
tłuszczu
walczą
operacyjnego
Indian
Gun
Polec
Win32
szwajcar
promieniowania
Suk
karnych
Wschodzie
drapie
Wiki
produkowane
##łani
wyjeżdż
Adv
This
Molly
bezpłatnie
Listop
spełniają
powyższych
spadła
zorganizować
Radia
Zastanawiam
Oskar
siedzenia
grubości
poły
zaangażowania
zdoła
##ktorzy
Trzeci
badawczych
przerzu
eksk
nazywam
SuperPrac
kolumny
godności
przyciąga
osady
podekscy
robiła
stanowiła
##jom
##szając
non
NC
bezpośrednim
##nosci
przeg
##iti
zatrudniony
Restauracja
mierzona
półfin
turnie
ewentualnych
czekał
hon
wiceminist
zask
serc
producentem
przepływu
SuperPracodawca
Drodzy
##bre
polscy
rachunku
Wojna
dzieciaka
##cra
wyraził
##TP
racja
muzyczny
chcąc
Akcja
Bom
gejem
##jasz
znajomym
Jedynie
##ralnego
Zrobił
pożyte
niejedno
Zaw
powiększ
prawnika
Good
Vincent
wykształcenie
##żną
wszelkiego
zaim
znaku
##cjonalne
Projekty
Glen
kongres
Morgan
Key
cząste
##enos
##zumi
Williams
przyjechać
słabe
czarnym
##onął
laski
Bierze
Cos
operacyjnych
zbro
##wacz
sprawdź
występować
binar
##jać
wybrana
raporty
##tte
Barcelonie
wlas
odb
wydarzy
Jeh
traw
kuli
twórcą
Jersey
Aktualne
włącznie
mazowie
parkingu
106
##biej
##rodku
resztą
Gminy
Znalazłam
obowiązkiem
wskazówki
planowanej
Boję
##ńskimi
##obo
Podkre
Kolejnym
##ppy
tutej
najgorszym
wymogi
Użyj
##bury
portal
rządzie
##owują
Odkąd
okaże
baru
członko
półro
pomyślałam
Pam
##gujących
Dawid
Cin
##nifer
inwali
głosowaniu
##cynu
najwyższe
pozostało
Krze
Insta
temperaturze
zaatakował
ekipy
India
ciasto
Ewa
hek
Bezpoś
zapewniając
Oddz
działaczy
Floty
Oczy
Węgry
porucznik
próbować
Davida
inspektora
##ats
wiejska
witami
mówicie
Pozwo
kopal
Hut
##xie
możliwy
królową
odporności
##pas
dzwonić
zwalczania
pijany
##wczo
Okre
##liby
zabijać
owych
##noszone
##hai
kodeksu
zo
Chloe
Lang
koledzy
pustyni
##eng
spoko
SL
Wolę
Dziecia
rolnicy
pielęgniarek
Obja
Dziesię
monaster
##czkach
silna
inspir
zawartym
Kart
##czków
wszechświata
budżetowych
Zygmunta
wyrzut
Sezon
brytyjskich
##nur
twoimi
poważna
Sztabu
organem
Filmy
przesp
Podziel
cio
zdolny
Kwest
stresu
skończyło
uczuć
odwró
naturalnym
Fra
Obszar
dwust
amb
żydowskiego
systemach
##braniu
Matthew
##ader
poniesi
Pieniądze
salę
soł
Obser
żydowskich
Śmiało
obwodu
ogon
dowia
Ruchu
pokażę
Audio
Gatunek
##orzeni
##lino
wyższym
##bourne
nieużywane
##nomor
deput
zachowań
Soj
jedź
dając
intern
brytyjskie
skradzi
##czający
bogate
##SKA
##śc
litur
bramy
planowanie
francuskich
Zaczynamy
##scie
odciski
##ierane
szli
mniejsza
naukowo
objawów
identyfikacji
Jamesa
miałaby
##ciły
niewielką
ratować
wątroby
wymianę
111
technicznego
##jając
muzyką
Such
okie
##lice
##owaniach
tale
tabela
##ziona
manipu
Tara
właściwej
piekła
obecna
szkód
ulice
drogowym
uprawia
##vigation
ikon
zwyciężył
Bent
przeniesienie
##unkach
związanej
węzłów
107
korpusu
sprzedał
australij
partnerami
popie
##onoś
148
zyski
zachodzą
Główne
pene
fraj
pralka
imperium
otwierany
Wybór
zabrania
ponownego
gust
##dentów
podąż
Lwowa
restauracje
Gera
esk
und
##erze
##nadziej
biżu
rynków
Gabriel
kel
Innowa
zachowują
KC
spodob
##munt
odprowadz
poprzedza
##mienie
ekonomiczne
Epi
##nictwie
wynajmu
Koła
zainfekowany
fałszywe
##mieśl
Przygoda
Margaret
Przyczy
pieczę
niezdol
Modu
##ologiczną
Żadnego
nadchodzi
nierów
znacznej
Mog
biegów
##tychczas
niewiary
dwór
pomiaru
dziale
nóg
##nnym
czułem
niżej
##iama
##tech
rozszerza
niespodzie
prawnikiem
przywrócić
Białej
agenta
pw
zbrojnych
dnie
byście
składki
brygady
podejmowanych
Teatr
Sierż
wiosną
##fice
transforma
Et
jesli
Robotni
Wyma
Ciało
Tes
##łożenia
poziomy
zabójca
##gru
##vest
Bea
##noszenie
##inoza
podniesienie
wrzesień
wpaść
##yu
tytuły
planecie
przesłuchanie
Powt
wieczystych
MB
pospie
stołu
bylo
ogniem
##vina
członkowskie
czołgów
Titan
##kob
##prem
skóra
irlan
składać
fitness
imprezie
obniż
Maksymalna
ac
Morskiej
uderzenia
PE
minibar
##59
szczęśliwi
##atka
##szczył
KN
##lod
##manie
Alli
festiwal
opracowane
Lotnictwa
znajdowało
widząc
wrocław
fajne
Portugalii
stacje
zapomniałem
synago
##KP
brud
##dzonej
Nis
statut
grzesz
plak
Powiesz
wakacji
odwiedził
przeprosi
bałagan
zwro
frontu
Koń
Pers
Zbud
Cher
zrealizowane
Sett
Okręt
Apartments
##ring
##utka
moge
Dotychczas
kapsu
Niesp
odsetek
Kasy
wykazały
rezultaty
Cyfryzacji
##sci
zastosować
wycieczkę
Devel
##tive
Jur
niemniej
##czeństw
##cm
Pakist
Dź
Hank
Czerwony
det
przyszli
korzystne
kompleksu
Wybrze
kontrowers
Swoje
kierownictwo
relak
119
ograniczony
Carol
##lotni
uchodźców
Pracuje
##ations
zamordowany
odcinków
##wigi
funkcjonować
ogólnopol
reprezentował
##ośli
panna
spowodowały
Każde
odziedzi
##rada
poznałem
czoła
##GA
Cup
poddać
##cjonariu
przyto
Zapraszam
stypendium
stoją
rozpoczęcie
Promocje
uści
napić
przepra
kredytów
##bridge
Najważniejsze
##tycznym
temperaturę
kasa
torze
Międzynarodowej
##szów
##inter
Linia
podstawową
śmiet
skończyłem
Transportu
wali
podą
suwer
zasadą
traktowane
##grać
Hein
Przypuszcz
europejskim
##encja
ośrodkiem
cias
wejści
##anowski
wst
##otwór
telefoniczna
River
ENTER
Wyobraź
sądem
uchwałę
Danych
##eco
piani
wypoczynku
Okazało
Aman
rozbił
reformą
##ódł
##wioz
podobna
Musiałam
prezbiterium
##nicki
##szeczkę
##rive
##głęb
publika
Jedynym
##lotu
Mówiąc
ruszy
nocle
plaż
Tot
dzier
1902
mont
Ludwik
##ambu
stosowana
##ский
Anulu
istniał
MSZ
##ologiczna
monitoringu
kończą
Helen
Górze
walory
pokonując
Koper
zgłoszone
Virtual
##RD
ambi
zniszczony
##towania
bezu
Pomogę
zwrotnego
łaska
finansowy
dumna
ZD
umarła
Waty
Elli
popularnych
równi
opini
zegarek
Tysią
dodawana
specjalną
odniesienia
równolegle
upewnij
oder
158
próbując
##sol
mogłaś
##ryczne
brakiem
Gen
Bruce
zapewnionego
podatki
łagod
lasach
Cali
##owol
agentów
Jessi
##Ro
Ober
Brat
stwierdzenia
dotyczyły
wznowi
Warszawskiej
zaakceptować
Prawosław
telewizja
Finansowego
##Poziom
pokre
abyście
wydłuż
wolnej
Szkocji
warszawskiego
##eckiego
Jesie
tracą
Księga
abor
zaszko
##ARZ
spełnić
unikać
##cowe
Ryana
malowni
##pala
Wojny
błyska
naboże
zginąć
aer
przedszkol
wzmocnienia
Mid
zawiesza
pokrywa
Wiec
zabitych
wspólnot
strzelców
##bata
##razi
Artur
pojawiały
oznaczać
Zabój
powojen
Święto
aktywi
prowadzony
Odd
szklan
postrzeg
Wyjdź
Bell
eksportu
winna
Kursy
wspaniałą
omówi
Piąt
wykorzystywany
tatuaż
łazience
stres
szczególnych
gatunk
##górze
akcent
Wolf
popatrz
##amo
merytorycznej
wierze
##orzył
brazy
podobnego
Żydow
chemicznych
Zamierzam
ubiegłego
Czujesz
mys
władcy
ołtarz
zeznania
Sup
Wash
##owbo
nauczył
światową
przeznaczeniem
kursów
instruktor
##piony
ogólnych
nazywane
dojrzałe
Diego
zabierz
zachował
zajęło
Premiera
bać
##aktyki
Dup
jeli
Lois
##back
rozgrywki
dostawcy
religijne
minęło
występujący
nastroju
##much
sekundę
Informuję
zachowywać
oznaczone
Świętokrzy
Skarbowej
piętna
Poznania
skontaktuj
Rozmawiałem
opowieść
symptom
Uda
doprowadza
przewyż
Halloween
Zatrudnij
odle
##wari
nosił
warsztaty
uznane
powszechnych
Sma
tematów
naczynia
najwyraźniej
##osie
Narodowe
przyda
Panią
TO
bunt
##JA
nieucz
uzyskując
stulecia
rodzinnej
Afgani
KG
zwykły
Zabij
uprawy
odwagi
zajmowała
Anuluj
Przedstawia
##ladel
turystycznym
siłami
Niepo
darmową
Kościele
otrzymało
kompli
orę
Uczestni
Aw
Biała
##ping
sprawiają
##łata
etatów
Zygmunt
##straße
dziedzictwo
senatorowie
Gnie
##atę
Ann
Wyją
otwarto
wtór
ograniczyć
mocą
GN
Powietrz
dowiemy
dziennikarzy
zaświad
czarnej
egzy
repli
dyrektorów
zadzwonię
Zelandii
akceptacji
stosowne
jakiegokolwiek
##pedia
Teks
##zak
społeczno
##odpor
Rynku
mem
uzasadnione
Ast
palce
uspokoić
Nagle
Spos
Króla
kształtu
drużyną
opracowany
##view
popularny
bandy
wty
##chodzenia
Pel
##ciep
##sacji
przekazywania
kierować
cukrzy
Dwóch
Słońca
##ün
##aro
wyci
Koncer
##rowała
ośrodki
##ACJI
okazała
Przedsiębiorstwo
położonych
odeszła
##towana
spoczynku
pokera
Dą
ewidencji
Cele
273
komin
##Application
palec
##niowej
formalny
wykwalifik
obiegu
skutkiem
wiec
##uss
##shi
kilkakrotnie
świadczeni
reged
zameld
##oletnie
Wprowadz
Strapon
manu
##plar
Presta
zapotrzebowanie
Escape
tempo
zabójstwo
pragną
##ça
Analiza
wydarzeniach
ozdob
chcieć
przedstawiony
Enterpr
Jugosła
Tod
skrócie
Jab
Parker
skierował
ogłoszono
Dywiz
##nest
zainteresowani
trzymał
##żyte
##żysz
weszły
zlokalizowana
Emma
Zostały
umożliwiające
Associa
stłu
grudzień
kąt
Ory
wiodących
apartamentu
Jun
podane
podatkowego
Jacob
niemiecką
Twór
##OŚ
##ecka
Kazach
krzesła
Girl
Muszą
regedit
zdobycia
Wał
Więk
##gos
Market
Przykładowo
chcieliśmy
pańskie
##nicą
sprost
młodości
Gabrie
##wodzie
mówiliśmy
niedziela
liści
strata
##syjnych
dotarła
zrealizować
folwar
Opowiedz
##cowej
znacznym
przetwór
bale
Innym
##sha
państwowym
Rodzice
Holo
##rią
odwiedz
dojechać
##shire
##cil
pański
Reszta
tempie
samotnie
##zg
mag
wskazanych
dialog
powit
występy
układów
Kras
Sea
wojskową
współtw
znajomość
Panny
białego
ucznia
reklama
Miłego
zbieg
chle
Wszystkiego
Cieka
Nathan
Żelaz
dwudziestu
czarna
otwartym
##dli
multi
pieśni
Jakiego
##hone
zrozumiał
solo
Chod
MyApplication
aspekty
niegdyś
Współpraca
Niezły
##oh
rządowego
Ryb
European
Komand
parterze
Grab
##ownikami
IB
##ominaj
juniorów
##cyn
rozpra
głębokie
pułkownika
Ade
pozostały
otrzymasz
##łatwiej
melod
dodania
Christian
jemu
poświęcone
##szczem
wstrzymało
ustos
święty
Łukasz
deklaracji
Mickiewicza
czysta
wszystkiePoziom
morskie
##ieniem
Spis
szoku
##fet
##nioną
początkiem
technologię
izo
przekład
pochodzenie
żółty
##CE
zwana
nauce
szukał
posiadaniu
dłoń
edukacyjne
przetargu
##oke
modyfikacji
##ująca
Amerykanie
kręgu
prostych
Eksper
##urity
ustawić
Nel
Magazy
stanów
zdraj
cudem
śpiewa
Międzynarodowy
##oterapii
izby
Fox
parlamentarzy
Przypomnę
##fest
dokładne
Patrick
Stanowisko
Drag
##hard
byłbym
więzi
zabili
narodowe
przechwy
pozor
pracowali
Shel
przepust
handlowej
pierści
zaskoczony
##Doświadczenie
bramki
chmur
dystans
Arn
Bułgarii
##tina
Trip
powiedziałbym
truci
zakupów
Obu
##okre
pokojach
##enau
partie
ukrywa
##here
Litwie
mło
##ori
Dzisiej
##ctw
wspieranie
kompozytor
Zrozumiałem
obses
##olda
Deli
##ín
wieża
stanąć
zawier
##wiezd
sklasy
Toronto
referendum
informacyjnych
wentylator
XP
podzielone
zbiory
uzbrojenia
Zasad
1901
interesie
chirurg
Sali
##ect
względzie
centy
Duże
zagadnień
tęt
narodów
##ij
umożliwić
Ever
Wypad
##dziłaś
##żyły
dolnej
##wałaś
##ée
nier
łap
Pło
podatkowej
robocze
Kob
Niemożliwe
Klimaty
biegnie
Wiadomości
Praga
zmierz
##cht
##macja
mniejszy
nieustannie
Trojan
Stronnictwa
Pytam
Powtarz
pomogą
Ciem
wież
ranka
paliwo
Town
wypowiada
nazwiskiem
dowci
zacznę
Tool
poprzednio
Software
zawarta
know
płótnie
poradzę
lodu
obiektem
inwestycja
##karzy
czerwonym
inwestycyjne
Som
powrócić
ufund
dziewięciu
ulubione
Bronis
opcja
biorę
Oprogramowanie
zatytułowany
wale
Moglibyśmy
fat
Następnego
narzędziem
głębokości
Buenos
##cience
Elektroni
upamiętnia
spyt
prepara
##ralna
Commission
Pomyślałam
płynie
zbadać
kilkudziesięciu
punktach
wyzw
spora
Podpis
okolice
wzywa
cylind
finansowane
Łazien
zapłaty
komputerów
brytyjskiego
poświęcić
powiedziane
zaklę
myli
Inni
pełnienia
ścian
przeprowadzonych
term
silnikiem
Wielkim
fizyki
zwanego
##play
bierz
##rans
etatu
błęki
Czeka
aplikację
przewidziane
##pun
##limate
załoga
zagranicznej
rezygnacji
implem
podwy
czwór
##ries
zaplanowano
Moskwy
chorobą
gniew
awansu
Poprosi
Lut
przyjazny
zawiod
##dzmi
##ódl
piosenkar
zamyka
Proce
starszego
pięknej
460
motor
cywilnych
opatent
Nieruchomości
Resort
różnym
opublikowane
obowiązujące
kwalifik
##czyste
narząd
Terry
##knął
walczy
przeklę
bramek
##dad
cien
##mistrz
Telewizji
##owościach
porucznika
zadłu
rzeka
igrzysk
Wynajem
Kształ
dzieciństwa
ówczesnego
Województwa
##pow
##gaz
aresztowania
utrudni
konsump
złote
Rosjanie
cudowne
zdrowotne
##tainment
##lian
zaprosić
zamówić
wschodnich
Proble
##ochron
pożegn
toleran
byliście
otoczony
Mieszkań
##dami
Times
Wiadomo
Moze
patrzę
Całkowicie
starcie
Edwarda
Samorządu
##ałyśmy
postacią
drewno
rosyjskim
Prezydium
cholernie
przedaw
##ezja
realizacją
niska
niskich
nogami
prowadzące
Tanie
Maz
dwut
##kina
##latora
##kowice
Złam
obywatelskich
hitlerow
rza
##osh
Amen
Mistrzów
działaniu
odpowiedzialne
AQ
den
rozpuszcz
Przestrze
Pismo
spowodowała
należności
Środki
majora
elektromagne
roman
##kument
kaszt
prawym
##uka
oczekiwać
RZ
Lublin
Drze
muzyczne
Rozmowy
pneum
kła
niemoż
##wiono
amerykańskim
Walki
##cowych
kolejce
oferowane
wirusem
Grzegorza
Możliwość
niedro
ruszyć
szkolnej
serwisie
śniegu
Sanoku
##SZ
smartf
Pokażę
Ceny
etapu
udzielenia
nagrań
przeżył
zasadność
Współczes
czwarte
Jesli
galeria
Znaleziono
##gasz
zmęczona
litość
##lności
naczyń
##łosi
uważamy
podw
##ич
przybyli
wsparciu
##Shop
skał
##ściem
anim
kochał
Holandia
różnicę
##talent
Amerykan
świąt
plam
absurd
##rug
##dnik
zamo
magister
klatki
##gnać
basenie
zwolenników
fen
Nauka
docenia
Egi
pik
kwalifikacje
przejęcie
toczy
wychodzić
bombard
Urat
##żności
ładny
znajdować
cudzoziemców
wygłosi
odbioru
wyrówn
##zury
310
wymyśl
Howard
harmonogram
wątpliwość
Corpo
nazywał
Zrobiłam
nienawidzę
rodze
kalibru
Oferty
tlenu
Widzicie
spotka
ej
dotyczyć
kwatery
##iesz
smaku
Konstytucyjny
inspira
miejscami
nastawi
##dujesz
Wybiera
znajdujący
sąsiadów
grób
królestwo
wysoce
Zabawne
obecną
Czekam
kampanię
gitarzy
prezenty
poszkod
##czeniowych
wykazuje
##ix
teorię
Wynocha
zdjąć
podrzu
zastanawia
Fas
Ow
Madry
end
przyjaźń
Energety
##wida
Fur
##cząt
Fis
ogólny
750
##ue
wyszuk
kochają
odcie
szkolnych
##blo
Lane
pocisków
podatników
rozumi
Jadę
KW
##kany
napeł
##lubi
dokonanie
##non
Ukraina
ll
##nkę
świeże
Przedsiębiorczości
Jet
łączną
słowem
błędnie
właściwą
che
koalicji
##tość
hazard
##omienie
kawalerii
##tarzać
Chciałeś
powstają
##ray
placówkach
niebezpieczny
minia
sygnały
małopol
konsultacje
##tet
rodziciel
funkcjonariusz
Aires
filtr
wspólnym
Wen
##mel
nocą
Kujaw
EX
##ops
rusza
odpowiadają
ślubie
Propon
ekranu
Dietla
##óstr
praktyka
obozów
Posłowie
wskazał
świadczą
America
aryst
będącego
niezgod
Wzię
##ggy
##sist
gram
Lech
poprawkami
1897
Mro
Series
nieśmiertel
robiłem
buddyj
bary
położenia
flo
powszechne
profesjonali
Firmy
straciła
debiutan
ósm
##cemu
przepięk
sał
Wysył
raportów
wzmocnienie
recenzji
brazylij
beznadziej
##nei
uczestniczy
Senacie
Bod
##nowe
##kieta
wieszak
Sale
zmianach
polep
Jakoś
Bezpłat
##yer
##POS
##ello
kolejki
patro
##kłych
atrakcje
poziomem
niezależne
mądry
##ńczo
Lep
seksualne
Fair
letniego
Bory
przychody
pirami
##RON
tajne
elementami
zyskał
Morze
ruchów
zatrzyma
##lizacją
zaprasza
rehabilitacji
Najtańsze
Wschodu
katalo
zadane
uci
##lanych
kulturę
traktuje
możliwie
##ferencje
Rej
tlen
wyjątkowe
Wenecji
przyjdę
telewizyjnych
trą
##lingu
wzgórza
najgorsze
##ojor
planowanych
dziedzinach
Bach
tradycyjne
kapelusz
multimed
używana
wycofał
śladu
zwolnienie
Mazur
dwiema
rozporządzeniem
Audi
poniższe
##etkę
odpowiedzialna
SU
spryt
Odwo
ograniczona
kochana
zrozumienie
Piosenki
Cara
Rub
##gowi
ustalenie
mogliby
drużynę
zastrzeżenia
optymi
dołu
Dziad
Lux
wrażeniem
wydawnictwa
##wora
sprawdzi
piekło
literaturze
dania
programi
kodem
##skaj
Kraje
Corporation
celowo
Zgubi
pon
magii
przedsiębiorca
##odawców
owe
zwa
##snąć
Birk
colle
czynsz
int
kola
elektronicznych
spory
Niego
wersjach
zwolnić
czwartym
##terem
Wielką
gówna
przestanie
zaawansowanych
znaczną
grob
węgiel
Suger
mikrof
B2
przejściu
##perów
Vale
poświęcił
Wybaczcie
operacje
usłyszałem
jeńców
##wień
następujący
wolą
kolekcja
oświadczeń
rozmawiałem
Ela
umieszczenie
1898
odkurza
jazz
##ciągać
pasoży
samolotem
##óc
immuni
1895
ramy
występów
zawierające
Dni
gracze
Posta
fabryce
Entertainment
Jehowy
##brze
Betty
wnętrze
##ostwa
zaprowadzi
Samolot
pisania
kopię
zasuger
Mul
Teren
centralnego
Casa
odebrał
oskarżony
nieodpłat
##gosłu
powtarzać
puste
pieniędzmi
Niesamowite
uniemożliwia
mieszkalnych
kle
Zapamię
Problemy
krop
##pisze
##żkę
##mur
Mieli
niejako
klasę
obydwu
organizacjami
##zik
cyber
przekazuje
zmarłego
Musiała
Światowej
Parlamentarnego
##52
mianem
Miller
MC
##czekam
minął
wos
protokołu
ambit
przysięgam
tropikal
ugry
Przeglądaj
niezłe
obróbki
Następna
edycję
ostrożny
wyzn
refer
państwowego
##polu
szlaku
Krótko
Wolności
Yahoo
ustala
zbiornik
Spadaj
przeszkód
dobrzy
rzeźby
##vier
poezji
Mara
próbują
kwestiach
Zwierzęta
powa
ustach
podstawa
przekazano
oboj
złodzie
Spośród
zorganizował
##bioty
Strony
atmosferze
BMW
chrzest
##ION
##szny
delfinami
Parking
założenie
trafiła
##51
wypis
powołał
lidera
dewel
dowodem
charakterystyczne
potwierdził
##niamy
odrobinę
dochód
Zapis
Laura
##less
mocne
Egz
rzemieśl
pułkownik
komitet
##iv
##osy
##malizacji
królowa
radzi
starą
zmarłych
Castle
Legionów
tortur
Fern
nadszedł
##zowania
natrafi
##grada
sile
stylem
liniami
##bierzemy
Szczecin
Oliver
Inicj
reorgani
##gujesz
projektach
Dziewczyny
Sprawozd
Fami
format
tajemnica
Night
Networ
cudownie
skrzydeł
przytom
oficerem
Janu
góra
Chal
wojskowym
##owanki
Przeka
wykorzystaniu
postanowień
Stacja
rejonu
Dream
CR
nat
Video
podwór
Ktokolwiek
absolwentów
światowego
naukowcy
popar
zry
biod
radością
budową
budowni
wiosen
rozmowie
Zabiję
##watorium
Jednostka
kolejowa
dokonywaniu
wkra
##lonych
Krasi
kończyć
niebezpieczeństwie
##owujemy
rzece
rządowych
polecamy
wyroby
Gaz
symu
zastosowano
##ższa
poszli
przedstawionych
podpisy
pracownikom
odgrywa
fizycznego
popełniono
wspominał
odróżnieniu
##Kon
ulok
wynikają
froncie
obcy
Podla
starusz
zginie
hoł
##wskie
##sters
rosy
Navy
##uke
turystycznej
##53
Bak
przygotował
kulturze
złu
papiery
Wrocławia
oddychać
Valen
bogów
wyko
instyn
wizji
skok
odkrył
pta
opiece
Generał
Decyzja
Dwu
##kum
zasiad
nazwisk
popełnił
podaw
dolinie
dziewczynie
technika
ubó
wujek
ciepl
zadeklar
konkursów
próbowali
Wayne
Julian
free
kultu
wychowy
portre
sand
pozd
siedzibie
nieunik
STAN
konte
mieszczą
praktyczne
Społecznego
żyjemy
kłamstwa
kryształ
Robisz
oświetlenia
Jazda
stanem
Aud
##czach
wyjaśniam
Wice
obronę
ustali
widoki
faktów
ścianę
spotykać
Gon
##58
warunek
czynnik
odwrot
pieniężnych
Band
uczestnictwa
##IB
konserwacji
Papier
przejdzie
kadłuba
Kin
Zem
Koleś
Głę
##sisty
Legen
hipo
weterynarii
Swi
##entacja
wdrożenie
wyspecjaliz
##very
Cooper
##stone
##cioł
##niar
międzynarodowy
istotną
jadalna
##dzoną
Osobi
akceptuje
Ec
Komuni
mechanizmów
##opa
##owisk
miejscowego
rolniczych
nakładów
##omienia
Położony
uczestnicy
najnowszej
Wycho
licząc
Znik
wzrok
niewielkiej
zasila
dodany
robotników
Brakuje
odbyć
potwierdzenia
kwas
wykonują
Cookies
##AG
wyobraź
Victoria
translator
prywatną
vo
##działy
aktywne
##cure
Anty
ulubiony
Bus
##kes
Wilnie
niewinny
Aqu
hipot
Handlu
przygotowuje
przekazu
zbierać
wygn
incyd
nietyp
masyw
Spen
Twoi
Sue
negocjacje
##lizację
czerwiec
polegać
Swoją
Popularne
##grzech
##des
##dorf
MW
musiałam
laboratoryj
Major
czują
##rana
opisać
matematyki
ujedno
świadczeniach
stawek
lokale
##łując
zmusić
laseczka
żądania
poślubił
posiadających
wygo
##czasz
zmywarka
drzwiach
podejrzanego
Biulety
cenne
Klienta
fan
Występuje
przyniosła
Wyświetl
##ierów
##ла
kolonii
wykorzystując
urzędy
Brit
kontrolowane
nade
zawód
##atura
telewizję
wprowadziła
fale
wap
##owoc
Krakowska
rak
typowe
dotychczasowe
pomyślał
Czekajcie
bramkę
Ciała
KU
makija
sądziłem
##zienia
zniszczenie
Morder
powołano
Blan
Ubierz
##ois
składał
##jak
regene
pomyłka
obowiązującym
śpiewać
##zował
ubra
Joy
tańczyć
rzucił
stając
##łał
##del
równa
Haj
pch
##ktuarium
pira
this
aneks
szczu
pragnienie
major
Przyjaciół
Lord
##lion
przedmie
finansową
posiadała
reżyserii
Skontaktuj
##kini
użytkownicy
Chopina
reakcja
Olim
Najwyższa
uprawiać
minera
najłatwiej
##limat
procedowania
charytatyw
ogromna
Colum
flu
instan
przyznano
kamienie
wprowadzona
uchwa
Bingo
ratowni
doszedł
##ská
próbowałem
##vić
##lara
kłamać
aplikacje
dziewczę
Clo
GD
480
wspomaga
Lock
staramy
utalent
wyglądała
znaczący
inspektor
odnotowano
##ującym
DJ
##manów
zakładzie
przedstawicielem
komendant
MINISTRA
wch
centrów
Lex
gliną
Dawno
wypożycz
grona
Chło
Catherine
Mona
Church
##anowie
Doprawdy
toalety
Down
Tempera
zlecone
reguluje
kradzież
##XX
nasy
##kot
##kowat
singel
Zanieczy
poprawnie
Tekst
rozważyć
Budapeszt
Moł
organizuje
##iagno
##fery
produkcie
##fikacje
Pali
##gowie
nadzorem
ustosunk
role
dokończyć
##pracować
życzeń
arku
pensjon
Sebastian
Nancy
##rowski
głosem
chęcią
##nictw
skrzyżowania
SW
plen
##onka
##odal
Republice
współpracowników
Wyszukaj
portów
łac
porady
przekonanie
drewniany
kopie
sform
Prote
długich
statystyczne
prototyp
należały
zgodą
Sieci
robili
Fire
czarnych
Równocześnie
duchem
drewniane
profesjonalnych
Nico
Niewiele
1890
Pierwotnie
kin
##ksie
##naryj
paster
Jani
spó
Sekretar
niekoniecznie
Rezerwuj
##itz
informacją
zachowały
historycznej
uniwersytecie
##znaw
rywa
niemiecka
Okazuje
pieszych
kapu
porozumieniu
zaawansowane
wytwarzania
Dróg
dupie
Benedy
gospody
##gers
Powiedzieli
towarzystwo
chirurgi
apartamentów
##klę
##głem
taśmy
Starszy
butelkę
świadectwo
odświe
pracownikiem
##słali
Spotkamy
akcesoria
##ologicznie
rzeźb
humoru
Pacj
sportowy
Koszty
półtora
wywoły
przeszkadzać
poczucia
działała
spostrze
stawów
Abraham
seniorów
kawaler
Usłu
male
podejść
miasteczka
Index
przekonaniu
towarzystwie
Węgrzech
konwencji
Słońce
komory
Państwowe
służących
uregulowaniu
wzniesiono
##syl
piask
centymet
przys
substancje
skoncentr
pojechał
##rówki
Odpowiedzial
GR
Who
##słucha
praktykę
Enterprise
##ус
martwię
perfek
1899
wystąpieniu
algorytm
Myśle
mechanizmy
##vas
Mówiłaś
261
Socie
##cess
zdrowy
Jesse
artyleryj
##gina
listu
Adobe
zarobki
siar
chór
rozważa
pytaniem
Słysze
prestiż
adi
Broń
mniejszym
zatrzymał
udu
##orzeń
Stać
Force
przemyśl
SH
opieka
pokryte
przemi
zdem
Najlepiej
wewnętrzny
aspekt
Machine
##ен
pomożesz
Klienci
##poracji
włoskiego
konfiguracji
usił
##plan
Postanowi
poglądów
Bałty
przeciwników
Zrobiłeś
bitwa
wybi
miałoby
zaczną
przejęcia
rolnej
patrzysz
imiona
Foreign
zadział
używanych
serial
księdza
Dostępność
zgar
Sobie
Skur
wydzie
żywy
Odsuń
210
udokument
Sanitar
bag
Pawł
Daniela
##anckich
##łaj
kość
kota
##areszcie
szalone
##kanoc
1896
koncepcja
Fri
wydawania
spotkała
Wyższego
obciąganie
dziwa
indywidualnym
Solidarności
pości
dojrze
Lincol
kręgosłu
gadasz
Terytorialnego
syl
##ör
##andy
##andal
naukowego
Witajcie
swobodnie
##tacyjne
penetra
##czcie
mecenas
ROZ
odbywać
Dana
##cjonalnie
biegną
nieprzyjem
Biblioteka
##ronów
zachowaniu
##ściami
##conego
##mes
doprowadz
##asie
##kładać
wróciłem
ceremonii
akwar
badaniu
Frontu
Dec
##łk
##orzec
##see
otwartych
##szczaj
oszal
##armu
realne
wibra
Lib
pozwoliło
cechą
##kony
##Na
synowie
##sunek
metodę
szlaf
##nina
##łują
podobnym
Wzrost
##ręt
Multi
adekwat
procesem
kapitanem
rozkazu
uzasadnieniu
przydzielony
odłą
##dalem
koloni
kredytowe
naszy
francuskie
rowerów
świątynia
zginęła
Siły
Chcielibyśmy
Cir
starania
kroni
okolicznych
przetwarzanie
posiłki
przeniesienia
spu
Budow
wit
Boży
edukacja
powszechnego
Żona
stwierdzam
powiązanych
Zero
##orek
Sła
czarną
Merced
oznaczało
nierdze
Nate
sprawozdań
nieskończ
celowej
Znajdziemy
kawiarni
powstać
misjon
przesłuchania
poważnych
Osoba
Mill
wywodzą
certyfikat
Gówno
Barbie
Mieć
rozpoznania
próbowała
Białego
aczkolwiek
##hm
określona
prowadzeniu
kierunków
##rysdy
zabronione
pszcz
##bią
pojawiło
Uprzej
związaną
obserwat
bułgar
Silver
zaczynam
usi
Zdrowie
świeżym
##funk
któryś
Juan
Adrian
##figur
kobiecie
maksymalna
wskaźniki
##itów
##ENT
sumienia
menedż
Krew
kryminal
randka
moczu
##ques
Strasznie
dostosować
ufam
Hitler
wydawane
herbatę
zajmujących
Zgromadzenie
##mińsko
ilustra
Pres
myślicie
260
DZ
Hip
gwi
##MC
parą
gospodarka
Avenue
##cowy
straciłem
##okrew
284
rzekę
niewielu
rozumiemy
Wą
Połóż
respon
Krajowych
##kobier
##publik
123
Trafi
Płat
##koł
jakoby
alb
wtry
kościołów
##ANS
narciarski
##cykl
Krajowa
##ROW
bokser
##had
waria
cych
popły
Zastęp
pokrzyw
Square
##osła
serb
##ERW
Wirtualna
##Re
##nerów
potrafił
katolickiego
##nom
##miej
##żając
##bout
powinniście
zginęli
drewniana
##letniego
oryginalne
HOT
wyjdę
Steven
niewielkim
Stosunek
wyznania
dodatków
Bag
Maks
natę
poznania
##idy
##dia
##zeł
skup
poruszać
zasadniczo
edukację
##onic
wystawia
przygotowana
Sho
przybycie
##tujący
wszelką
wzrostem
wyrażenie
administracyjnie
junior
surowców
##ortyment
Dokument
wymagających
malware
wypa
##glomera
Apostol
duchy
zawieszenia
zemsty
##omię
Spędzi
Manh
Newsletter
Wybra
Sposób
Głowa
nai
##ralnym
umieszcza
Lizb
##ré
##mysł
uplas
##mierze
boczne
stanow
##lądowej
przygody
autonomi
dochodu
##fikuje
robiłeś
##rett
pogodzić
Bydgoszcz
##dasz
##mund
wystawa
teatr
Członkowie
##biega
mobi
wyszukać
##ely
zaoferować
Zbiera
##ległej
zeszłej
weter
kobietami
tworzyw
zabrz
zdrowe
puchar
domowego
ogrodu
tablicy
Codziennie
marzenie
wrogiem
Kulki
zarejestrowany
awarii
##rany
##uston
zwykłe
urządzeniu
żołnierza
Konferencja
zamienić
pierwsi
Shar
Itali
##lińskiego
człowiekowi
włączone
tkwi
dzw
używał
bonus
informacyjnej
##sela
lądowania
Nord
fli
Bolesław
dezydera
##wce
pokaże
transporcie
Akademia
AZ
##vet
sprzy
relacja
mieszkają
Apol
ło
Nik
emigracji
Turystyki
##czynienia
podwójna
Zbior
uwiel
poeta
maksymalną
poddana
ulec
##zł
maksymalnej
kredytowej
wymiarach
całodob
kolejowy
miejskiego
zabytki
wiad
Sally
czekolad
##binie
kierunki
trasa
całkowitą
minimalnych
Solidarność
młodszy
wykazu
studenci
BP
##otto
cmentarza
starszym
redakcji
Sztuka
Piękna
delikatnie
kampania
Odpowiedz
przystojny
##wką
amatorskie
Chrześcija
##TC
Aktualizacja
autorytet
limitu
##FC
##niliśmy
przystanek
zaniedb
str
##kredy
widoku
powrot
##nowych
ministerstwie
mieszkam
szerokim
wystartował
Walenty
założeniu
Wawrzy
##blą
regulacja
oddych
##df
trum
Stanowi
porażki
komentarzy
wieloletni
PrestaShop
Bow
##kałam
napięcie
Świetny
Tajem
##ombard
Zer
połączonych
niesamowity
warszawskim
znajomego
przywódcy
Cross
Przynieś
ekonomicznej
zadecyd
występujących
Robimy
garażu
nies
##ensa
postacie
fr
##kcyjne
doskonałym
Egipcie
beton
posłem
pęk
skłoni
bieżącego
uderzenie
odwagę
posiłek
pokoleń
postawy
pojemność
##zywanie
##onemu
eliminacji
wojewody
##56
zdrowiu
dzięk
rosyjskie
##karze
Katie
odporność
wifi
języki
Gdybyśmy
wrażenia
dana
gorz
rozpoczyn
kontrower
Ograni
niec
##ffy
Stadion
af
wybierać
kółko
##ownię
stolicą
amerykańska
Carm
hos
##rome
Orle
##częst
przekazany
Poprzednio
##mujących
##wionych
##rując
wojewoda
##jewski
martwa
niedorze
##szość
##stre
kumpel
blog
##opomor
umrę
Lekarze
mienia
Poży
uderzyć
kuta
zagrożeniem
wisi
otwórz
##vices
klasztorze
tatę
bier
Reli
##tajem
##uld
zaproponować
gazów
Bożym
upływie
dożywo
elementu
satelitarna
kredytu
KS
niejas
##wiska
Mianowicie
Ea
##wab
##system
March
mA
historyk
##fic
ep
rozstrzygnięcia
ofensy
babci
Isabel
MD
##cowa
##sse
niesie
Rezerw
twórcy
mądrości
Gio
##łaut
##lands
tal
##owate
##yton
sędziowie
Om
przyjęliśmy
Greg
witaminy
zabawę
Vil
polityczna
Polish
pamiątk
zdomin
kurczaka
Mię
Świetna
wiersz
Sowie
##obior
pacjenci
płod
##fem
Marco
umowie
bzdury
##POL
##atyczny
migra
Podejdź
urze
Narodzenia
jurysdy
niepodległość
brała
końcowej
##vat
Frances
zabawny
kradzieży
prasie
troszeczkę
spełnienia
nakry
rachunki
Lyn
dałeś
ledwo
##ão
dzisiejsze
godność
oświatowe
tańczy
klucza
ekspans
zapłaci
wrac
ASF
Likwida
Wyluzuj
polityką
treścią
tygodniach
ABW
Katy
Tuż
znajdziecie
##życiel
Pisma
Nauczyciel
anti
jasny
##wiński
zdarzy
wykłady
dbać
Mala
należące
dźwięki
ujem
latać
intui
Zasługi
czynić
ojc
Szybkie
Wój
zakop
Mówiła
Vista
##czana
##andarm
zabrali
arcybiskup
psze
##ige
##ер
wyjdziesz
uwzględnienie
Bis
odpoczynku
nielegalne
podmiotami
zachowaniem
procedurę
cyfrowych
precyzyjnie
Mojżesz
grania
Przekaż
Rena
kompozycji
Litwy
sprowadzić
Gó
##ор
niebieskie
MON
młodą
##edwie
dalszy
nieprzerw
##osto
potrzebowała
rzecznik
Nazwisko
kolejowe
przesłanki
PM2
##czerp
regionach
Pacyfi
pozytywny
podejrzanych
Jerozolimy
sprawuje
awansowany
zwykłych
doni
##xon
świetną
piłka
Pozy
##wel
Front
Uśmie
analog
przestrzennego
Najświętszej
CP
przeszcze
skały
widzicie
taniej
krytyków
Caroline
Pró
##rósł
##cts
aktach
hokej
##tis
Prawdę
perku
skarbowej
regulami
wciel
##stad
postępu
zewnętrznej
dinoza
skoku
Katarzyny
pociągi
Lucas
Szukamy
Próbowałam
wokal
byłym
klimatyzowane
bydgo
zmodyfik
bierzesz
Zależy
Seminarium
precyz
Łatwo
Hurt
##jka
studiu
egzekw
MR
Polsko
instrukcji
Morris
TH
##NI
sprzą
##aryn
próbujesz
bomba
poszukać
aparatu
grane
##żyło
pochodzący
wykształcenia
FI
Szat
wady
Hod
myślałeś
lewym
Drop
grą
nia
wspierania
Wyłącz
##ienne
konfron
doprowadziła
nakazał
lw
działające
##targ
wygła
Kolegium
##tim
##ższy
Komor
podobało
gabinecie
Porząd
naturze
wybierasz
wróć
jezu
##ordyn
zawarty
suweren
##ierda
kuchenna
##ITA
Gratuluję
Sat
podod
sprzeczne
rządowym
niedost
ozdobi
trudnej
zabezpieczyć
hiszpańskim
wyrzucić
##lex
skrót
tejże
Detektyw
##strzę
objęcie
przeciwlotni
niskim
HR
światu
113
wspaniałym
drobnych
wodach
##cara
wariat
państwami
Wracam
wyrów
zawarł
poker
operator
Czechy
wodnego
uruchomienie
dostawę
domyślić
Vince
ewolucji
łup
##wycię
Ręka
Person
gotowania
##miała
żyła
odpowiedzią
rozpoczęli
jednoosob
Sii
##wością
zesł
klientem
Oświęci
dzielą
powia
Otto
tabletki
Wiedziałeś
szyfr
najwyższych
przychodzić
Zabierzcie
uruchamiania
HOTEL
omów
##ARD
gniazda
roszczenia
wikar
dotyczyło
Nosi
stołe
targach
##ningra
cur
czerwonych
Uważamy
##ózł
wek
utworzony
powtórzy
Zmar
##budowa
zaliczył
Tworzy
##EGO
sztand
rozprawy
Wiej
Waszyngtonie
zmierzyć
dochodzenie
żywych
Dałem
wpływają
dostrzec
Gaw
##zzi
Skrzy
nadzieja
windą
obawiam
Galicji
Kid
Usły
Rano
##alda
Madryt
telefoniczne
przeważa
##wei
umieści
Dysku
Trybu
sferze
##etka
##oficer
Kongresu
##zdrowie
hiper
niewidzial
sierpień
Uprzejmie
##prawne
##szczony
spełniać
Palestyny
Korzyst
obrzę
korona
##OWA
zlecenia
smar
krokiem
prośba
zgłoszenie
Odrodzenia
Spodzie
Gotowa
zarejestrowanych
zastanawiasz
pielęgniarki
Global
smutne
przejażd
hoj
1577
marzeń
kulin
aktywnych
fotografia
wybudowany
##kuli
Iv
wpłynęło
angielsko
forsę
przestrzegania
tunelu
zaleca
poważnego
produkcyjnych
płatne
parlamencie
Obudź
##rari
Wyna
zaopatrzenia
bani
aptek
gimnazjów
dno
Williama
##wnych
niesta
##cey
Orkie
ładowania
Michelle
Jennifer
stałą
Birkenau
##wirus
przybycia
łamach
##stwami
Zejdź
Winda
formatach
##feld
##wiadu
odmian
biega
specjalistyczne
Sophie
więzienie
akces
Habs
przedstawiono
kierowania
gubernatora
pocisk
pańskiej
prezydium
komórkę
szczepion
dowodzenia
Acad
Niger
bombę
wniesi
Europejskim
koncertu
Maryja
Angielski
Ner
##szna
szpi
opa
##EF
podstęp
Impre
rekonstru
bezużyte
Rid
Alber
wykorzystywać
abstra
hrabiego
Zanieczyszczenie
szki
najnowo
##szające
Władze
sukienka
określił
Następne
adwokat
pierwsz
Place
Pięknych
budu
określono
Faza
infrastrukturę
każe
impul
podstawowego
scena
Profesor
baweł
jedziesz
corocznie
prawdopodobieństwo
całych
kieł
ludzką
twierdził
Stał
prioryte
Wrest
arenie
efektywność
Zag
##dukacja
generator
wyższą
##niejszymi
zastrzeżeń
tysiąca
Golden
kotku
przywódców
Najstar
udzielić
##wkę
organizmie
rozegr
skończę
rezultatów
##anga
Operacyjnego
zaskaku
zaprosił
zależało
Wasze
biznesie
wyśmie
barier
Zawi
działaniem
dziękujemy
przypomin
podwodnych
kongre
dyskutować
##atywnie
dyscypliny
narciarskich
wach
konstrukcję
Wskazówka
HP
Domy
aresztować
##pływem
Judy
zdarzają
nadejdzie
uczeń
lekkie
Wilhelma
Ay
##tacyjnych
Mir
Szkolenia
##ścią
Główną
odwołać
Ką
Oszal
rozłą
##tari
ręku
gospodarczym
zrem
wizyt
papierów
chemii
miejscowej
światowych
uznano
pomieszczeniach
spoczywa
anal
home
głąb
sejmowej
Zwari
##tywne
pytaniami
trzymasz
##bolu
wygranej
okazały
elimin
Uważasz
wydawał
obiecu
blachy
##54
##niaka
trzeź
gospodarstwie
młodej
Dick
Chodziło
ciekawy
PPS
weźmiemy
font
Radziwił
prognoza
bilans
Glas
dez
naślad
marszałku
sąsiedni
service
Euge
Aer
spokrew
następną
Mistrzostwach
rękopis
117
odwrotnie
##rin
wysied
publikacje
Metropoli
##zię
Leg
traktatu
jabł
zalecenia
elektrow
niezależnych
Manchester
Doma
autom
pęt
Minne
Virgi
klasyczne
lampy
Manhatt
##towanie
Trójcy
##ME
zapamięt
Sprawdzę
##walny
Russell
Boj
odsu
##urs
Szkol
jednostką
efektu
wszechstron
Wyszukiwarka
Ponownie
Strzelanki
pomieszczeniu
zastanawiam
usługa
protokół
nienawidzi
Randy
Ogro
wstać
wyjściu
modernizację
wyrze
Comm
dupku
Petersburgu
Regionalnego
przyjemne
spokojnej
odpowiadał
doradztwa
rozbie
chodzą
torbę
przewodnik
zeznań
##oza
##wido
dotyka
daję
rzuca
brzeg
State
koresponden
##ule
sprzedaje
##manem
podwójny
Pm
##Edukacja
Amerykanów
przebi
wojsku
spadkobier
Kancelaria
zdiagno
operatorów
Rebec
hybry
Anthony
Mariusz
teleinform
zgwał
fizycznie
ogrodni
ścianach
ptaka
Symbol
Zarządzania
nadano
##87
zaprzyja
Anioł
licznymi
istniejące
zapłacił
redaktorem
miesięcznie
wkurza
płytki
Filozo
Zapomniałem
okropnie
opracował
linki
wybrano
kierunkach
##zerou
Faktycznie
##iner
##81
parze
Jizerou
przydatne
Belgia
letnia
Jamie
Pala
zauważyłem
spokojny
fair
##manna
Studen
##izol
palenie
Wszechś
##ní
marsz
Księżni
##petycje
Szkół
Marc
ustroj
Rosyjskiego
ekskluzy
Bracie
Raw
Zmu
##TU
rekor
ścieków
terapeuty
kład
czarn
bat
odkrycia
Spę
musiałeś
Dublin
DD
skurwy
pięknych
wyświetleń
Ładnie
przyznaje
Pięknie
##ące
filmowy
Willa
Bai
Dyrektora
bogata
will
istotnym
ciasteczka
##añ
odli
kombin
##ratorzy
zatrzymy
Tren
##hra
Mapy
muzycznej
międzywojennym
##GW
ukraść
czynnikiem
Ricky
zbioru
##alnik
Rab
Garden
letniej
kuzyn
dub
środowiskowych
Jeremy
Petera
Classic
oty
zainspir
Cyfr
terminy
Komendy
##czaniem
End
myszy
komisję
wpisać
prowadzącego
redaktor
królewskiej
utrwa
kami
zarod
pograni
goli
poprawa
glu
przypisy
##rica
koper
Starym
Mieszkańcy
wszystkieEdukacja
##entami
widy
matury
Laure
lekce
nawiązuje
hałasu
##fina
Zatrzym
Włą
##84
Szpital
oddam
kamerę
Ruchy
korepetytorem
Egipt
umiesz
podporu
Malcol
liczył
orgazm
wierzchoł
Oł
##arzę
Komen
ramiona
zamro
usłyszę
krzywdy
Wody
zalety
biskupów
##pest
wprowadzać
samotny
japoński
zdobycie
Gabi
KNF
ośrodku
niesamowicie
Kaj
##czały
srebra
należący
Popra
ruchom
subtel
koniecznością
dziury
Kijowie
pomiarów
naukowym
lepszej
aspektów
dziewcząt
gronie
byle
gotowości
formularza
row
ryzykow
aro
wyznaczony
Byt
wstecz
##niowy
wieczne
czyny
##alizacji
zwroty
obowiązują
salonie
spotkali
pokrycie
YouTube
Kwat
produkuje
zidentyfikować
Dostar
notatki
zniszczeniu
katolicki
ugrupowania
odnalaz
płakać
ekonomii
Wątpię
Fortu
zeb
##lizny
Smart
##rową
nadaj
##cinek
Musze
używanie
czarnego
zagraża
Recenzje
rzadziej
wydziale
Księstwa
Gotowi
Miast
Ofia
Cudownie
zejść
lody
listów
kieli
stworzone
Mun
szkolni
rozgrywa
HTML
##okładniej
Będąc
mniejszej
pism
branż
Mąd
zużycie
##onera
produkcją
rozko
włączając
##cany
wzorem
rodzicom
aktualizacja
gazet
##RET
masie
polsku
##rusz
kombinacji
##wiazdkowy
rygo
dusze
wzroku
Sele
##sista
##cul
otworz
dystrybut
##porty
ukazuje
panuje
Warszt
zrealizowany
Dziesięć
##ev
Wyzwo
senior
pracownikami
zostawię
Iw
prostej
zabezpieczone
##nix
przero
badawcze
międzynarodową
obowiązującymi
ustanowienia
pensjonat
1800
kierowane
Hugh
Póki
jut
wolfra
Matko
wersją
Doro
wywodzi
Hitlera
szczątki
zombie
zacie
odkryto
obawia
szpieg
##oder
##zująca
zestrze
Indon
oficjalnych
szwad
Wesołych
Uf
samolub
Usuń
agentem
zapomniał
Osią
jeżd
zgrup
Hat
##niczo
Oddy
żyjących
debat
blisk
pozwoliła
zabiegów
##lins
torby
Wstęp
##opi
zdecydowała
1894
Gordon
szerokiej
##eria
rynki
bezpłatnym
Claims
##Klimat
nazwany
podchodzi
Przet
##rix
gorące
Kategorie
wspólna
zabezpieczeń
##fonii
Białymstoku
niewielkich
Toy
zobaczmy
Jedyną
Gie
Zamierza
buk
##dag
styli
Bitwa
##side
etc
Poprzedni
Boś
##KlimatMeteorologia
Sach
Napraw
umożliwi
chciałaby
wło
jądra
ie
##arskie
wysta
##dai
##kówka
postępy
zrujn
##zka
##entel
idea
wspomnień
Serce
##cast
dziełem
krety
kręci
solid
wał
back
plemienia
##prowi
Elżbiety
roczne
niezapom
zostawiła
Security
prośby
udziale
##gałem
doli
Jasna
Chłopcy
Ein
##city
zanieczyszczeń
tota
##zionych
szybkość
skala
##uti
Ocean
Śląskiego
podręczniki
Ły
energetyczne
otworzysz
pojm
Arthur
Szkołę
Hale
##łym
##kujące
odsłonię
wgląd
zaży
progu
zgromadzenie
lar
##BR
przewozu
Sprzedaż
Zaczynam
legislacyjne
Ustawodaw
baseb
Zakładam
legendar
gdań
##lab
sprawności
Komisją
Add
regionalne
samochodowe
##sera
##urce
##kowskim
muzyków
Broad
autobusem
słabości
rozpatrywania
Pańskiego
ekspedy
mordercą
##gow
##przód
ogrodowe
POLSKA
Ogląd
ciszy
Szery
Cale
Oz
Prosze
świetnym
##łeć
##dztwo
przemoc
Samsung
Dire
Trum
jedności
budowania
etacie
dworu
rozmiarach
ścieżkę
kompromi
Oryginal
Ima
pożaru
rozdzielczości
aluminium
##biony
Zarządzanie
przejdź
Szkolenie
Materiały
Card
##lecki
Pok
pakietów
AV
pą
##skrze
Dylan
wczesnych
poselskiego
przyjedzie
Little
##ździ
Radzieckiego
Skontaktować
pogot
niepełnosprawności
Ekstra
zgłoszonych
opakowania
azjaty
Gward
Powtarzam
wyniesie
albowiem
chwa
##anię
niepowtarz
Wynika
komunist
mebli
kluczem
##festa
Miss
wybu
Siem
apostol
przełam
Chemi
zimą
wysiłek
AQI
Agu
##gini
##rowskiego
José
tematyce
nowelizacja
Carla
order
obywatela
Analiz
ogłosiła
nieświad
wyrażenia
mieszkasz
Spring
zawodową
obsłudze
zadowoleni
Nagrodę
ustalone
rozpoznać
sar
środkowo
##liwością
osobowość
żywot
plec
##yle
istniały
darowi
obowiązującego
dorobku
ste
biznesowe
##regular
sportów
Union
##mawiał
hiszpańskiego
kancelaria
szlag
##ląt
obraca
zastępczej
plecami
zniknęła
mier
wojennej
hierarch
ate
##ńcem
Wycof
pilotów
niebezpiecznych
Mieczysław
upadek
1888
bielizna
kowbo
policz
rozmiary
niezwłocznie
##ika
muzyce
dotyczyła
demografi
renesans
dostałam
portret
wściekły
przeczucie
umiejsc
##ołach
rozciąg
whis
##tul
jacy
modlić
Institute
chleba
Ric
osada
grach
braćmi
napot
dowolnej
##fów
obrót
inwestor
przynę
Królowej
funkcją
rozwiązaniu
##czniem
kategorie
zgodny
Wchodzi
grający
Gospodarstwa
odcinkach
kpt
Miejskiej
Delhi
##skry
Kosmi
Tex
metro
Wiosną
wszechświat
Pul
##szane
silnym
wezwać
klatce
ciężarówki
lojalności
##EP
węzła
muzułma
Konsu
legendy
hindu
szamp
panny
przebojów
wci
wyłoni
Johan
ukrywać
Moderni
unieważ
przegrywając
szybkości
podłogi
obrady
kolorach
domku
kondygna
##gital
jubile
Raym
autorzy
Kamie
zawodnicy
sztuczne
suma
Dialogu
##żliwy
Karkono
dramat
Rozpoczę
przyszłaś
Polonia
traktat
sumy
spódni
Gat
PN
sprzedawać
brzmienia
##ENIE
chmury
bydła
sejmi
Chmie
zdał
najlepszymi
##minali
postulaty
rozegran
notat
przechodzić
Piękny
Iron
astron
##łość
strategia
##jki
##nickiego
przetest
najd
oznaczenie
Królowa
ostrożnie
fascynu
Summer
pisarza
##torami
pracując
złożona
380
##szonym
##akować
##bacie
zwanych
czterema
instytucjach
powiązania
znalezienia
##zacyjne
Stephen
któregoś
krajami
szuf
twierdzy
Curt
##wagi
Zaawans
FS
psu
Miejmy
chłopaków
##akami
Marcus
Sieć
przegranym
tunel
znajdź
szabl
Słyszałaś
nastolatki
dachem
##ówce
podusz
możliw
Franka
ustawowych
chciały
ludzki
cofnąć
wynajęty
##puls
działając
bliski
##nig
wizję
Tyler
wynagra
##diece
udzielił
wracamy
Hend
dorę
przedwojen
Egzamin
Diam
Oświad
Palace
##angh
kwasu
spisu
zachęca
Wall
odmówić
dowolny
najnowocześniej
##rence
##worth
stanowili
kwartał
popi
obronił
Wnę
warta
470
dokonywania
stworzona
naprzeciwko
podpisania
refundacji
Melbourne
moce
przysp
szanow
dowiem
przewle
mf
##orf
##ODO
przetarg
zużycia
USS
Znajdę
innowacji
kura
Mogłabyś
słowia
zadzi
radzieckich
istota
kliknięcie
Izraelu
równoważ
##fru
pośrodku
masak
hmm
miedzy
Zachę
zapytał
dostaniemy
Bezpieczeństwo
granat
Pospiesz
czułam
Ostatnim
LP
wnik
##szyli
dostałeś
More
wpłynie
skrzydło
doz
##dura
Spróbuję
twórczość
Telewiz
Metoda
##stykę
tradycja
nominację
##naugu
pery
kolon
życz
włoskiej
chiński
zarzut
##amerykań
Washington
Ocze
ultra
całkowite
4000
ojczyzny
Word
pracowałem
##hof
administracyjnej
Holi
##śń
pomogła
Lewis
transmis
##gus
środkiem
pozbawiony
Cry
stol
grobu
Pracuj
przypadkowo
opisany
wyjątkowa
Korzystając
##ener
##zumienia
tatuś
Wery
##tec
Panem
działka
inicjatyw
##ortów
długiej
sympat
Kuchnia
opada
##obieństwa
Gear
krótką
otrzymają
116
waha
pływa
operacyjny
łazienkę
##iser
Wido
pomówić
Seattle
##vens
naszemu
niepożąd
Facebo
biżuter
##wcza
orygin
wyborczej
Ogólnokształcą
CM
mniejszą
starożytnych
PF
##mad
rzeczami
małżeństwem
Umowy
egzoty
Wycie
wróciłeś
Doświad
spór
Tydzień
##ominal
ludzkość
Prąd
##ECZ
zwykłym
Gubern
##łęd
##żur
##głego
Słone
gwarancja
singiel
##DL
##vard
przyg
##nowski
zalicza
telewizyjny
najsil
pogrą
czyszczenia
dziadka
Największe
martwych
czystej
Wyzna
cierpienie
epiz
goni
przeprowadzona
Ball
fru
prymi
wrześni
Hiszpa
Sid
autobusów
pobud
nieto
##rycznych
##orzęd
Angela
zbudował
mad
##leć
##ełko
górskich
##ui
oficjalnym
księżyc
odbudowy
uzbrojenie
piast
##rzeniem
##ądach
miałabym
SN
Sony
##zowana
internetowym
polskimi
Kenne
tylnej
rękami
intensywnie
podwie
przyznania
Kontrola
włókien
Damy
Zostałem
Opol
aplikacja
wywołuje
ryzykować
warsztatów
##owro
##żąc
chrześcijańskiej
Gość
##remont
Piękne
Project
delegacji
Podatek
Wia
Tabela
##ńskiemu
Brazylia
zarejestrować
prawników
Słyszę
propagan
##Dokładniej
podziale
kasz
osiągnięć
całkowitego
korepetytoremDokładniej
kwiecień
teologii
##szczania
##sena
##nosc
zadbać
maszynę
koncepcję
Pacyfiku
Hom
przeznaczono
wystarczające
##richa
energetycznego
cień
czytaniu
1893
przekony
##mić
dwunastu
przewidzieć
##gner
podobno
kuchenny
Rzeszowie
podejmie
białej
Powinno
ph
Navigation
piz
##stanów
##entacją
auton
jesieni
obrońcy
rzekom
Gray
Morzu
Centralnej
rządzi
Awards
127
Zdra
instrukcje
starszeństwem
przysługi
wchodził
ostrzec
czyje
Widzi
lotach
Gram
czarowni
##nęłaś
habilit
pomp
##ził
mocniej
wykazują
##lismy
pożegnać
##twą
troche
KRS
synchroni
zewnętrznego
konspira
będącej
komputery
1863
Zwracam
Ogólnopol
chan
komunikację
zastrzy
Opolu
uważane
Domek
Parlament
warszawskiej
producenci
przekrę
jezior
Puszczy
##głośnie
niezwykłe
Powoli
124
płacze
doko
Leczenie
Matematy
służba
zagłady
uczestniczyli
rezydencji
centralnym
##GO
##odia
radiowych
##dzających
Woły
Hos
cało
##arskich
religia
brzucha
Zostanie
piątej
##wła
zezwolenie
podyplom
Association
Gwi
wpłynąć
całkowita
przyjrzeć
##cic
##skowy
piąty
sok
widnie
##chodzenie
wspomniałem
pożyczyć
Turystyka
nazywamy
Walker
1892
Alexander
luź
mari
kwatera
renowa
Dynami
zamknięcia
Przepis
Systemy
wykonanych
Western
zmierzające
blokady
##spera
Odda
wzru
inteligen
Rome
Song
##gramów
ukończyła
Sla
##ńczenie
Teresa
Zabiłeś
oczekiwań
obszarem
pomieścić
dekre
terminów
Hora
##tce
płacz
054
odwrócić
odbiór
zajebi
ziom
Pomiędzy
Anal
cieszą
##cken
Houston
Czechosłowacji
##iK
nabycia
Motor
chwały
Point
okra
Osób
Queen
Szkolnictwa
humanitar
Maszyny
remontu
udogodnienia
własnymi
Umożli
##towym
Cisza
Mongo
utworzone
serwisów
kontrolu
połączeniem
wykorzystał
Kościuszki
Gus
młodszych
automatyczne
McK
Grant
Settlement
##mianie
Bara
rzekomo
noclegi
zapasy
kościołem
realizowana
sztab
tajemnicę
planetę
##uda
jajka
zaost
##sive
Chel
zmoderni
oddano
targów
osobników
Sound
##zowanych
mięs
Generalny
Drużyna
gałęzi
Jin
Boisz
Podpisz
Złoty
meteor
Ful
nacjonali
prawdziwie
Camer
Bolesława
Jesienią
##lery
##opty
zgonu
projektowanej
Domyśl
alkoholi
czekam
Nikomu
122
ważność
platformie
egzemplar
definiu
pomysłu
przyjęli
normalny
EL
##yo
komisarz
portfel
Analy
blondynka
szum
stowarzyszenie
Utwór
prawnie
Konferencji
zwłok
Mk
dna
urbani
Nep
pieprzony
iPhone
wyco
wodny
Malarstwo
ubranie
liz
##DK
przeszuk
##lanty
Ellen
specjalistycznych
Eur
vs
##lerem
Wyłą
spadochron
##zdach
##ontani
ukrytych
Zmień
Fat
Rosyjskiej
Nowi
##iła
Wesp
sznur
##etti
Komisje
usługę
Katalog
panel
Wiek
##arzone
Wysokie
nowoczesnej
Donna
tane
##orodzi
mielibyśmy
morderca
Budże
oświatowych
Laboratorium
Żyw
studium
Partnerzy
Temperatura
##oło
##lag
##dena
wywołać
schodami
bê
oddzwoni
działaniami
280
Internetowy
biurku
Poczu
##aux
uratował
uzupełnienia
##godzi
dostawa
##sole
zaczniesz
napły
##leng
powoła
Angli
statystyk
warsztat
odpowiedzia
##stycznymi
odwoły
Młody
Włącz
oczywist
słuszne
Programy
inicjatywę
sumę
Osiem
##gając
##głe
żyli
##nowskiego
bibliotece
##Score
pren
##zaj
półwy
ciężka
wis
##nianiu
podpuł
oknie
zagubi
zakończyły
Jugosławii
##wetki
nauczanie
napisała
ustanowił
wskazówek
prawidłowego
dodatkowej
Wasz
poprawi
poradni
Duża
Odes
skorzysta
cierpię
inwazji
nienor
obojęt
zapoznania
wprowadzeniem
Pałacu
Golf
##iki
pierwotnego
oszuki
Jess
specjalista
Mateusza
Owo
dopuścić
piszą
131
wychodzę
wydajnością
chemiczne
Przypuszczam
##onda
##bione
##ryk
Koncep
osobowy
##platz
##lington
Badanie
strategicznych
monitoring
##lity
plaże
fabryka
hebraj
kaplica
relaksu
nazywana
ogromnym
paszport
##iT
najtru
Office
Niko
typem
zaopie
obyczaj
spółką
asystentem
Uzna
upod
formuł
głupo
##nity
##jają
##cking
Puła
najważniejszym
przemysłowej
inicjatywa
Irlandia
Temat
Abu
rozsi
samolocie
emerytalnego
dystan
wolną
platforma
##83
naje
##wicach
panowanie
niezad
zbawienia
##miar
Międzynarodowe
porozmawiamy
##geni
pozwoliłoby
zorganizowane
tv
##oraz
obniżenia
spręży
Nin
##OB
wycię
sąsia
##padł
Dosy
słody
ciążę
##czkiem
morskiego
zgłaszać
osobno
zalecamy
wyruszył
Kurs
folder
zniszczona
błyskawi
podano
więzien
nurkowe
bojowych
postawowa
time
##stic
zata
Instru
cudowny
Cass
padł
Zaję
synowi
Turniej
horm
##RY
przerwać
Jakości
Prasa
uczestnik
recenzję
strzały
##over
##nerze
dostawca
##eksie
kosza
Ewangel
zaa
okay
Areszt
uległy
drapież
przygotowaniu
wątpię
mianował
wyprodu
zawarcie
Pix
zabezpiecza
hobby
atmosfera
Field
##szyły
obc
obserwuje
przyjmować
zaburzeń
##nóż
##waz
tworzony
##ierżaw
maci
kolekcjon
wezwaniem
Niepodległości
wyślij
sporu
wiecznego
Ministerstwem
naukową
ścigania
nowojor
Rou
technicznym
zniszczył
szczegó
1889
Chrystusie
Kawaler
boisko
skarbu
##nokwa
##dation
Zamoy
Mołda
##kers
wzmian
gospodarkę
sportowej
##goty
zabiegu
malarstwa
Mobil
wedle
wypowiad
Najszyb
obietni
lepszych
152
##giego
będąca
obiecał
krzyczeć
Zrobisz
Publicznej
rekomendacji
##tujcie
najdłuż
apety
wojenne
Ogólnie
konklu
zaniech
normalna
argumentów
Nagroda
Bund
populary
Mistrza
niezła
Dokon
zalogować
ve
##UB
dziurę
klientami
województwo
spotykamy
Under
wyniosły
sporów
jeziorem
Christop
stadionie
biało
dodanie
zauważa
przeprowadzania
##mark
mięśnie
IPN
transferu
zdobędzie
##gun
##ев
przekształcenia
kelner
niższych
spotkało
specjalna
Kni
Mai
komunikat
Rut
swoist
##óżek
##bołów
##kownik
sprawnie
kapel
logiczne
powiatów
prognozyKlimatMeteorologia
czasopism
Krem
##lowa
dowiedziałem
zasięgiem
śnieg
Harm
##fę
brali
operacyjnej
kW
##żyłeś
uzdrowis
marzec
Obowią
kilkaset
obowiązkowe
Atlanty
śmia
pojedynczych
weszli
Prim
uprzy
Translat
Wodnej
Zauwa
przeniosła
##szycie
gospodarstwo
zagrożone
codziennego
Grzy
prę
Sporo
Polonii
Któr
czołowych
nagrał
##atybil
##róbujmy
Opa
arom
zniesi
132
##kara
Mars
Teatrze
##EW
rządem
kochan
spekt
Budapest
makro
stabilności
mieszkaniowych
odwiedzających
uczestniczą
dotknąć
posterunek
dwoj
przykładu
Ćwi
wrócili
Akcesoria
odzyskania
wędkarski
##vad
eks
modlitwę
Lauren
##waje
szanta
##beta
niekomp
rodzim
wypoczynek
Rozwiązanie
##Station
Bernard
##zki
jednostce
Obsługi
Filadel
umieszczona
udostępniania
Hannah
oh
Ża
##pożar
konfedera
Mobile
sięgają
przeszły
jednostkami
##rzędne
ludzka
pojedynek
HMS
korporacji
spaceru
policjanta
Smu
wynosić
Hero
łóżkiem
PZPR
londy
dochodzą
skoczni
ogólno
##ACH
śpiew
napojów
Jezioro
przeciwdziałania
zestawu
pozwolisz
##ozy
zapytam
doskonała
napoje
##rzęt
wieprz
1870
przetrzymy
uwielbiam
urok
usłyszał
sportowego
służące
dużymi
nadzieją
wskaźników
Kun
##arzeniem
Harcer
poprawie
zimowych
skompon
Rozmawialiśmy
##757
Opublikowano
wyglÄ
mazur
opóźnienia
wschodniego
Lod
Reich
Kuba
##nowej
Najpopular
napędu
Zh
najdro
wszystek
uciekła
towary
budynkach
stabilność
zaległości
Gracze
spóźnienie
Biblioteki
lor
owym
owego
##łup
Param
pośmier
Sex
pierścień
Łazienka
Whe
maleń
wzoru
wyborczych
wyszukiwarka
Justin
ZAR
Libera
demonstra
Jarosława
wiosce
głodna
iry
Żeglugi
Apr
ambu
WWE
Demokratycznej
ścię
byłej
spotkaliśmy
rozszerzeniu
ukraińskiej
BAR
usiądź
zasied
poważniejszych
##tnast
przelew
Kraju
fiolet
Strefa
##wsp
nieregular
##dur
komiks
nadwo
określi
##wcześniej
załatwi
prasowe
nieofi
naraz
obwodzie
Pozycja
Potrzeba
##zumiano
##rena
winda
##mani
##czów
Zabezpie
operacyjne
badaczy
potencjalnie
mez
bić
##ments
Wsiadaj
##piemy
plotki
Warszawskim
1880
Morawie
prostokąt
reg
tworzywa
##82
zaangażowany
Jig
wozu
tłumacz
szalona
ekspozycji
zremis
dis
zabiorę
artystyczne
Witryna
skończyliśmy
koktaj
menad
##NAP
przypomnę
systematycznie
heter
lekarstwo
cali
przyczyna
bliskich
uprzejm
Sprzeda
BBC
poszedłem
zapomnę
próbuj
konferencja
Liberec
wstąpi
wpada
##wczą
Main
poruczniku
Apostoł
Kło
nadają
panelu
TA
nakłada
##wich
relik
warstwa
napisem
oświetlenie
narodowy
dotychczasowej
sformułowanie
Hunt
łami
##istów
nazwano
zakończyło
zaktualizować
Twe
##cier
Casey
motywa
##określ
##żyliśmy
faw
uczą
##inęła
modlitwa
B1
malarz
wypowiedzieć
recepcji
Sędzi
wypuści
obsługu
##kologii
czynią
Frankie
RPA
wojennego
trwałości
zabiegi
Udział
bali
Mogłem
Barto
ciepłe
centrali
Odry
Podwój
przedmiotowego
uspokaja
Tajlandii
przeprowadziła
skraju
dbał
łuk
żwi
##ин
występowanie
Cywil
zaliczyć
zadawać
proponują
Konkurs
650
##dech
utworzeniu
historycznym
Hur
##aran
wesp
##jechaliśmy
stolik
Reżyseria
foli
żal
nienar
nogach
zawieszenie
antywirus
przyczynił
zarządów
Aj
Ras
##stała
##rujemy
Naprzód
niższa
dobrymi
GNU
artystycznych
Riley
antybioty
dodał
naśla
##zacyjnego
grają
gościom
Pożarnej
ubi
przylega
noży
##dence
Opinia
##head
pokolenie
aktora
##lips
Spencer
Vit
Posie
rzemi
skrzydł
medyczny
##emini
aukcji
Kenny
podają
Boża
Będziecie
Math
pedago
zarządzać
Półwy
Wartości
techniczna
zawartej
błędne
##bot
twojemu
dotrzy
pomnika
założone
Lad
##cyny
Stało
Sławomir
##żonego
##alia
transpar
dowolnego
Player
Wracamy
##gd
zainteresowana
odpadami
mik
##atycznego
internetowy
##usem
##IEL
##rish
Games
konstytucją
roztw
##ńczyka
handlowym
odwołanie
agresji
##mona
ziemiach
##iana
Prom
Taką
Alfa
Trzecia
popularności
Gibbs
##rim
starać
Skup
ule
tamten
aktywów
przyt
##ronnych
wznosi
Wizy
białą
Pedagogi
opuszcza
ujednoli
##ei
##stkę
Najlepsza
startował
Cennik
Mercedes
Kwo
utrata
poświęcona
interfejs
Konfedera
Bali
##otach
zaczynaj
Przeprowadz
grasz
Zajm
wiosnę
##hua
Derek
murów
kujaw
Ucz
niemiecko
##sywnie
##rażasz
Yun
produkowany
kierownictwem
zlokalizowany
Kö
##uza
prowo
##omit
Waldem
Giu
wszy
szedł
ładunek
cholerny
zalud
wybie
podoficer
zet
Śnież
właściciele
działający
prokuratura
materiałem
porcie
Czerwonego
zakupione
butelki
bob
##kowała
artystycznej
żołnierzem
ówczesny
oddalony
wpisane
Wspólnoty
Florencji
zaczęliśmy
sędzią
Zostawcie
##усский
##laks
grzybów
Kielcach
basenu
##SKIE
Rey
147
tłumaczyć
masowej
ekipa
##emia
odbywał
zarządzenia
poprzednia
silną
architekta
popełnienia
Urzędni
##piłem
powstałe
Państwowych
##ECH
aktorka
częstotliwość
Moskwa
Prawdziwy
##odziej
Książka
Rea
Dak
Ian
przedniej
przyjdą
strategię
usunięciu
Dania
akcyz
Prince
hory
plecach
gruntu
długotrwał
podsek
reaktyw
##ores
wybrali
motocykl
Pyta
oznaczonego
CNC
##szonego
budynkiem
Rzymian
Ośrodka
Skute
Poruczniku
##rent
prawdzie
duchowego
upuść
dotacje
##acie
##skowe
Diana
stawka
sklepach
konkursach
wyciągnie
nauczycielka
Ulubi
słucham
##stapo
Bah
traktowania
Ratu
Uczę
Court
wyprób
społecznie
Quick
133
dzieciach
Grod
Wsty
##rant
polubi
przejmuje
użytkownikom
##żeby
Zagraj
##dziecie
Gruzji
tradycje
##unięcie
Studiował
Fed
środę
##lizowanych
JA
Kay
Klimatyzacja
ogo
oczekują
otwieram
węglowod
wizerunku
Society
##ст
##pedy
zajęciach
Xbox
oczyścić
wpisany
fanem
##TK
##aris
Znalazłeś
Your
Mys
Line
##jemność
kalku
TK
gma
##otball
sterowanie
##osobie
przystąpił
kawałków
pierwotnej
Jedyny
bakterii
##ującej
zorganizowano
autobusu
konsekwentnie
czerwona
klasycznej
##tacjach
reguł
przyjdziesz
Salom
uniwersytetu
Kwa
plaz
##łanów
skak
zabiją
małymi
##pozycja
ZA
rozdziale
zapobiegania
kwadratowych
Tower
morzem
ułatwić
Wojewódzkiego
Inwest
ochrz
trwałe
rodzajem
Españ
domek
Nea
zapalenia
myślimy
Sprawozdanie
##nell
oddaje
##ktop
głowi
dumni
FM
zaż
have
szlachec
Dominik
skórze
dwanaście
Jour
próbek
ulicą
CC
wan
umówić
##szczyzny
papierze
Run
##conej
przejaw
Wielo
##żono
prowadzili
instytutu
Fren
nowości
intym
prowadząc
manifesta
chip
zawierających
wczesnym
obciążenie
##zma
żywe
##szasz
wystawę
##nan
projektami
oceniane
Sprzed
Kum
podjęta
kolorowanki
##UC
Allen
działki
urlopu
##dole
obraż
Misja
Najnowsze
dokonane
Islam
Break
dozna
##obb
czynu
kierowcą
przyjętych
Happy
izol
AW
##onę
racje
komputerowych
Producen
wykonawców
dyspozy
wzmianka
organizują
Linie
wiceprezy
Bub
##rymi
matu
tradycyjnie
zasadne
##EKRET
DN
##owności
##iago
nagrob
postanowiła
Orderem
Mogłeś
Jazz
zmieniły
Donald
##chorą
warunkami
DE
sia
namiot
zaowoc
zapominaj
źródłach
inż
łączna
suko
Schmi
wilgotności
wnętrzu
Wstrzy
naziem
oznaj
schow
Skończ
wyeliminować
marketingu
Zastosowanie
Kaw
pełnić
##kładają
wykorzystywana
powtarzam
Zbigniewa
##cket
Kb
toczą
weget
Connor
Zabił
##ajcie
Leszek
kolekcję
poziomach
królów
zawodowym
przekonania
jednoczesnym
##liłeś
##antami
lotniczej
##pper
sny
spontani
##liznę
niezro
Ptak
kolegi
pudełko
niezależny
pieska
pozarządowych
chuja
przemysłowe
Przyjaciele
Rozej
losu
przeszkadzam
księg
liturgi
Pur
bia
siero
Człowieku
IM
Wypo
Przewo
##nuję
dotychczasowy
Targi
hasłem
postulat
policją
wątek
Upewnij
##zującego
Wasi
gminach
Wro
penis
Travis
premierę
Elektro
oszuk
podsłuch
owej
Gada
odnawialnych
zapal
królowi
przygotowań
kadrze
Jem
wprawdzie
##niowego
Różne
alibi
mAby
##range
##ralną
znaną
łatwością
zabójcy
##wilej
uciekaj
wizytów
Przygotuj
artyści
Ziem
miejski
wydawca
obywatelom
zakaź
niepos
##widy
##dyka
rados
dochodowym
rozkwi
tenisa
staży
tajemnice
kulturalnych
Natura
Keith
Przykładem
aminokwa
mylę
innowacyjnych
nios
lekki
pragnienia
opiekunów
Naczelnego
Mody
Ruth
##wnie
przyro
stawić
beze
głęboki
łot
ordyn
skontak
1891
Engine
1885
Muzycznej
gitara
powiatowych
rakiety
nasion
##emit
##das
kafel
noce
przejęła
Podejrze
pierścionek
LA
skończysz
urazy
##ved
Plaża
Przyniosę
uczniem
wagonów
##kular
odnosząc
Nicole
symbole
Osied
asy
potężny
świadectwa
Poj
##ronu
zachowane
miłego
utworzona
Moto
##ózek
niemo
półfinale
bliska
napisany
przestała
Jilem
wytrzymałości
STANU
kupować
Natalie
Dosyć
pańska
rządowe
Przemyśl
średniego
przetwor
Pytania
trzydzieści
##kujący
Zawie
sposobie
kariera
TER
dłonie
rezon
Copa
otrzymaniu
Księgi
zmierzających
uzyskanych
dłuższego
hektar
##arnym
graczem
aran
wyry
skonf
Olimpijskich
kruch
##owami
podaj
korpusie
produktami
brą
uprawnionych
Śląsk
nastrój
##stadt
bezskute
odpada
arcybiskupa
zakwestionowano
nałoż
##naż
elektryczną
Emira
piasku
Spotyk
porównać
Gorz
Carrie
Statek
jelita
głuch
przywią
niz
lekarstwa
żartujesz
Heli
cew
126
partię
tradycję
podwyżki
przejazdu
Ashley
MG
wrz
ober
Jastrzę
wpła
##lał
Chcia
Coraz
##lizowana
programowania
##EKRETARZ
CV
##ía
obrona
##qui
Dalsze
##bał
##zywały
znałem
podobną
historycznego
przyczynia
##orzystaj
debiu
Spod
szkołą
Trasa
121
skierowana
kolorowe
Wschodnich
Bezpośredni
znaczących
Zja
##leckiego
rury
straszny
Wielkopolski
trójkąt
Wuj
równe
wychowan
poinformowanie
porówna
zapotrzebowania
##sorcjum
##okrą
mordercy
zlokalizowane
Moją
Przyjdź
przypuszcza
prezentowane
ciasta
drę
##cowi
Mamu
usuwania
##ар
zostałeś
Pay
przestępczości
ciekawa
wyłu
zebranie
Realizacja
forsy
Przypomina
konferencję
RC
przyprowadzi
tygry
areszcie
oddanie
olbrzymi
[...]
